<pad>	0
<unk>	0
<bos>	0
<eos>	0
<sep>	0
<lang:or>	0
<lang:hi>	0
<lang:en>	0
▁क	-0
▁t	-1
▁a	-2
he	-3
in	-4
er	-5
▁the	-6
on	-7
▁स	-8
▁ह	-9
re	-10
▁म	-11
▁o	-12
▁प	-13
an	-14
at	-15
्र	-16
en	-17
▁s	-18
ed	-19
is	-20
or	-21
▁c	-22
es	-23
it	-24
al	-25
▁of	-26
▁w	-27
▁an	-28
ar	-29
▁के	-30
▁ସ	-31
ାର	-32
▁है	-33
▁in	-34
▁b	-35
ार	-36
▁ପ	-37
ें	-38
୍ର	-39
ic	-40
▁କ	-41
▁f	-42
▁p	-43
▁ज	-44
▁and	-45
▁व	-46
या	-47
▁अ	-48
ion	-49
ing	-50
▁में	-51
as	-52
ro	-53
▁(	-54
▁ବ	-55
▁ब	-56
▁न	-57
▁m	-58
ରେ	-59
▁A	-60
▁।	-61
र्	-62
▁द	-63
▁to	-64
▁ମ	-65
le	-66
▁d	-67
୍ୟ	-68
▁र	-69
ान	-70
ों	-71
୍ତ	-72
ता	-73
▁1	-74
▁h	-75
्य	-76
▁ଏ	-77
ou	-78
ent	-79
▁T	-80
▁की	-81
▁का	-82
▁ल	-83
ଥି	-84
▁ଅ	-85
▁उ	-86
िक	-87
▁भ	-88
om	-89
▁प्र	-90
▁ग	-91
st	-92
ଙ୍	-93
▁औ	-94
ାନ	-95
il	-96
▁C	-97
ର୍	-98
▁re	-99
▁S	-100
ct	-101
▁और	-102
्त	-103
▁से	-104
el	-105
▁B	-106
ରି	-107
▁इ	-108
ol	-109
▁ନ	-110
▁e	-111
▁l	-112
▁त	-113
ने	-114
▁ହ	-115
▁th	-116
▁n	-117
▁आ	-118
▁श	-119
ित	-120
▁को	-121
ଙ୍କ	-122
am	-123
us	-124
▁ए	-125
ବା	-126
्व	-127
▁ଦ	-128
ation	-129
िया	-130
ur	-131
ଥିଲ	-132
न्	-133
et	-134
ିକ	-135
ch	-136
ly	-137
▁I	-138
ad	-139
ना	-140
id	-141
iv	-142
ିତ	-143
▁The	-144
▁ର	-145
im	-146
▁ପ୍ର	-147
ce	-148
▁M	-149
un	-150
▁य	-151
▁is	-152
ाल	-153
ot	-154
▁ଜ	-155
ig	-156
▁कर	-157
ut	-158
िल	-159
▁पर	-160
ନ୍	-161
▁19	-162
ାଇ	-163
▁as	-164
▁for	-165
▁ଭ	-166
▁ଓ	-167
▁be	-168
ir	-169
था	-170
▁ଆ	-171
▁वि	-172
▁g	-173
▁P	-174
▁2	-175
ers	-176
ra	-177
▁इस	-178
▁हैं	-179
▁on	-180
ul	-181
ist	-182
ହି	-183
▁ତ	-184
▁च	-185
▁हो	-186
स्	-187
ith	-188
▁एक	-189
▁was	-190
▁କରି	-191
ow	-192
ती	-193
ाज	-194
िय	-195
▁ଗ	-196
ाम	-197
ାରେ	-198
▁H	-199
▁st	-200
ଥିଲେ	-201
em	-202
▁"	-203
her	-204
्ष	-205
▁ବି	-206
ter	-207
▁con	-208
ହା	-209
▁with	-210
▁सं	-211
हा	-212
os	-213
ay	-214
▁जा	-215
th	-216
▁by	-217
▁R	-218
▁al	-219
um	-220
00	-221
ver	-222
ନ୍ତ	-223
ମ୍	-224
▁E	-225
and	-226
▁ଯ	-227
▁F	-228
ड़	-229
୍ୱ	-230
୍ଟ	-231
▁ସେ	-232
▁G	-233
▁that	-234
▁ଶ	-235
▁D	-236
▁wh	-237
କୁ	-238
ति	-239
ते	-240
ଡ଼	-241
त्र	-242
▁सम	-243
op	-244
▁L	-245
od	-246
ରା	-247
ाद	-248
▁ने	-249
ri	-250
▁pro	-251
▁कि	-252
ag	-253
ରୁ	-254
्ट	-255
▁୧	-256
est	-257
▁W	-258
▁In	-259
av	-260
ास	-261
्म	-262
्या	-263
ुर	-264
▁फ	-265
ंग	-266
▁N	-267
ian	-268
ାମ	-269
▁de	-270
rom	-271
ac	-272
▁ନି	-273
▁or	-274
ସି	-275
के	-276
▁com	-277
▁ଉ	-278
▁ଚ	-279
▁v	-280
से	-281
▁भी	-282
ତି	-283
if	-284
▁सा	-285
ab	-286
ain	-287
res	-288
ଣ୍	-289
▁it	-290
▁ଲ	-291
୍ଷ	-292
ies	-293
▁are	-294
नी	-295
ଥା	-296
ला	-297
ity	-298
का	-299
▁su	-300
री	-301
▁at	-302
▁लि	-303
ୋଇ	-304
ସ୍	-305
ାବ	-306
pe	-307
▁स्	-308
▁from	-309
ेश	-310
oun	-311
▁थ	-312
ate	-313
▁ex	-314
क्ष	-315
▁-	-316
▁ହୋଇ	-317
▁J	-318
ନା	-319
▁ख	-320
ଟି	-321
ମାନ	-322
ud	-323
ही	-324
रा	-325
ोग	-326
▁ଏକ	-327
▁अप	-328
▁किया	-329
qu	-330
ia	-331
oc	-332
▁O	-333
ort	-334
ant	-335
ନ୍ଦ	-336
▁था	-337
▁राज	-338
),	-339
ंद	-340
कार	-341
ich	-342
▁he	-343
▁ଏହି	-344
वा	-345
ess	-346
ld	-347
▁se	-348
▁୨	-349
▁अन	-350
द्	-351
▁r	-352
▁हु	-353
िस	-354
art	-355
▁यह	-356
ical	-357
all	-358
ore	-359
ill	-360
୍ୟା	-361
ial	-362
se	-363
▁नि	-364
ଥିଲା	-365
ment	-366
ive	-367
▁ଅନ	-368
ାଙ୍କ	-369
▁लिए	-370
कर	-371
िन	-372
ap	-373
▁–	-374
▁ଦେ	-375
igh	-376
ली	-377
▁U	-378
ାତ	-379
ard	-380
न्द	-381
ated	-382
▁un	-383
୍ଚ	-384
ish	-385
ିନ	-386
ିଆ	-387
ଛି	-388
og	-389
ber	-390
ूप	-391
ଧ୍ୟ	-392
ୋଗ	-393
ew	-394
▁ବା	-395
କ୍ଷ	-396
ले	-397
▁ଏବ	-398
▁his	-399
▁दे	-400
ଷ୍ଟ	-401
ଣ୍ଡ	-402
ak	-403
ाय	-404
▁भार	-405
की	-406
▁गया	-407
ୀୟ	-408
ction	-409
▁ଏବଂ	-410
ip	-411
ां	-412
▁us	-413
ere	-414
▁20	-415
▁which	-416
ाष	-417
ost	-418
ure	-419
gh	-420
▁ହେ	-421
ine	-422
▁K	-423
्री	-424
द्ध	-425
▁जो	-426
▁୧୯	-427
▁ch	-428
ହାର	-429
▁उस	-430
mer	-431
ary	-432
▁मु	-433
end	-434
ଙ୍ଗ	-435
ge	-436
▁କରିଥିଲେ	-437
ther	-438
ूर्	-439
ଲେ	-440
▁ରା	-441
मा	-442
ast	-443
ାର୍	-444
ଲା	-445
କ୍ତ	-446
pp	-447
▁were	-448
pt	-449
ारा	-450
▁ध	-451
▁ସମ	-452
▁ही	-453
▁pl	-454
ell	-455
त्	-456
ଦ୍	-457
▁ମଧ୍ୟ	-458
िर	-459
cl	-460
▁जाता	-461
सी	-462
क्त	-463
ov	-464
du	-465
rit	-466
ଯା	-467
ଥିବା	-468
ave	-469
वि	-470
▁रूप	-471
▁उन	-472
ियों	-473
▁୨୦	-474
▁ଏହା	-475
our	-476
▁not	-477
▁Ch	-478
हीं	-479
ran	-480
▁comp	-481
▁le	-482
▁अध	-483
ong	-484
▁k	-485
▁कु	-486
କାର	-487
▁वर्	-488
▁द्व	-489
ous	-490
▁ପାଇ	-491
ंड	-492
▁कार	-493
▁ar	-494
ିଶ	-495
▁ले	-496
ord	-497
per	-498
▁ସା	-499
ीन	-500
न्ह	-501
ନ୍ତି	-502
ାଳ	-503
so	-504
▁या	-505
ाव	-506
म्	-507
cc	-508
▁स्थ	-509
ame	-510
ub	-511
ाह	-512
ାସ	-513
ect	-514
▁ତାଙ୍କ	-515
ल्	-516
ight	-517
ear	-518
त्त	-519
ତା	-520
ୁର	-521
ଲି	-522
ओं	-523
▁St	-524
iz	-525
ire	-526
▁ड	-527
up	-528
ry	-529
ition	-530
ome	-531
▁200	-532
स्त	-533
▁हि	-534
िव	-535
▁ନିର୍	-536
▁विश	-537
େଶ	-538
▁तथा	-539
ult	-540
▁ट	-541
▁An	-542
▁उप	-543
ff	-544
ଲ୍	-545
▁sh	-546
ाने	-547
ust	-548
ाग	-549
्रे	-550
ican	-551
▁थे	-552
▁ମସି	-553
्च	-554
▁नहीं	-555
▁have	-556
▁cont	-557
▁ଫ	-558
▁18	-559
▁ଇ	-560
▁ସ୍	-561
ଯ୍ୟ	-562
▁ଖ	-563
der	-564
▁Al	-565
ଯାଏ	-566
▁करने	-567
ib	-568
19	-569
▁int	-570
▁साथ	-571
▁କରା	-572
▁ସଂ	-573
ations	-574
▁१	-575
ign	-576
▁କି	-577
ass	-578
ence	-579
▁ଓଡ଼	-580
▁घ	-581
▁मह	-582
▁V	-583
▁ସହ	-584
ानी	-585
सा	-586
ାୟ	-587
ide	-588
ିତ୍ର	-589
▁पह	-590
ଷ୍	-591
▁also	-592
age	-593
▁has	-594
ack	-595
ୃତ	-596
ूर	-597
▁ad	-598
▁had	-599
ସ୍ତ	-600
ue	-601
ାରତ	-602
▁'	-603
pl	-604
▁3	-605
▁सि	-606
▁ପା	-607
ार्	-608
▁स्व	-609
▁its	-610
▁y	-611
ात	-612
▁अनु	-613
▁ab	-614
▁छ	-615
ब्	-616
▁द्वारा	-617
ie	-618
ph	-619
▁ପାଇଁ	-620
ृत	-621
▁ପରି	-622
erm	-623
▁ଭାବ	-624
▁बाद	-625
ally	-626
▁जिस	-627
ren	-628
र्म	-629
▁रह	-630
ंत	-631
▁ଉପ	-632
▁सु	-633
ଯାଇ	-634
hen	-635
୍ରୀ	-636
▁ରାଜ	-637
ount	-638
▁their	-639
ory	-640
ang	-641
▁उन्ह	-642
दी	-643
ok	-644
▁ଭାରତ	-645
▁Th	-646
ବି	-647
▁res	-648
act	-649
▁नाम	-650
▁भारत	-651
ाप	-652
ମା	-653
▁201	-654
▁थी	-655
▁wor	-656
ater	-657
▁जी	-658
▁तक	-659
ru	-660
▁ମୁ	-661
▁लग	-662
irst	-663
▁Un	-664
▁part	-665
▁cl	-666
वं	-667
▁अपने	-668
▁but	-669
ष्	-670
▁क्ष	-671
में	-672
▁other	-673
ାଗ	-674
्ञ	-675
▁ଡ	-676
ree	-677
red	-678
ିର	-679
िला	-680
ould	-681
).	-682
▁ଜଣ	-683
ates	-684
con	-685
ଥାଏ	-686
▁Amer	-687
▁all	-688
ୋକ	-689
fer	-690
▁dis	-691
ेल	-692
tern	-693
▁|	-694
clud	-695
▁वाल	-696
मी	-697
▁im	-698
▁दो	-699
ely	-700
▁en	-701
ଳା	-702
any	-703
क्	-704
▁ଅନୁ	-705
ବର	-706
वी	-707
▁ବ୍ୟ	-708
ज़	-709
ବେ	-710
over	-711
ions	-712
ାରୁ	-713
▁Ar	-714
out	-715
▁होता	-716
▁first	-717
▁अधिक	-718
orm	-719
ाना	-720
ଦ୍ଧ	-721
▁this	-722
▁दिया	-723
▁ଧ	-724
जी	-725
ach	-726
▁can	-727
▁पु	-728
oll	-729
ମାନଙ୍କ	-730
▁मा	-731
ାରା	-732
୍ରେ	-733
▁वे	-734
port	-735
▁हुआ	-736
own	-737
ile	-738
ime	-739
रे	-740
िश	-741
ाई	-742
▁ସମ୍	-743
land	-744
▁सक	-745
ress	-746
▁been	-747
und	-748
▁one	-749
देश	-750
ens	-751
୍ରି	-752
ace	-753
ेत्र	-754
ारी	-755
ric	-756
ik	-757
▁199	-758
▁ଅଧ	-759
able	-760
ep	-761
hed	-762
▁,	-763
ହାରେ	-764
ାନ୍ତ	-765
▁includ	-766
िल्म	-767
wo	-768
ound	-769
▁वह	-770
▁bec	-771
▁It	-772
fter	-773
erv	-774
te	-775
कि	-776
▁per	-777
ାରି	-778
ାରଣ	-779
स्ट	-780
ाषा	-781
ष्ट	-782
▁ପୁ	-783
୍ରା	-784
▁एवं	-785
▁ବର୍	-786
ational	-787
▁comm	-788
▁te	-789
ର୍ବ	-790
େକ	-791
ces	-792
▁निर्	-793
▁ହୁ	-794
ron	-795
ାହା	-796
ugh	-797
ତ୍	-798
▁American	-799
▁ro	-800
ced	-801
ढ़	-802
▁इन	-803
भी	-804
▁पा	-805
▁बह	-806
vel	-807
▁क्षेत्र	-808
େତ	-809
▁ମସିହାରେ	-810
ice	-811
मान	-812
ase	-813
▁सब	-814
▁ରୋଗ	-815
▁4	-816
ुत	-817
ोल	-818
▁sy	-819
ance	-820
▁ନାମ	-821
olog	-822
▁who	-823
we	-824
▁ଅଭ	-825
योग	-826
▁ରହି	-827
ଟେ	-828
▁ag	-829
▁तो	-830
ts	-831
ंत्र	-832
▁मे	-833
हर	-834
▁des	-835
ents	-836
▁ପ୍ରତି	-837
୍ଜ	-838
▁En	-839
▁sc	-840
▁साम	-841
ors	-842
▁such	-843
uring	-844
les	-845
िका	-846
ମେ	-847
ଚ୍ଚ	-848
प्र	-849
ଦି	-850
▁ne	-851
ୀର	-852
ism	-853
▁used	-854
ited	-855
जा	-856
ough	-857
▁cent	-858
ubl	-859
ज्ञ	-860
ंध	-861
ଞ୍ଚ	-862
▁5	-863
ite	-864
न्न	-865
▁sp	-866
गर	-867
तीय	-868
▁पूर्	-869
▁form	-870
ade	-871
୍ତ୍ତ	-872
▁j	-873
▁ଓଡ଼ିଶ	-874
ks	-875
ୀତ	-876
▁spe	-877
aw	-878
▁ସ୍ୱ	-879
▁cons	-880
ଶ୍ୱ	-881
र्व	-882
▁year	-883
खा	-884
▁He	-885
ose	-886
▁व्य	-887
▁ସୁ	-888
दि	-889
▁ପରେ	-890
ିକା	-891
ne	-892
ଣ୍ଟ	-893
▁भाषा	-894
▁ई	-895
▁more	-896
▁ମା	-897
▁बना	-898
ans	-899
▁प्रति	-900
▁କରିବା	-901
ोज	-902
▁जै	-903
ath	-904
▁राज्य	-905
▁most	-906
ोंने	-907
र्थ	-908
▁ଭାବରେ	-909
▁two	-910
ाष्ट	-911
▁୨୦୧	-912
▁पुर	-913
ied	-914
▁यहा	-915
▁वर्ष	-916
▁ହୁଏ	-917
▁ev	-918
▁मिल	-919
क्र	-920
ोट	-921
▁ପୂ	-922
▁कुछ	-923
पुर	-924
ob	-925
ଞ୍ଜ	-926
▁rec	-927
स्थ	-928
ular	-929
▁198	-930
ଧାନ	-931
▁into	-932
रण	-933
ड़ी	-934
▁କୁ	-935
▁गु	-936
▁they	-937
▁As	-938
କା	-939
ूल	-940
ୟରେ	-941
▁(19	-942
▁कह	-943
▁समय	-944
ମି	-945
ଦ୍ୱ	-946
मु	-947
▁pre	-948
ତ୍ତ	-949
्ल	-950
नों	-951
ोक	-952
amp	-953
▁बी	-954
▁मान	-955
ଣ୍ଣ	-956
ड़ा	-957
ମାନେ	-958
ics	-959
▁ele	-960
ଙ୍କୁ	-961
▁rel	-962
▁play	-963
चार	-964
▁197	-965
▁ଅବ	-966
्ड	-967
▁स्थित	-968
one	-969
ଳି	-970
▁जन	-971
ौर	-972
reat	-973
▁bet	-974
▁me	-975
ଳେ	-976
▁over	-977
୍ସ	-978
▁produ	-979
▁विश्व	-980
ood	-981
▁जब	-982
aus	-983
old	-984
ेर	-985
ft	-986
▁हुए	-987
୍ୟୁ	-988
शन	-989
▁gro	-990
▁ବ୍ୟବ	-991
▁फ़	-992
लि	-993
धार	-994
ark	-995
ରୀ	-996
rib	-997
▁ऐ	-998
ury	-999
oin	-1000
▁than	-1001
▁ଘ	-1002
ious	-1003
▁ସି	-1004
▁लोग	-1005
als	-1006
ନ୍ନ	-1007
▁reg	-1008
▁अभ	-1009
ାର୍ଯ୍ୟ	-1010
ाइ	-1011
ेट	-1012
▁करते	-1013
बर	-1014
are	-1015
iss	-1016
▁उत्त	-1017
▁विक	-1018
▁हिन्द	-1019
ଷ୍ଠ	-1020
ted	-1021
▁भारतीय	-1022
▁ଟ	-1023
▁इसके	-1024
rans	-1025
ener	-1026
सि	-1027
▁ଗୋ	-1028
▁ଜଣେ	-1029
ys	-1030
▁सी	-1031
▁सबसे	-1032
▁am	-1033
िण	-1034
ିବା	-1035
▁କଥା	-1036
▁ଲୋକ	-1037
▁after	-1038
wn	-1039
ଣା	-1040
▁ac	-1041
ings	-1042
ons	-1043
ोर	-1044
ased	-1045
▁att	-1046
न्त	-1047
दा	-1048
▁ब्र	-1049
▁यु	-1050
rough	-1051
ीय	-1052
▁ମି	-1053
▁ओ	-1054
नि	-1055
▁क्र	-1056
▁Se	-1057
▁ବେ	-1058
gl	-1059
ଭା	-1060
▁बन	-1061
▁6	-1062
सार	-1063
▁act	-1064
क्ति	-1065
▁ଥିଲେ	-1066
form	-1067
oth	-1068
▁out	-1069
ween	-1070
▁ନା	-1071
▁pr	-1072
▁num	-1073
िये	-1074
୍ରହ	-1075
फ़	-1076
टर	-1077
ାଦ	-1078
▁कारण	-1079
▁मुख	-1080
▁କରାଯାଇ	-1081
▁some	-1082
here	-1083
▁सर	-1084
▁pol	-1085
ଛନ୍ତି	-1086
वाद	-1087
▁Y	-1088
▁ଛ	-1089
▁ବର୍ଷ	-1090
▁दू	-1091
ଦ୍ୱାରା	-1092
▁196	-1093
ral	-1094
ook	-1095
ail	-1096
ନି	-1097
▁app	-1098
▁kn	-1099
ivers	-1100
20	-1101
▁sub	-1102
ific	-1103
▁उनके	-1104
ହୁ	-1105
▁ଯେ	-1106
କ୍ର	-1107
000	-1108
▁This	-1109
arg	-1110
ଦେଶ	-1111
▁देश	-1112
▁उन्होंने	-1113
श्च	-1114
▁ଦୁ	-1115
▁ph	-1116
ଠାରେ	-1117
▁अव	-1118
ind	-1119
▁କେ	-1120
▁होती	-1121
▁ଗୁ	-1122
▁acc	-1123
stem	-1124
ମ୍ଭ	-1125
यु	-1126
पूर्	-1127
ोप	-1128
୦୦	-1129
ାପ	-1130
ah	-1131
▁କାର୍ଯ୍ୟ	-1132
ative	-1133
लय	-1134
कों	-1135
▁between	-1136
▁संग	-1137
वन	-1138
▁ra	-1139
ual	-1140
▁only	-1141
ध्य	-1142
निक	-1143
ଭି	-1144
ंच	-1145
▁Com	-1146
ରଣ	-1147
ଣି	-1148
▁अपनी	-1149
gan	-1150
ars	-1151
्रीय	-1152
▁under	-1153
▁would	-1154
▁time	-1155
▁भू	-1156
▁ଭାରତୀୟ	-1157
▁7	-1158
▁राष्ट	-1159
▁ग्र	-1160
ନୀ	-1161
▁प्रा	-1162
▁ear	-1163
▁Re	-1164
ବାର	-1165
▁mod	-1166
▁अन्य	-1167
ug	-1168
ଚିତ୍ର	-1169
▁अम	-1170
ଥାନ	-1171
ium	-1172
▁मै	-1173
ଜ୍	-1174
▁ଅଧିକ	-1175
ten	-1176
ुल	-1177
▁new	-1178
▁pe	-1179
cre	-1180
▁ଅନ୍ୟ	-1181
ict	-1182
ଣୀ	-1183
▁कई	-1184
द्य	-1185
▁१९	-1186
hes	-1187
",	-1188
କ୍ତି	-1189
ild	-1190
▁कार्य	-1191
▁होने	-1192
▁ଏହାର	-1193
ities	-1194
▁ପ୍ରଥ	-1195
ram	-1196
हित	-1197
ाप्त	-1198
▁ଅଭିନ	-1199
ନ୍ଦ୍ର	-1200
▁up	-1201
▁17	-1202
orn	-1203
att	-1204
ନ୍ଦିର	-1205
▁so	-1206
▁कहा	-1207
ern	-1208
ाट	-1209
▁inter	-1210
▁col	-1211
େଇ	-1212
overn	-1213
ଠାରୁ	-1214
▁count	-1215
▁२	-1216
▁when	-1217
▁उत्	-1218
iet	-1219
▁जाती	-1220
▁pop	-1221
त्य	-1222
ond	-1223
▁tr	-1224
▁fl	-1225
▁ଦେଖ	-1226
urn	-1227
ince	-1228
ेष	-1229
▁ସାଧ	-1230
▁दु	-1231
ିଲ୍	-1232
ନ୍ଧ	-1233
▁ind	-1234
च्च	-1235
िट	-1236
".	-1237
▁କଥାଚିତ୍ର	-1238
▁off	-1239
▁कै	-1240
कृत	-1241
▁कम	-1242
▁De	-1243
▁ନିର୍ବା	-1244
▁trans	-1245
ୀନ	-1246
▁महा	-1247
▁(1	-1248
ण्ड	-1249
▁there	-1250
▁୨୦୦	-1251
▁गई	-1252
ାନ୍ତି	-1253
द्र	-1254
ists	-1255
िता	-1256
▁प्रकार	-1257
oh	-1258
▁बार	-1259
▁may	-1260
▁ass	-1261
cial	-1262
▁ऑ	-1263
▁bl	-1264
ଗୁ	-1265
▁फिल्म	-1266
▁संस्	-1267
▁बहुत	-1268
velop	-1269
oy	-1270
मुख	-1271
▁At	-1272
uc	-1273
ର୍ଯ୍ୟ	-1274
ास्त	-1275
▁करता	-1276
▁जि	-1277
ित्र	-1278
भाव	-1279
▁हुई	-1280
▁qu	-1281
वे	-1282
▁ଆର	-1283
द्या	-1284
▁ଯୋଗ	-1285
▁दी	-1286
▁Brit	-1287
▁many	-1288
ୋଟ	-1289
▁def	-1290
ution	-1291
ident	-1292
uro	-1293
▁ନିର୍ବାଚ	-1294
io	-1295
थाप	-1296
▁we	-1297
ward	-1298
▁किसी	-1299
ilm	-1300
ख्या	-1301
▁तर	-1302
▁मंद	-1303
माण	-1304
▁system	-1305
ନ୍ମ	-1306
▁8	-1307
ject	-1308
▁them	-1309
ve	-1310
ଂଶ	-1311
गा	-1312
ople	-1313
ୋଜ	-1314
ever	-1315
ines	-1316
्स	-1317
କି	-1318
ंह	-1319
ished	-1320
▁pres	-1321
िले	-1322
ତ୍ର	-1323
▁ହେଉ	-1324
aj	-1325
ower	-1326
▁him	-1327
▁194	-1328
▁ମନ୍ଦିର	-1329
ीत	-1330
ating	-1331
▁use	-1332
man	-1333
▁ଯାହା	-1334
▁बि	-1335
ix	-1336
▁publ	-1337
ोध	-1338
को	-1339
▁सू	-1340
..	-1341
▁dif	-1342
▁during	-1343
▁:	-1344
▁अंत	-1345
▁through	-1346
▁ନିଜ	-1347
त्व	-1348
ollow	-1349
▁ତାଙ୍କର	-1350
▁15	-1351
ାଲ	-1352
ये	-1353
▁ମହା	-1354
▁ହି	-1355
▁भाग	-1356
arch	-1357
ake	-1358
ाली	-1359
▁वाले	-1360
▁rem	-1361
▁मंदिर	-1362
▁गए	-1363
बंध	-1364
ଙ୍କର	-1365
▁ଦେଇ	-1366
▁विभ	-1367
▁ସାଧାରଣ	-1368
ड़े	-1369
ର୍ମ	-1370
▁ଓଡ଼ିଆ	-1371
▁हिन्दी	-1372
▁ଓଡ଼ିଶା	-1373
▁man	-1374
▁about	-1375
▁पू	-1376
▁years	-1377
किन	-1378
▁ବୋ	-1379
न्द्र	-1380
ମ୍ପ	-1381
▁पहले	-1382
ब्द	-1383
▁ऊ	-1384
▁pos	-1385
▁her	-1386
▁work	-1387
ର୍ଣ୍ଣ	-1388
▁call	-1389
▁em	-1390
▁met	-1391
,000	-1392
▁195	-1393
hip	-1394
ପାରେ	-1395
▁found	-1396
ins	-1397
ton	-1398
्यू	-1399
outh	-1400
ures	-1401
हार	-1402
▁New	-1403
ient	-1404
▁आदि	-1405
▁supp	-1406
▁चु	-1407
▁दक्ष	-1408
चना	-1409
▁୩	-1410
▁व्या	-1411
▁where	-1412
▁inv	-1413
hem	-1414
▁known	-1415
▁var	-1416
▁ଜନ	-1417
ଖ୍ୟ	-1418
▁inf	-1419
▁ବିଶ୍ୱ	-1420
angu	-1421
▁co	-1422
▁बा	-1423
▁16	-1424
बी	-1425
▁उसके	-1426
ज्ञान	-1427
्यों	-1428
ୀବ	-1429
▁ହୋଇଥିଲା	-1430
ାରୀ	-1431
िक्ष	-1432
▁सकता	-1433
୍ପ	-1434
ered	-1435
▁लेकिन	-1436
▁ସମୟରେ	-1437
▁set	-1438
िम	-1439
ays	-1440
▁प्रमुख	-1441
ିବ	-1442
▁पूर्व	-1443
▁वै	-1444
▁10	-1445
▁prov	-1446
▁ଥିବା	-1447
▁स्थान	-1448
त्म	-1449
▁କର	-1450
▁ମଧ୍ୟରେ	-1451
▁gener	-1452
पर	-1453
glish	-1454
▁Con	-1455
▁do	-1456
tain	-1457
▁ଥିଲା	-1458
दान	-1459
▁ob	-1460
▁ता	-1461
▁develop	-1462
▁ଯୁ	-1463
▁श्री	-1464
▁ଚଳ	-1465
ock	-1466
▁प्राप्त	-1467
▁दक्षिण	-1468
००	-1469
▁9	-1470
▁ଭା	-1471
▁କ୍ଷ	-1472
धान	-1473
▁उन्हें	-1474
▁କରାଯାଏ	-1475
ର୍ଶ	-1476
▁ଅଟେ	-1477
र्ष	-1478
▁उसे	-1479
inal	-1480
▁शहर	-1481
▁ज़	-1482
▁मन	-1483
▁Is	-1484
▁କରୁ	-1485
ily	-1486
▁est	-1487
▁दिन	-1488
▁Am	-1489
▁inst	-1490
cess	-1491
▁United	-1492
▁होते	-1493
cept	-1494
▁मुख्य	-1495
very	-1496
fore	-1497
ियम	-1498
cted	-1499
▁tra	-1500
ized	-1501
▁ସ୍ଥାନ	-1502
▁Le	-1503
ause	-1504
▁ପୁର	-1505
owever	-1506
ंक	-1507
▁aut	-1508
ll	-1509
▁Ind	-1510
ଜ୍ଞ	-1511
▁govern	-1512
ଭାବ	-1513
ंज	-1514
yp	-1515
ement	-1516
▁film	-1517
ेन	-1518
ier	-1519
▁जैसे	-1520
ाला	-1521
ସ୍ଥି	-1522
ଡି	-1523
▁रहा	-1524
ଜା	-1525
▁उनकी	-1526
सर	-1527
मार	-1528
▁English	-1529
orth	-1530
▁ap	-1531
୍ରିୟ	-1532
▁century	-1533
▁स्थाप	-1534
ise	-1535
▁these	-1536
▁exp	-1537
टी	-1538
ହିତ	-1539
ural	-1540
round	-1541
ବୀ	-1542
ically	-1543
▁ये	-1544
cy	-1545
cond	-1546
र्य	-1547
ଦୀ	-1548
हास	-1549
▁ଅନୁସ	-1550
ष्ठ	-1551
ually	-1552
धि	-1553
ଡ଼ି	-1554
ସେ	-1555
ctions	-1556
ike	-1557
▁hist	-1558
▁mem	-1559
ପୁର	-1560
▁पार	-1561
तिक	-1562
▁धर्म	-1563
▁serv	-1564
▁number	-1565
ପ୍ର	-1566
▁follow	-1567
ନ୍ତ୍ର	-1568
ments	-1569
ଚ୍ଚିତ୍ର	-1570
▁On	-1571
▁अल	-1572
▁उत्तर	-1573
▁यहाँ	-1574
ंग्रे	-1575
▁रहे	-1576
▁dist	-1577
lex	-1578
▁Sp	-1579
▁ଆରମ୍ଭ	-1580
▁अनुसार	-1581
ंप	-1582
ବୁ	-1583
▁sur	-1584
▁writ	-1585
cent	-1586
ature	-1587
▁Germ	-1588
ାତ୍ର	-1589
▁again	-1590
uss	-1591
पूर्ण	-1592
▁पी	-1593
ନରେ	-1594
ହିଁ	-1595
▁For	-1596
ex	-1597
▁କୋ	-1598
▁सभी	-1599
काल	-1600
ାନ୍	-1601
its	-1602
यी	-1603
rist	-1604
ोह	-1605
ନ୍ତୁ	-1606
ଢ଼	-1607
ology	-1608
▁ସହିତ	-1609
."	-1610
च्	-1611
ष्ण	-1612
▁Bl	-1613
ible	-1614
uch	-1615
करण	-1616
ck	-1617
ians	-1618
▁ସଭା	-1619
▁झ	-1620
▁art	-1621
▁शब्द	-1622
iel	-1623
▁including	-1624
▁no	-1625
▁made	-1626
▁ଚଳଚ୍ଚିତ୍ର	-1627
▁bu	-1628
▁जाने	-1629
▁cap	-1630
शी	-1631
▁ପ୍ରଥମ	-1632
▁well	-1633
▁ପର	-1634
ून	-1635
न्म	-1636
▁being	-1637
▁add	-1638
क्षा	-1639
▁Pro	-1640
ଳୀ	-1641
ale	-1642
▁sign	-1643
ann	-1644
କ୍	-1645
▁दूस	-1646
ke	-1647
▁Ad	-1648
▁Af	-1649
▁राजा	-1650
▁loc	-1651
▁निक	-1652
ax	-1653
ife	-1654
▁Euro	-1655
▁rep	-1656
▁end	-1657
az	-1658
▁while	-1659
▁ମୂ	-1660
▁उत्प	-1661
ହେ	-1662
ुरु	-1663
▁main	-1664
ros	-1665
▁ପୂର୍ବ	-1666
▁ଲେ	-1667
ames	-1668
ାତୀୟ	-1669
▁काम	-1670
▁later	-1671
ପି	-1672
र्त	-1673
▁शास	-1674
▁stud	-1675
▁ext	-1676
ସ୍ଥ	-1677
▁राम	-1678
▁ବିଧାନ	-1679
▁eff	-1680
▁langu	-1681
ଳରେ	-1682
the	-1683
च्छ	-1684
▁people	-1685
▁पश्च	-1686
▁बीच	-1687
तिहास	-1688
▁ବ୍ୟବହାର	-1689
ମ୍ବା	-1690
▁सर्व	-1691
▁British	-1692
▁सम्	-1693
▁Aust	-1694
▁विशेष	-1695
▁world	-1696
▁both	-1697
▁three	-1698
oman	-1699
ball	-1700
▁फ़िल्म	-1701
ୂପ	-1702
▁War	-1703
▁car	-1704
▁imp	-1705
ीर	-1706
▁Ap	-1707
▁fe	-1708
▁then	-1709
ork	-1710
▁ଶ୍ରୀ	-1711
େଷ	-1712
▁char	-1713
ision	-1714
▁Sc	-1715
▁इसका	-1716
▁called	-1717
ଳ୍ପ	-1718
िन्न	-1719
▁differ	-1720
ick	-1721
▁ହୋଇଥିଲେ	-1722
▁ent	-1723
▁group	-1724
▁ଅନେକ	-1725
ରାଜ	-1726
क्ट	-1727
▁रख	-1728
ages	-1729
ility	-1730
େଟ	-1731
दे	-1732
▁city	-1733
▁करना	-1734
▁mon	-1735
▁high	-1736
▁देख	-1737
▁परिव	-1738
ିକ୍ଷ	-1739
▁लिया	-1740
▁spec	-1741
ँच	-1742
▁Z	-1743
▁ଅଭିନୟ	-1744
▁dire	-1745
▁became	-1746
ेद	-1747
ather	-1748
वान	-1749
bers	-1750
other	-1751
िल्	-1752
कृ	-1753
▁const	-1754
▁mus	-1755
एँ	-1756
र्ग	-1757
▁जाते	-1758
ଲୋ	-1759
▁ଅନୁସାରେ	-1760
୍ରହଣ	-1761
▁लिये	-1762
ର୍ତ୍ତ	-1763
▁Europe	-1764
1,	-1765
▁कोई	-1766
ues	-1767
ulation	-1768
▁cre	-1769
▁polit	-1770
▁ରହିଛି	-1771
▁any	-1772
ived	-1773
िप	-1774
▁सो	-1775
eg	-1776
काश	-1777
ants	-1778
ved	-1779
▁स्ट	-1780
▁mov	-1781
▁ଦିଆ	-1782
▁Sh	-1783
imes	-1784
▁dec	-1785
ଦ୍ର	-1786
elf	-1787
ajor	-1788
भग	-1789
▁ଜନ୍ମ	-1790
raph	-1791
ଦ୍ୟା	-1792
▁ଉପରେ	-1793
oot	-1794
▁sim	-1795
द्यालय	-1796
▁12	-1797
▁सिंह	-1798
ियाँ	-1799
ସ୍କାର	-1800
सं	-1801
▁बै	-1802
▁early	-1803
▁सरकार	-1804
ract	-1805
ଖି	-1806
▁चाह	-1807
▁term	-1808
▁ଅପ	-1809
्वर	-1810
▁इसे	-1811
▁ପି	-1812
▁देव	-1813
▁तरह	-1814
▁पद	-1815
ank	-1816
els	-1817
▁୧୯୯	-1818
▁dep	-1819
▁sm	-1820
▁ସର	-1821
म्ब	-1822
▁193	-1823
ତିକ	-1824
▁air	-1825
▁ant	-1826
▁bel	-1827
▁Fran	-1828
ंब	-1829
ool	-1830
କାଶ	-1831
▁हर	-1832
▁लोक	-1833
▁शाम	-1834
▁ମହ	-1835
▁जीवन	-1836
▁ଭାଷ	-1837
ina	-1838
▁जु	-1839
ସର	-1840
▁ଲକ୍ଷ	-1841
rop	-1842
ିତା	-1843
▁दर्	-1844
▁States	-1845
▁ଡି	-1846
▁नी	-1847
▁ମେ	-1848
▁orig	-1849
ମନ୍ତ	-1850
inist	-1851
सिद्ध	-1852
▁दि	-1853
▁Joh	-1854
दर्	-1855
▁प्रयोग	-1856
air	-1857
▁ପର୍ଯ୍ୟ	-1858
▁୪	-1859
୍ମ	-1860
यर	-1861
▁Christ	-1862
भा	-1863
ସ୍କ	-1864
▁Wor	-1865
व्य	-1866
▁अर्थ	-1867
▁ଔ	-1868
▁lead	-1869
▁କା	-1870
▁रे	-1871
▁Ab	-1872
iversity	-1873
▁ଥ	-1874
द्व	-1875
▁कृ	-1876
▁ला	-1877
▁Can	-1878
ମୁ	-1879
▁Col	-1880
▁sing	-1881
तर	-1882
▁ed	-1883
▁साहित	-1884
▁नगर	-1885
rench	-1886
▁sever	-1887
ାଧ	-1888
▁Be	-1889
ଣୁ	-1890
▁କଲେ	-1891
▁partic	-1892
ଗତ	-1893
▁state	-1894
▁୫	-1895
ଷ୍ଟି	-1896
▁ଜୀବ	-1897
णा	-1898
ty	-1899
▁बु	-1900
▁ଆଦି	-1901
ble	-1902
illion	-1903
िंग	-1904
▁ପ୍ରାୟ	-1905
स्था	-1906
▁ଭାବେ	-1907
▁result	-1908
ful	-1909
gy	-1910
ae	-1911
ପା	-1912
▁बे	-1913
▁यहां	-1914
▁ओर	-1915
ंद्र	-1916
▁साहित्य	-1917
କ୍ଷା	-1918
ବ୍	-1919
ange	-1920
▁second	-1921
erson	-1922
▁14	-1923
▁ରାଜ୍ୟ	-1924
ग्र	-1925
▁ବୋଲି	-1926
▁contin	-1927
2,	-1928
ଜି	-1929
▁जल	-1930
abl	-1931
▁ତେ	-1932
ଉଁ	-1933
▁long	-1934
धिक	-1935
▁ret	-1936
प्त	-1937
▁ପ୍ରଦ	-1938
▁काल	-1939
▁रा	-1940
ତଃ	-1941
ार्थ	-1942
▁ମୁଖ୍ୟ	-1943
ेम	-1944
ash	-1945
▁मध्य	-1946
▁ମାନ	-1947
▁larg	-1948
▁दोनों	-1949
ଷ୍ଟ୍ର	-1950
▁ଅର୍	-1951
▁लगभग	-1952
iew	-1953
▁मौ	-1954
▁ଜାତୀୟ	-1955
ield	-1956
▁ରେ	-1957
ital	-1958
ଟର	-1959
til	-1960
ting	-1961
थम	-1962
▁भूम	-1963
▁निर्माण	-1964
▁चल	-1965
वल	-1966
▁जिन	-1967
हाँ	-1968
▁[	-1969
▁लोगों	-1970
yn	-1971
ox	-1972
ଡ଼ିକ	-1973
▁जन्म	-1974
▁ସାମ	-1975
▁ଦୁଇ	-1976
▁स्त	-1977
यन	-1978
▁oper	-1979
ୟୁ	-1980
▁ପୁରସ୍କାର	-1981
ives	-1982
▁शामिल	-1983
ute	-1984
▁often	-1985
କ୍ରମ	-1986
vent	-1987
▁II	-1988
▁ଦିନ	-1989
▁ଉତ୍ତ	-1990
▁କିଛି	-1991
▁ser	-1992
▁French	-1993
▁appe	-1994
▁Cl	-1995
iver	-1996
▁common	-1997
▁प्रभाव	-1998
inn	-1999
ଖରେ	-2000
ंट	-2001
▁ଉତ୍	-2002
▁पै	-2003
ember	-2004
▁ଭୂ	-2005
ବର୍ତ୍ତ	-2006
iam	-2007
▁तीन	-2008
▁इसी	-2009
▁आव	-2010
▁परि	-2011
▁ଜିଲ୍	-2012
iod	-2013
hor	-2014
ीप	-2015
ତ୍ୟ	-2016
श्य	-2017
ान्त	-2018
ସନ	-2019
ined	-2020
▁जिसमें	-2021
▁desc	-2022
धी	-2023
तु	-2024
atic	-2025
▁same	-2026
▁आप	-2027
ସ୍ଥିତ	-2028
ଷଧ	-2029
▁World	-2030
ording	-2031
▁भग	-2032
▁government	-2033
▁प्रदेश	-2034
▁राष्ट्र	-2035
ene	-2036
▁John	-2037
ରିକ	-2038
arge	-2039
▁Ph	-2040
▁war	-2041
my	-2042
▁नदी	-2043
▁occ	-2044
वर	-2045
चीन	-2046
୍ରାମ	-2047
▁med	-2048
3,	-2049
▁major	-2050
युक्त	-2051
▁ନିର୍ଦ୍	-2052
ଥିରେ	-2053
▁design	-2054
▁.	-2055
omet	-2056
▁ଔଷଧ	-2057
▁consid	-2058
yl	-2059
ared	-2060
urch	-2061
▁could	-2062
ैंड	-2063
▁own	-2064
osed	-2065
chn	-2066
▁support	-2067
▁मी	-2068
though	-2069
conom	-2070
ଳୟ	-2071
▁युद्ध	-2072
▁आर	-2073
▁शिक्ष	-2074
▁फिर	-2075
▁against	-2076
▁रो	-2077
▁fam	-2078
रिक	-2079
ccess	-2080
▁हम	-2081
▁ତଥା	-2082
▁sl	-2083
ional	-2084
▁ସମ୍ପ	-2085
▁sch	-2086
गी	-2087
ଭିନ୍ନ	-2088
▁ମହି	-2089
जन	-2090
▁ତାଙ୍କୁ	-2091
▁ବିଶ	-2092
▁ଚା	-2093
▁प्रसिद्ध	-2094
फल	-2095
ମାଣ	-2096
क्रम	-2097
ाँ	-2098
ର୍କ	-2099
ଦେ	-2100
enn	-2101
eng	-2102
ample	-2103
▁आधार	-2104
ଡ଼ା	-2105
▁विकास	-2106
▁law	-2107
▁(2	-2108
▁ଦ୍ୱ	-2109
▁गो	-2110
▁बढ़	-2111
acter	-2112
ica	-2113
▁सह	-2114
▁incre	-2115
▁disc	-2116
ଚନା	-2117
ିନି	-2118
to	-2119
▁country	-2120
▁ବିଭିନ୍ନ	-2121
▁before	-2122
ମିକ	-2123
▁ମିଶ	-2124
5,	-2125
ଟକ	-2126
▁सद	-2127
ନାଥ	-2128
▁ବୟ	-2129
▁four	-2130
led	-2131
ଖ୍ୟା	-2132
ley	-2133
▁since	-2134
0.	-2135
▁ଦେଖା	-2136
ୋଧ	-2137
▁ସେହି	-2138
▁remain	-2139
ilit	-2140
▁मार	-2141
▁ପ୍ରା	-2142
▁11	-2143
धु	-2144
oint	-2145
▁bro	-2146
ंश	-2147
▁name	-2148
way	-2149
▁उपयोग	-2150
▁ଚିକ	-2151
ୁଲ	-2152
▁small	-2153
ired	-2154
ଯୋଗ	-2155
ोष	-2156
com	-2157
ଟିର	-2158
ସ୍ଥା	-2159
▁मूल	-2160
aking	-2161
▁ଶିକ୍ଷ	-2162
▁several	-2163
्टी	-2164
▁अब	-2165
▁will	-2166
▁she	-2167
lu	-2168
बाद	-2169
त्रा	-2170
▁କିନ୍ତୁ	-2171
ides	-2172
▁each	-2173
विद्यालय	-2174
▁कप	-2175
▁Comm	-2176
▁प्राचीन	-2177
8,	-2178
गे	-2179
aid	-2180
ively	-2181
लों	-2182
୧୯	-2183
ବାହ	-2184
ुष	-2185
ius	-2186
▁ଦଳ	-2187
▁land	-2188
▁वाली	-2189
▁ଝ	-2190
ird	-2191
▁ହେବା	-2192
7,	-2193
म्म	-2194
▁ମୃତ	-2195
xt	-2196
▁अपना	-2197
ternational	-2198
ised	-2199
▁दौर	-2200
ଟିଏ	-2201
ମ୍ବର	-2202
▁13	-2203
▁ବହୁ	-2204
son	-2205
▁ହୋଇପାରେ	-2206
निया	-2207
▁ମସିହାର	-2208
lect	-2209
▁contro	-2210
▁हिंद	-2211
6,	-2212
▁କୌ	-2213
▁because	-2214
pen	-2215
पति	-2216
ring	-2217
ven	-2218
ाया	-2219
ांत	-2220
▁अर्	-2221
▁୬	-2222
ଗୋ	-2223
▁बनी	-2224
ପ୍ତ	-2225
▁prog	-2226
0,	-2227
धा	-2228
ଲାର	-2229
rad	-2230
▁ମାସ	-2231
▁गण	-2232
ारों	-2233
▁192	-2234
ିତ୍ସ	-2235
ପରି	-2236
▁different	-2237
▁However	-2238
arm	-2239
▁୧୯୮	-2240
▁large	-2241
वर्	-2242
▁public	-2243
▁=	-2244
▁प्रकाश	-2245
▁राष्ट्रीय	-2246
ियन	-2247
िस्त	-2248
▁सम्म	-2249
ason	-2250
ries	-2251
-1	-2252
ouse	-2253
्यु	-2254
▁आज	-2255
4,	-2256
ସୁ	-2257
▁महत्व	-2258
▁अने	-2259
स्थान	-2260
ତ୍ୟା	-2261
ୋର	-2262
▁छोट	-2263
rent	-2264
▁German	-2265
▁शिव	-2266
▁if	-2267
୍ୱର	-2268
▁ସଙ୍ଗ	-2269
▁Wh	-2270
ices	-2271
▁ଅନ୍ତ	-2272
▁ଚିକିତ୍ସ	-2273
▁There	-2274
ंस	-2275
▁करती	-2276
▁hum	-2277
▁until	-2278
▁ବୃ	-2279
ided	-2280
▁example	-2281
▁ज्ञ	-2282
▁ठ	-2283
वाह	-2284
▁Mar	-2285
▁दृ	-2286
▁Em	-2287
▁include	-2288
▁माना	-2289
▁कहते	-2290
▁trad	-2291
म्प	-2292
▁ତା	-2293
▁ins	-2294
ाण	-2295
▁Or	-2296
▁चौ	-2297
ruct	-2298
que	-2299
▁ନାହିଁ	-2300
▁ହୋଇଥାଏ	-2301
▁ପର୍ଯ୍ୟନ୍ତ	-2302
ued	-2303
▁equ	-2304
▁effect	-2305
oci	-2306
inc	-2307
▁ref	-2308
▁commun	-2309
▁साल	-2310
▁elect	-2311
▁191	-2312
▁लेख	-2313
▁व्यव	-2314
▁Car	-2315
स्कार	-2316
ाक	-2317
ଜନ	-2318
▁direct	-2319
▁अस	-2320
▁घर	-2321
itions	-2322
oph	-2323
एं	-2324
▁अध्य	-2325
ୋନ	-2326
▁cult	-2327
▁mat	-2328
ris	-2329
▁import	-2330
पी	-2331
bert	-2332
▁जग	-2333
ुरू	-2334
▁book	-2335
▁पहु	-2336
▁ବିଜ	-2337
▁सिद्ध	-2338
▁Sch	-2339
▁ନେଇ	-2340
▁पास	-2341
▁success	-2342
ograph	-2343
▁ଯା	-2344
▁अभि	-2345
▁ରକ୍ତ	-2346
attle	-2347
▁जान	-2348
ୂର	-2349
ମିତ	-2350
▁इतिहास	-2351
तः	-2352
▁period	-2353
por	-2354
▁min	-2355
ୋଷ	-2356
▁उनका	-2357
ey	-2358
ets	-2359
ases	-2360
िए	-2361
िकी	-2362
▁अमेर	-2363
▁Gree	-2364
▁୧୯୭	-2365
▁back	-2366
ified	-2367
ission	-2368
वीं	-2369
▁ଯେଉଁ	-2370
ମନ୍ତେ	-2371
▁And	-2372
ator	-2373
▁संबंध	-2374
▁University	-2375
▁ବୁ	-2376
वास	-2377
▁ହେଲେ	-2378
फी	-2379
▁det	-2380
▁ଦେଶ	-2381
▁power	-2382
▁अंग्रे	-2383
vers	-2384
▁val	-2385
▁ଲି	-2386
ार्ग	-2387
▁अनेक	-2388
▁ନିମନ୍ତେ	-2389
ience	-2390
▁ନିର୍ଦ୍ଦେଶ	-2391
cer	-2392
ration	-2393
▁ସବୁ	-2394
ୁକ୍ତ	-2395
▁establ	-2396
ym	-2397
▁सै	-2398
▁केवल	-2399
ross	-2400
▁cur	-2401
▁ପାର୍	-2402
▁organ	-2403
▁तब	-2404
ze	-2405
ୁଆ	-2406
राज	-2407
▁King	-2408
ोर्	-2409
ପରେ	-2410
rid	-2411
ଣସି	-2412
िल्ली	-2413
यास	-2414
▁शु	-2415
▁हा	-2416
▁प्रश	-2417
ହିତ୍ୟ	-2418
ization	-2419
ସା	-2420
▁ହେଉଛି	-2421
द्योग	-2422
▁—	-2423
▁वर्ण	-2424
▁କଳା	-2425
ोड़	-2426
▁leg	-2427
▁Alex	-2428
୍ନ	-2429
କାରୀ	-2430
▁ପଦ	-2431
ुद	-2432
pect	-2433
▁cor	-2434
स्य	-2435
▁व्यक्ति	-2436
▁କୁହା	-2437
ଡେ	-2438
▁श्र	-2439
▁उसकी	-2440
▁econom	-2441
▁record	-2442
▁କରାଯାଇଥିଲା	-2443
raft	-2444
▁fun	-2445
ଂଗ	-2446
▁refer	-2447
त्या	-2448
ole	-2449
कृति	-2450
▁ହୋଇଥିବା	-2451
aim	-2452
▁जाना	-2453
ଖା	-2454
୍ରୋ	-2455
▁show	-2456
▁अग	-2457
▁population	-2458
▁Austral	-2459
▁Q	-2460
rodu	-2461
▁जिले	-2462
▁near	-2463
▁बात	-2464
ane	-2465
med	-2466
iety	-2467
▁ଅଞ୍ଚ	-2468
▁around	-2469
ତନ	-2470
▁୧୮	-2471
▁ଆସି	-2472
ull	-2473
▁କରନ୍ତି	-2474
▁allow	-2475
▁इसमें	-2476
▁संघ	-2477
▁रही	-2478
lands	-2479
▁author	-2480
▁ସାହିତ୍ୟ	-2481
▁स्प	-2482
क्स	-2483
▁कला	-2484
डी	-2485
▁ଆମେ	-2486
▁କାମ	-2487
▁पुरस्कार	-2488
▁कॉ	-2489
▁requ	-2490
de	-2491
par	-2492
icial	-2493
न्ध	-2494
▁भगवान	-2495
▁उद	-2496
▁ବିଷ	-2497
ताओं	-2498
ଥାନ୍ତି	-2499
▁ତାରି	-2500
ript	-2501
▁योग	-2502
dom	-2503
▁rele	-2504
▁दौरान	-2505
▁अलग	-2506
▁ती	-2507
ର୍ଷ	-2508
▁हे	-2509
▁କମ	-2510
▁language	-2511
ंभ	-2512
▁ଲା	-2513
▁par	-2514
▁ଉଚ୍ଚ	-2515
କ୍ଟ	-2516
▁विष	-2517
▁Cent	-2518
▁क्यों	-2519
ize	-2520
ମ୍ବ	-2521
▁विभिन्न	-2522
ामी	-2523
▁ଗୋଟିଏ	-2524
ुक	-2525
▁अर	-2526
ove	-2527
▁National	-2528
▁Bar	-2529
▁स्क	-2530
▁ହିନ୍ଦ	-2531
▁class	-2532
▁process	-2533
▁though	-2534
▁Mus	-2535
ତୀ	-2536
▁did	-2537
▁इसकी	-2538
▁ଦେଇଥିଲେ	-2539
णी	-2540
ାର୍ଥ	-2541
▁death	-2542
୍ଲ	-2543
▁BC	-2544
▁str	-2545
क्षण	-2546
▁लिख	-2547
▁Canad	-2548
–1	-2549
▁based	-2550
oss	-2551
▁ରୂପ	-2552
▁area	-2553
▁ମଣ୍ଡ	-2554
କର	-2555
पाल	-2556
▁Ag	-2557
ेक	-2558
▁व्याप	-2559
जय	-2560
▁those	-2561
▁दिल्ली	-2562
let	-2563
resent	-2564
▁शिक्षा	-2565
▁सकते	-2566
▁right	-2567
ାଜ	-2568
▁soc	-2569
▁ସହର	-2570
ଦ୍ୟାଳୟ	-2571
ilar	-2572
▁जिसे	-2573
9,	-2574
ended	-2575
▁poss	-2576
ged	-2577
▁विर	-2578
▁music	-2579
iven	-2580
▁Pr	-2581
▁ମନ	-2582
▁South	-2583
▁पृ	-2584
▁निय	-2585
▁lit	-2586
▁player	-2587
▁वृ	-2588
▁conf	-2589
amed	-2590
नाथ	-2591
▁କିମ୍ବା	-2592
मन	-2593
au	-2594
▁After	-2595
▁mar	-2596
▁ମୃତ୍ୟୁ	-2597
ୃଷ୍ଟି	-2598
▁ଶି	-2599
iving	-2600
ଗୁଡ଼ିକ	-2601
▁କୌଣସି	-2602
▁person	-2603
▁Roman	-2604
▁series	-2605
▁प्रथम	-2606
शा	-2607
▁among	-2608
ୃତି	-2609
▁ସ୍ତ	-2610
▁appro	-2611
▁खिला	-2612
rab	-2613
▁like	-2614
ival	-2615
yd	-2616
ences	-2617
▁ବେଳେ	-2618
▁fin	-2619
ବାଦ	-2620
▁po	-2621
▁They	-2622
▁କ୍ର	-2623
olution	-2624
ୀରେ	-2625
row	-2626
तंत्र	-2627
▁ଅଟ	-2628
ଦା	-2629
ल्प	-2630
▁ଦି	-2631
▁order	-2632
्‍	-2633
▁describ	-2634
▁non	-2635
omin	-2636
ନୀତି	-2637
▁million	-2638
▁Pl	-2639
▁US	-2640
▁अन्त	-2641
गो	-2642
▁टी	-2643
▁ली	-2644
ବେଳେ	-2645
▁div	-2646
ently	-2647
▁ହେଲା	-2648
ଷ୍ଣ	-2649
ness	-2650
▁expl	-2651
▁ଅବସ୍ଥିତ	-2652
▁बद	-2653
▁କେତ	-2654
▁modern	-2655
▁ann	-2656
▁By	-2657
▁କରେ	-2658
▁202	-2659
▁Russ	-2660
ilitary	-2661
▁ସମ୍ମାନ	-2662
ner	-2663
ately	-2664
▁program	-2665
▁ଯୋଗୁ	-2666
्वी	-2667
tle	-2668
▁शासन	-2669
ଶ୍ୟ	-2670
▁mark	-2671
aced	-2672
ୁନ	-2673
▁eng	-2674
une	-2675
▁ପ୍ରକାଶ	-2676
▁even	-2677
▁शुरू	-2678
▁‘	-2679
▁ଫେ	-2680
ची	-2681
ଚିତ	-2682
र्क	-2683
50	-2684
ode	-2685
▁influ	-2686
▁अंतर	-2687
ai	-2688
▁୭	-2689
▁୧୯୬	-2690
▁began	-2691
ander	-2692
ody	-2693
▁ଚି	-2694
ried	-2695
▁bas	-2696
▁ଯାଇ	-2697
▁life	-2698
epend	-2699
▁water	-2700
ଳନ	-2701
ological	-2702
▁histor	-2703
▁दूर	-2704
चे	-2705
େତ୍ର	-2706
भव	-2707
▁ଦକ୍ଷ	-2708
ुम	-2709
ink	-2710
ପତି	-2711
▁पिता	-2712
▁पुत्र	-2713
by	-2714
aving	-2715
gg	-2716
ple	-2717
▁word	-2718
estern	-2719
▁ଏହାକୁ	-2720
ec	-2721
▁much	-2722
▁रचना	-2723
▁ଜା	-2724
िस्तान	-2725
▁विश्वविद्यालय	-2726
▁These	-2727
▁संख्या	-2728
ତୁ	-2729
amb	-2730
ପୁ	-2731
हां	-2732
▁ବ୍ୟା	-2733
▁ଶୁ	-2734
▁ब्रिट	-2735
ोजन	-2736
▁ସମୟ	-2737
▁tem	-2738
▁समाज	-2739
▁सेना	-2740
ung	-2741
▁team	-2742
ମାନଙ୍କୁ	-2743
▁stand	-2744
▁techn	-2745
▁चार	-2746
▁prop	-2747
▁वो	-2748
▁Air	-2749
▁pass	-2750
▁North	-2751
▁run	-2752
ଥିବ	-2753
ves	-2754
The	-2755
ery	-2756
स्प	-2757
▁within	-2758
▁Ge	-2759
वरी	-2760
▁समझ	-2761
rand	-2762
▁All	-2763
▁gu	-2764
बा	-2765
▁ପାର	-2766
omen	-2767
▁दर	-2768
▁due	-2769
▁पड़	-2770
▁बो	-2771
▁using	-2772
ରୁଷ	-2773
ैल	-2774
▁विचार	-2775
मे	-2776
ूत	-2777
ष्टि	-2778
▁ter	-2779
▁कवि	-2780
▁ଜଳ	-2781
▁କାରଣ	-2782
▁perform	-2783
▁ଗୀତ	-2784
▁exper	-2785
af	-2786
▁ନେ	-2787
dust	-2788
टना	-2789
▁ଦାସ	-2790
▁धार	-2791
▁आम	-2792
▁character	-2793
ुओं	-2794
▁ସୂ	-2795
eb	-2796
rew	-2797
▁ऋ	-2798
ूह	-2799
▁opp	-2800
▁following	-2801
gen	-2802
ାମାନ	-2803
ଶ୍ଚ	-2804
▁stat	-2805
ugust	-2806
ପୂ	-2807
▁belie	-2808
▁rad	-2809
▁foot	-2810
▁କରିବାକୁ	-2811
1.	-2812
ards	-2813
▁स्थापना	-2814
▁रंग	-2815
▁बड़ा	-2816
read	-2817
▁typ	-2818
▁କଥାଚିତ୍ରଟିର	-2819
▁ना	-2820
ଶୀ	-2821
▁rest	-2822
ଂହ	-2823
ott	-2824
▁ସଂଗ	-2825
▁गां	-2826
▁शता	-2827
▁ଖେ	-2828
▁Acc	-2829
▁vers	-2830
ରିଆ	-2831
ids	-2832
▁अति	-2833
▁av	-2834
ms	-2835
देव	-2836
▁उच्च	-2837
ारे	-2838
କୃତ	-2839
▁क्योंकि	-2840
▁comput	-2841
दार	-2842
▁rece	-2843
ଜ୍ଞାନ	-2844
ंदर	-2845
▁prom	-2846
▁very	-2847
▁)	-2848
▁सन्	-2849
चित	-2850
ଦ୍ୟ	-2851
ିମ	-2852
गल	-2853
rian	-2854
▁ଚିକିତ୍ସା	-2855
▁report	-2856
िलो	-2857
▁August	-2858
ential	-2859
▁କରିଛନ୍ତି	-2860
▁ନିର୍ବାଚନ	-2861
itional	-2862
▁ଭାରତର	-2863
▁now	-2864
▁ଉତ୍ତର	-2865
▁बड़े	-2866
▁led	-2867
जे	-2868
ର୍ଶନ	-2869
गु	-2870
tic	-2871
▁still	-2872
alth	-2873
▁rev	-2874
ूम	-2875
▁୧୯୫	-2876
पा	-2877
ories	-2878
ମୀ	-2879
▁प्रत्य	-2880
▁डॉ	-2881
ोन	-2882
ब्दी	-2883
▁popular	-2884
ୋହ	-2885
▁adv	-2886
):	-2887
हाय	-2888
▁मृत	-2889
ague	-2890
▁आय	-2891
ियां	-2892
▁पत्	-2893
▁dem	-2894
2.	-2895
ेशन	-2896
ains	-2897
▁हाल	-2898
ର୍ଭ	-2899
▁190	-2900
▁नाग	-2901
ତମ	-2902
ata	-2903
▁ନିକ	-2904
▁present	-2905
▁महार	-2906
ior	-2907
▁ହେଇ	-2908
▁संगीत	-2909
▁ସମସ୍ତ	-2910
ेड	-2911
▁along	-2912
ster	-2913
▁fact	-2914
▁ख़	-2915
▁लगा	-2916
ଠା	-2917
▁bus	-2918
ास्त्र	-2919
▁arch	-2920
କାଳ	-2921
▁es	-2922
▁ज्ञान	-2923
ଗର	-2924
ୋପ	-2925
▁comb	-2926
craft	-2927
▁ପ୍ରକାର	-2928
▁महत्वपूर्ण	-2929
▁Ass	-2930
ଚ୍	-2931
त्ति	-2932
▁ଲାଗ	-2933
▁Some	-2934
▁dr	-2935
▁resp	-2936
3.	-2937
▁ମସିହା	-2938
▁स्थापित	-2939
▁Ear	-2940
टा	-2941
ସୀ	-2942
ality	-2943
▁ଅଛି	-2944
lic	-2945
.,	-2946
ିଣ	-2947
▁history	-2948
ादी	-2949
▁general	-2950
▁bi	-2951
्न	-2952
ପାରି	-2953
▁Pol	-2954
▁open	-2955
▁considered	-2956
▁ସଙ୍ଗୀତ	-2957
tal	-2958
▁बाह	-2959
▁ଦେବ	-2960
▁ପ୍ରଭାବ	-2961
▁return	-2962
▁जिला	-2963
ନର	-2964
idd	-2965
▁cour	-2966
पि	-2967
▁त्र	-2968
ense	-2969
▁वाला	-2970
▁ଦିଆଯାଏ	-2971
▁inc	-2972
▁उत्पाद	-2973
▁similar	-2974
୨୦	-2975
▁ढ	-2976
eder	-2977
▁Par	-2978
ୋଲ	-2979
▁बता	-2980
धन	-2981
ंत्री	-2982
▁उसका	-2983
▁राजनी	-2984
त्ता	-2985
ल्ले	-2986
स्ता	-2987
▁last	-2988
ales	-2989
▁କାଳ	-2990
ह्म	-2991
▁line	-2992
lin	-2993
▁नव	-2994
तम	-2995
ାୟକ	-2996
▁Eng	-2997
▁national	-2998
put	-2999
चा	-3000
ୃଷ୍ଣ	-3001
▁ବଡ଼	-3002
▁hand	-3003
▁यूर	-3004
टन	-3005
▁भर	-3006
▁hig	-3007
▁start	-3008
▁କରିଥିଲା	-3009
▁जिसके	-3010
▁ଦେବୀ	-3011
cing	-3012
▁Ber	-3013
▁members	-3014
▁उसने	-3015
▁सामान	-3016
▁ଆଇ	-3017
▁build	-3018
▁ଗ୍ରାମ	-3019
▁Bo	-3020
ଂରାଜ	-3021
▁ଶ୍ରେ	-3022
▁कुमार	-3023
▁डि	-3024
▁୮	-3025
ublic	-3026
▁particular	-3027
day	-3028
▁place	-3029
▁la	-3030
▁ବୟସ	-3031
▁crit	-3032
apt	-3033
▁पं	-3034
▁वस्त	-3035
▁सहाय	-3036
▁हिस्	-3037
▁important	-3038
sc	-3039
▁ଅଗ	-3040
▁ଭାଗ	-3041
▁ଅଟନ୍ତି	-3042
▁शताब्दी	-3043
▁ଆଲ	-3044
मीटर	-3045
line	-3046
stit	-3047
▁विज्ञान	-3048
ଶି	-3049
▁वर्ग	-3050
ବଳ	-3051
▁चित्र	-3052
▁ୱ	-3053
▁Hist	-3054
श्व	-3055
▁head	-3056
ूद	-3057
▁कभी	-3058
ସ୍ତୁ	-3059
▁ଗା	-3060
▁old	-3061
▁ଦୂର	-3062
▁पत्र	-3063
▁ଭି	-3064
▁May	-3065
ମାନଙ୍କର	-3066
େନ	-3067
▁bo	-3068
▁vis	-3069
େଶ୍ୱର	-3070
▁Will	-3071
ଯାଉ	-3072
▁school	-3073
▁fre	-3074
ek	-3075
ିକୁ	-3076
▁पृथ	-3077
▁fore	-3078
▁attack	-3079
iness	-3080
▁अभिने	-3081
କ୍ରମଣ	-3082
▁ସର୍ବ	-3083
ony	-3084
स्थित	-3085
ban	-3086
श्यक	-3087
ination	-3088
ats	-3089
ଭାଗ	-3090
▁various	-3091
लो	-3092
▁Rep	-3093
▁गये	-3094
ray	-3095
▁ତାରିଖରେ	-3096
▁पुस्त	-3097
जर	-3098
▁ଫୁ	-3099
ंगा	-3100
ାନ୍ୟ	-3101
▁less	-3102
▁great	-3103
pire	-3104
▁सेवा	-3105
ilt	-3106
ese	-3107
▁मि	-3108
astern	-3109
▁Greek	-3110
्ले	-3111
▁child	-3112
▁रु	-3113
न्तु	-3114
्राज	-3115
5.	-3116
कु	-3117
▁किए	-3118
▁अला	-3119
ମାର	-3120
▁home	-3121
ଟ୍	-3122
▁प्रव	-3123
ental	-3124
▁ଯୁକ୍ତ	-3125
▁game	-3126
▁कुल	-3127
▁represent	-3128
ियर	-3129
▁His	-3130
▁$	-3131
▁human	-3132
▁चाहिए	-3133
▁ଗ୍ରହଣ	-3134
▁ରାଜନୀତି	-3135
▁ସରକାର	-3136
rem	-3137
urg	-3138
▁ଦକ୍ଷିଣ	-3139
▁ଏଠାରେ	-3140
ୟୀ	-3141
ician	-3142
▁Te	-3143
ାତ୍ରା	-3144
▁आस	-3145
ିଆରି	-3146
▁दूसरे	-3147
▁रेल	-3148
▁Ital	-3149
▁York	-3150
ଂଗ୍ରେ	-3151
▁बड़ी	-3152
▁प्रधान	-3153
ଗା	-3154
▁टे	-3155
ches	-3156
▁Cal	-3157
धानी	-3158
ites	-3159
aster	-3160
▁ଶତ	-3161
ିବାକୁ	-3162
▁ident	-3163
ैन	-3164
्रम	-3165
▁ବୈ	-3166
▁हाथ	-3167
▁पहली	-3168
▁short	-3169
ଗ୍ରହଣ	-3170
म्भ	-3171
▁बच्च	-3172
▁ରି	-3173
▁said	-3174
▁ଓଡ଼ିଶାର	-3175
▁gl	-3176
▁ରାମ	-3177
▁Ex	-3178
ots	-3179
▁ଥାଏ	-3180
▁ଜଣା	-3181
hod	-3182
▁military	-3183
▁what	-3184
olic	-3185
▁ମିଶ୍ର	-3186
ठन	-3187
empt	-3188
▁नामक	-3189
agn	-3190
ivil	-3191
▁ନିକଟ	-3192
▁colle	-3193
▁ତାହା	-3194
ालय	-3195
कारी	-3196
urs	-3197
▁अधिकार	-3198
▁pat	-3199
ଟା	-3200
.)	-3201
ସିଆ	-3202
▁cer	-3203
ger	-3204
▁claim	-3205
▁୧୦	-3206
wards	-3207
▁ତିଆରି	-3208
▁European	-3209
ଧି	-3210
▁गयी	-3211
ବନ	-3212
▁विषय	-3213
▁aff	-3214
▁Char	-3215
▁आवश्यक	-3216
ସଂ	-3217
▁किलो	-3218
ତେ	-3219
▁अथ	-3220
▁pract	-3221
▁परिवार	-3222
istic	-3223
ेज	-3224
anu	-3225
ंतु	-3226
▁largest	-3227
isc	-3228
adem	-3229
▁जाए	-3230
▁phys	-3231
वाल	-3232
ेंट	-3233
▁भाव	-3234
ither	-3235
▁development	-3236
▁ପୃ	-3237
▁Br	-3238
▁ରଚନା	-3239
स्व	-3240
▁२००	-3241
▁बारे	-3242
▁समान	-3243
▁प्रार	-3244
▁another	-3245
▁जिसका	-3246
▁ମଧ୍ୟରୁ	-3247
▁species	-3248
ट्ट	-3249
▁स्वतंत्र	-3250
▁देता	-3251
षि	-3252
8.	-3253
urther	-3254
▁କ୍ଷେତ୍ର	-3255
▁Ro	-3256
ଚାର	-3257
वार	-3258
▁ହୋଇଛି	-3259
यं	-3260
▁କେତେକ	-3261
ribut	-3262
न्त्र	-3263
▁वर्त	-3264
त्री	-3265
▁କରୁଥିଲେ	-3266
7.	-3267
▁मृत्यु	-3268
ably	-3269
▁former	-3270
▁Ed	-3271
▁शै	-3272
▁kill	-3273
▁political	-3274
सम	-3275
eter	-3276
▁indust	-3277
▁sol	-3278
▁ପ୍ରସ	-3279
▁Mon	-3280
▁बनाया	-3281
▁According	-3282
▁रू	-3283
▁लेकर	-3284
▁सुर	-3285
▁बाल	-3286
▁କୁହାଯାଏ	-3287
▁ଆବ	-3288
▁left	-3289
▁origin	-3290
▁पश्चिम	-3291
▁Bra	-3292
▁prot	-3293
▁go	-3294
▁शा	-3295
formation	-3296
धारण	-3297
arian	-3298
ଭେ	-3299
▁साम्राज	-3300
ଣ୍ଡା	-3301
▁region	-3302
ंथ	-3303
▁करके	-3304
▁point	-3305
alf	-3306
कृतिक	-3307
ule	-3308
▁फ्र	-3309
▁Arab	-3310
▁पूर्ण	-3311
▁निर्देश	-3312
▁published	-3313
▁family	-3314
▁late	-3315
6.	-3316
ଞ୍ଜି	-3317
▁port	-3318
▁ब्रह्म	-3319
सल	-3320
▁Her	-3321
▁ऐसा	-3322
reen	-3323
▁पर्व	-3324
▁अच्छ	-3325
▁During	-3326
चल	-3327
्रो	-3328
▁adm	-3329
▁इन्ह	-3330
ାବ୍	-3331
ଧା	-3332
▁level	-3333
▁राजधानी	-3334
▁official	-3335
▁ଶାସ	-3336
ured	-3337
▁become	-3338
▁make	-3339
ଦାନ	-3340
▁कल	-3341
pecial	-3342
ril	-3343
▁cond	-3344
▁base	-3345
▁ग्रे	-3346
int	-3347
oon	-3348
▁football	-3349
ोजना	-3350
▁ଭୁ	-3351
▁गुरु	-3352
▁देने	-3353
▁struct	-3354
ean	-3355
ित्व	-3356
▁Gu	-3357
▁Bel	-3358
▁महिला	-3359
▁control	-3360
ificant	-3361
▁countries	-3362
4.	-3363
▁इं	-3364
▁given	-3365
▁यू	-3366
ilos	-3367
tt	-3368
akes	-3369
वादी	-3370
▁संग्र	-3371
▁Christian	-3372
▁फै	-3373
▁ଶେଷ	-3374
▁पुन	-3375
सू	-3376
bit	-3377
लिए	-3378
apan	-3379
▁जीव	-3380
▁पर्य	-3381
▁developed	-3382
▁ଭିତ	-3383
▁अध्ययन	-3384
▁ମହିଳା	-3385
▁lim	-3386
▁Sw	-3387
iber	-3388
lear	-3389
▁somet	-3390
▁ଡା	-3391
▁tele	-3392
▁repl	-3393
▁ଚିତ୍ର	-3394
ବିଦ୍ୟାଳୟ	-3395
▁ନିର୍ବାଚିତ	-3396
▁down	-3397
▁କହି	-3398
▁every	-3399
▁anal	-3400
▁30	-3401
ର୍ଥ	-3402
▁कोश	-3403
▁ହାର	-3404
▁X	-3405
▁proper	-3406
ether	-3407
rote	-3408
ଣ୍ଡି	-3409
▁इंड	-3410
▁ଶିକ୍ଷା	-3411
▁hel	-3412
▁Church	-3413
▁single	-3414
▁without	-3415
▁prim	-3416
▁sour	-3417
less	-3418
▁पाक	-3419
ogn	-3420
–19	-3421
ବାକୁ	-3422
ops	-3423
ନ୍ୟା	-3424
▁ମିଳି	-3425
zer	-3426
नाव	-3427
iron	-3428
ିକାର	-3429
atter	-3430
rum	-3431
▁सौ	-3432
▁25	-3433
▁वर्तमान	-3434
201	-3435
▁शक्ति	-3436
ଟ୍ଟ	-3437
▁Bro	-3438
▁el	-3439
त्मक	-3440
hern	-3441
କୋ	-3442
▁ide	-3443
▁बंग	-3444
▁mult	-3445
▁took	-3446
▁introdu	-3447
्रेष्ठ	-3448
▁iss	-3449
▁anim	-3450
ରାମ	-3451
▁sk	-3452
▁होकर	-3453
▁189	-3454
▁यूरोप	-3455
rican	-3456
▁ନାମକ	-3457
▁few	-3458
धुनिक	-3459
▁ଲକ୍ଷଣ	-3460
ଣ୍ଠ	-3461
▁सीमा	-3462
▁ନାମରେ	-3463
▁३	-3464
yle	-3465
ollo	-3466
▁ପାର୍ଶ୍ୱ	-3467
▁नाट	-3468
▁ପ୍ରତିକ	-3469
▁संयुक्त	-3470
डा	-3471
ham	-3472
▁सफल	-3473
▁मानव	-3474
ବେଶ	-3475
irc	-3476
▁beg	-3477
ବର୍ତ୍ତୀ	-3478
कल	-3479
▁One	-3480
▁रखा	-3481
▁जहाँ	-3482
▁low	-3483
▁sym	-3484
▁ସୃଷ୍ଟି	-3485
most	-3486
▁Ju	-3487
▁ପୁରୁଷ	-3488
▁साम्राज्य	-3489
▁किलोमीटर	-3490
ांश	-3491
ଦର	-3492
ones	-3493
▁bre	-3494
▁local	-3495
▁significant	-3496
ଲ୍ୟ	-3497
▁camp	-3498
▁मार्ग	-3499
ruction	-3500
▁Nov	-3501
▁relig	-3502
udd	-3503
▁product	-3504
▁prof	-3505
ୟକ	-3506
▁gen	-3507
नु	-3508
▁field	-3509
ances	-3510
भार	-3511
बन्ध	-3512
ଦିନ	-3513
्यता	-3514
cient	-3515
ांस	-3516
ald	-3517
▁ତର	-3518
▁included	-3519
ाजी	-3520
गढ़	-3521
▁संस्कृत	-3522
▁exist	-3523
omb	-3524
▁ଏକା	-3525
▁ଭାଷାରେ	-3526
▁ଦେଖାଯାଏ	-3527
र्ण	-3528
लाई	-3529
▁caus	-3530
▁+	-3531
▁proble	-3532
ଫଳ	-3533
▁ଅର୍ଥ	-3534
▁independ	-3535
▁men	-3536
▁रोग	-3537
▁mean	-3538
ଲାଭ	-3539
▁Other	-3540
rain	-3541
▁activ	-3542
▁usually	-3543
▁କେନ୍ଦ୍ର	-3544
▁states	-3545
▁भूमिका	-3546
▁When	-3547
िज	-3548
▁ସଭ	-3549
गत	-3550
▁वी	-3551
▁यदि	-3552
▁वंश	-3553
▁ଅଫ	-3554
ियो	-3555
ିକ୍	-3556
▁ପାଳ	-3557
▁Dav	-3558
▁रहता	-3559
▁खेल	-3560
▁invol	-3561
▁सामान्य	-3562
orthern	-3563
▁सूर्	-3564
ability	-3565
▁need	-3566
ead	-3567
▁तु	-3568
▁West	-3569
▁view	-3570
▁event	-3571
▁however	-3572
alk	-3573
▁established	-3574
iation	-3575
etic	-3576
▁associ	-3577
ଦ୍ଧି	-3578
▁थीं	-3579
▁बनाने	-3580
▁कंप	-3581
द्धि	-3582
▁माल	-3583
▁दश	-3584
▁(200	-3585
शिया	-3586
ितीय	-3587
serv	-3588
म्बर	-3589
anish	-3590
▁held	-3591
▁rul	-3592
▁Japan	-3593
ency	-3594
ests	-3595
ware	-3596
▁grow	-3597
▁day	-3598
▁ପ୍ରଥମେ	-3599
▁काफी	-3600
ଥିବାରୁ	-3601
▁/	-3602
ୁଦ୍ର	-3603
▁init	-3604
ानों	-3605
▁ଗୁରୁ	-3606
...	-3607
▁बल	-3608
▁उद्	-3609
ବନ୍ଧ	-3610
▁God	-3611
क्ष्म	-3612
▁आई	-3613
▁बने	-3614
ଯୁକ୍ତ	-3615
▁वास्त	-3616
for	-3617
ored	-3618
▁विस्त	-3619
▁ଭଳି	-3620
ୟନ	-3621
▁dev	-3622
atural	-3623
ana	-3624
्यो	-3625
▁just	-3626
ुट	-3627
▁Oct	-3628
▁king	-3629
▁लड़	-3630
▁अथवा	-3631
▁जबकि	-3632
ention	-3633
▁ବିବାହ	-3634
र्ट	-3635
▁arg	-3636
▁ଷ୍ଟ	-3637
▁sold	-3638
▁ନିର୍ମାଣ	-3639
ha	-3640
▁पानी	-3641
ଶୁ	-3642
ivid	-3643
▁chang	-3644
▁ବିକ	-3645
▁अमेरिका	-3646
▁महान	-3647
umb	-3648
▁उपल	-3649
aterial	-3650
रो	-3651
ison	-3652
କ୍ରିୟ	-3653
▁redu	-3654
aut	-3655
side	-3656
▁decl	-3657
▁named	-3658
▁देवी	-3659
▁आधुनिक	-3660
▁କର୍ମ	-3661
▁जिन्ह	-3662
ूट	-3663
▁Jew	-3664
ସ୍ୟ	-3665
▁production	-3666
▁(18	-3667
▁घोष	-3668
हि	-3669
ploy	-3670
र्स	-3671
ମରେ	-3672
▁गाँ	-3673
्याय	-3674
▁Union	-3675
▁prev	-3676
▁ତୁ	-3677
▁north	-3678
▁er	-3679
▁କଲ	-3680
▁प्रण	-3681
▁वाय	-3682
▁band	-3683
ପର	-3684
▁मो	-3685
▁୧୫	-3686
ested	-3687
▁mass	-3688
nd	-3689
▁समूह	-3690
▁जिससे	-3691
▁Med	-3692
▁ପ୍ରତିକ୍ରିୟ	-3693
▁("	-3694
▁ନୂ	-3695
▁तै	-3696
ध्यम	-3697
▁देशों	-3698
▁प्रेम	-3699
▁body	-3700
▁ପୂର୍ବରୁ	-3701
ଙ୍କଦ୍ୱାରା	-3702
▁way	-3703
▁ପ୍ରେ	-3704
▁ऐसे	-3705
▁ମୁକ୍ତି	-3706
र्ड	-3707
▁ज्या	-3708
▁दुनिया	-3709
▁comple	-3710
▁Sept	-3711
▁England	-3712
ାନୀ	-3713
▁Ac	-3714
li	-3715
ଡ୍	-3716
▁सकती	-3717
ote	-3718
▁times	-3719
▁ଅଞ୍ଚଳ	-3720
िनी	-3721
▁theory	-3722
9.	-3723
र्या	-3724
▁जनसं	-3725
▁although	-3726
▁wrote	-3727
ରାଷ୍ଟ୍ର	-3728
▁beh	-3729
▁cal	-3730
▁स्थिति	-3731
तों	-3732
▁କରିଥିବା	-3733
eum	-3734
ille	-3735
idence	-3736
rap	-3737
▁गति	-3738
▁(199	-3739
▁areas	-3740
▁शरी	-3741
rated	-3742
▁अलावा	-3743
▁पता	-3744
इट	-3745
षण	-3746
▁୧୯୪	-3747
thern	-3748
▁separ	-3749
▁पां	-3750
▁attempt	-3751
साय	-3752
ंग्ल	-3753
▁लाल	-3754
-2	-3755
▁pain	-3756
ype	-3757
▁Cro	-3758
▁Act	-3759
▁केंद्र	-3760
िमी	-3761
ाजिक	-3762
▁कृष्ण	-3763
▁मिला	-3764
▁function	-3765
▁sugg	-3766
▁न्यू	-3767
▁produced	-3768
▁୯	-3769
▁उपलब्	-3770
▁हिंदी	-3771
▁case	-3772
▁treat	-3773
ଶ୍ୟକ	-3774
▁&	-3775
▁Man	-3776
▁माध्यम	-3777
▁ऑफ	-3778
▁ସାଧାରଣତଃ	-3779
ंख	-3780
che	-3781
▁जय	-3782
▁सर्	-3783
▁International	-3784
तन	-3785
aur	-3786
▁vol	-3787
ergy	-3788
▁ब्रिटिश	-3789
ଡା	-3790
eth	-3791
3)	-3792
टक	-3793
▁प्रदान	-3794
▁languages	-3795
▁ନିର୍ବାଚନରେ	-3796
▁कान	-3797
itive	-3798
▁cell	-3799
▁Black	-3800
▁क्षेत्रों	-3801
ॉल	-3802
▁five	-3803
lor	-3804
▁total	-3805
▁सदस्य	-3806
ଥର	-3807
rag	-3808
cil	-3809
▁alb	-3810
▁ଚନ୍ଦ୍ର	-3811
rict	-3812
▁शुरु	-3813
▁ବ୍ୟକ୍ତି	-3814
atin	-3815
▁100	-3816
▁186	-3817
▁सूर्य	-3818
▁ଜନ୍ମଗ୍ରହଣ	-3819
रूप	-3820
लेज	-3821
▁light	-3822
▁ସଂଖ୍ୟା	-3823
▁ଜୀବନ	-3824
ped	-3825
▁ନିଜର	-3826
ained	-3827
sh	-3828
ପାଇ	-3829
कट	-3830
ंगल	-3831
▁Pe	-3832
▁educ	-3833
ourn	-3834
▁ମାତ୍ର	-3835
mber	-3836
ering	-3837
▁ଧର୍ମ	-3838
outhern	-3839
▁सम्मान	-3840
▁systems	-3841
acy	-3842
▁cr	-3843
▁बेट	-3844
▁संप	-3845
▁ବନ୍ଦ	-3846
30	-3847
▁Part	-3848
▁manag	-3849
men	-3850
▁Ser	-3851
ps	-3852
▁छोड़	-3853
augh	-3854
ape	-3855
ହାସ	-3856
▁games	-3857
▁original	-3858
विक	-3859
▁ସ୍ଥା	-3860
ope	-3861
▁ପ୍ରତିଷ୍ଠ	-3862
ପାଳ	-3863
ଲ୍ଲ	-3864
▁Geor	-3865
▁William	-3866
▁सामाजिक	-3867
aul	-3868
रों	-3869
▁१८	-3870
▁groups	-3871
vision	-3872
▁ସେଠାରେ	-3873
ିଲ	-3874
sequ	-3875
inning	-3876
▁प्रस	-3877
anuary	-3878
▁black	-3879
▁America	-3880
तक	-3881
▁21	-3882
पूर्व	-3883
▁ସିଂହ	-3884
")	-3885
▁tit	-3886
प्	-3887
sp	-3888
▁चि	-3889
▁ଜଗ	-3890
▁ସୋ	-3891
aken	-3892
▁ମଣ୍ଡଳୀ	-3893
ଂସ	-3894
▁study	-3895
▁ଲେଖ	-3896
्यान	-3897
▁del	-3898
▁read	-3899
▁season	-3900
▁ପରିବାର	-3901
▁दर्शन	-3902
▁African	-3903
େଲ	-3904
ଗଲା	-3905
▁ଶବ୍	-3906
▁ମୋ	-3907
▁having	-3908
▁material	-3909
2)	-3910
▁गै	-3911
ched	-3912
▁गुण	-3913
ମୁଖ	-3914
ଂରାଜୀ	-3915
of	-3916
writ	-3917
▁six	-3918
▁24	-3919
र्तन	-3920
▁ନିୟ	-3921
ल्लेख	-3922
▁दिख	-3923
▁does	-3924
▁कैल	-3925
osp	-3926
▁188	-3927
▁सार	-3928
▁शाह	-3929
cul	-3930
abor	-3931
▁song	-3932
ଭୂ	-3933
▁ବର୍ଣ୍ଣ	-3934
▁वन	-3935
▁ସନ	-3936
▁space	-3937
ର୍ଜ	-3938
ମୋ	-3939
ober	-3940
iqu	-3941
▁territ	-3942
▁||	-3943
▁works	-3944
▁ପୋ	-3945
mon	-3946
▁पहा	-3947
▁उल्लेख	-3948
▁my	-3949
ଚ୍ଛ	-3950
▁मत	-3951
▁top	-3952
▁ଆମେରିକ	-3953
▁written	-3954
ends	-3955
ude	-3956
▁company	-3957
oms	-3958
▁turn	-3959
ama	-3960
▁ship	-3961
ाज़	-3962
▁role	-3963
▁ची	-3964
▁September	-3965
▁जनसंख्या	-3966
ara	-3967
▁ହିନ୍ଦୁ	-3968
▁January	-3969
emb	-3970
▁इसलिए	-3971
▁method	-3972
▁पहुँच	-3973
ुन	-3974
co	-3975
ari	-3976
▁ଅନ୍ୟାନ୍ୟ	-3977
▁strong	-3978
▁ଯନ୍ତ୍ର	-3979
1)	-3980
ନିକ	-3981
▁अफ	-3982
▁ଅଂଶ	-3983
▁अत्य	-3984
▁individ	-3985
atures	-3986
ायण	-3987
5)	-3988
▁object	-3989
▁माता	-3990
ification	-3991
▁Apollo	-3992
▁ଆଧ	-3993
▁ଇତ୍ୟା	-3994
ths	-3995
ways	-3996
▁should	-3997
ଢ଼ି	-3998
▁बौ	-3999
▁third	-4000
ପ୍	-4001
ret	-4002
▁rese	-4003
▁built	-4004
▁युग	-4005
▁शरीर	-4006
▁ସ୍ଥାନରେ	-4007
ंडर	-4008
▁App	-4009
▁appear	-4010
▁ଅତି	-4011
ग्री	-4012
ାଦ୍ୟ	-4013
▁पि	-4014
cember	-4015
ज़ी	-4016
िशा	-4017
▁Empire	-4018
▁Ant	-4019
eh	-4020
▁ଛୋଟ	-4021
्यालय	-4022
▁कपूर	-4023
▁south	-4024
▁France	-4025
▁प्रत्येक	-4026
ମର	-4027
▁आद	-4028
▁()	-4029
▁ରାଜା	-4030
ठा	-4031
arn	-4032
▁नियम	-4033
▁स्वी	-4034
BC	-4035
▁April	-4036
नीय	-4037
▁June	-4038
▁ପ୍ରଶ	-4039
ାତା	-4040
▁real	-4041
दू	-4042
▁विवाह	-4043
ଗଣ	-4044
▁Pres	-4045
▁released	-4046
ज्ञानिक	-4047
ପ୍ଟ	-4048
▁ଆବଶ୍ୟକ	-4049
4)	-4050
ino	-4051
▁इनके	-4052
▁ग्रह	-4053
स्या	-4054
▁der	-4055
▁पूर	-4056
ହୃତ	-4057
▁आया	-4058
▁चे	-4059
▁ईसा	-4060
▁others	-4061
▁नौ	-4062
▁187	-4063
▁गिर	-4064
▁October	-4065
ବାରେ	-4066
▁March	-4067
overed	-4068
▁Australian	-4069
▁ଗଣ	-4070
▁ast	-4071
▁son	-4072
ांति	-4073
ୃତ୍ୟ	-4074
वरण	-4075
िकेट	-4076
▁July	-4077
▁ଶତାବ୍	-4078
ria	-4079
▁प्रदर्	-4080
▁came	-4081
aces	-4082
▁कथा	-4083
ନ୍ୟ	-4084
▁मद	-4085
ल्स	-4086
▁जगह	-4087
▁ବିଶେଷ	-4088
▁उपलब्ध	-4089
avy	-4090
▁Art	-4091
▁ଟେ	-4092
▁politician	-4093
work	-4094
▁କଂଗ୍ରେ	-4095
▁December	-4096
ler	-4097
ल्ल	-4098
तना	-4099
▁ଖାଦ୍ୟ	-4100
▁East	-4101
▁व्यापार	-4102
ନ୍ନାଥ	-4103
▁relations	-4104
▁described	-4105
▁चीन	-4106
▁ep	-4107
▁ଜିଲ୍ଲାର	-4108
रु	-4109
ୟା	-4110
ାଧୀନ	-4111
▁रहते	-4112
alt	-4113
▁dest	-4114
▁social	-4115
यार	-4116
वाई	-4117
▁तुल	-4118
ତିହାସ	-4119
▁forces	-4120
▁अंग	-4121
▁take	-4122
▁मन्द	-4123
ठी	-4124
▁chem	-4125
▁Ang	-4126
▁आगे	-4127
▁either	-4128
ାଙ୍କୁ	-4129
▁sw	-4130
ୀଙ୍କ	-4131
▁Alexander	-4132
▁आग	-4133
्मिक	-4134
▁२०	-4135
▁With	-4136
bon	-4137
reg	-4138
ected	-4139
▁जहां	-4140
iction	-4141
ସ୍ୱ	-4142
▁Har	-4143
▁पाल	-4144
off	-4145
▁ରଙ୍ଗ	-4146
▁observ	-4147
▁ପ୍ରଦାନ	-4148
▁post	-4149
▁ଶିଶ	-4150
incip	-4151
ेश्वर	-4152
▁business	-4153
wh	-4154
▁पाकिस्तान	-4155
हरा	-4156
▁ବ୍ୟବହୃତ	-4157
▁गीत	-4158
▁ନଦୀ	-4159
▁स्वयं	-4160
▁ପକ୍ଷ	-4161
▁India	-4162
ctor	-4163
श्म	-4164
pecially	-4165
▁मैं	-4166
▁City	-4167
▁प्रकाशित	-4168
पन	-4169
▁Indian	-4170
▁sent	-4171
▁पार्टी	-4172
ondon	-4173
face	-4174
ଧିକ	-4175
▁ଦଶ	-4176
▁ट्र	-4177
ka	-4178
▁पुल	-4179
iddle	-4180
▁played	-4181
▁दृष्टि	-4182
II	-4183
▁मिश	-4184
▁ବଙ୍ଗ	-4185
▁ପ୍ରତିଶ	-4186
ling	-4187
▁Soc	-4188
▁She	-4189
ridge	-4190
▁ଇତ୍ୟାଦି	-4191
imate	-4192
▁further	-4193
ृह	-4194
▁constit	-4195
▁ମହାନ୍ତି	-4196
प्रिय	-4197
▁ଲାଗି	-4198
▁Ne	-4199
▁ଯଥା	-4200
▁वा	-4201
▁ପୂଜା	-4202
▁ସେଥି	-4203
୦୦୦	-4204
order	-4205
▁संर	-4206
▁ନିର୍ମିତ	-4207
lam	-4208
ाहरण	-4209
▁माँ	-4210
▁Book	-4211
ନାୟକ	-4212
ାଇବା	-4213
▁ଧରି	-4214
एस	-4215
ांकि	-4216
▁Su	-4217
▁भाई	-4218
▁service	-4219
▁भौ	-4220
▁चिक	-4221
ert	-4222
▁ଗ୍ରେ	-4223
▁फल	-4224
▁ପରୀ	-4225
ଭୁ	-4226
▁half	-4227
▁ଯୁକ୍ତରାଷ୍ଟ୍ର	-4228
bs	-4229
val	-4230
ଲୁ	-4231
्यार	-4232
▁विद्य	-4233
▁स्म	-4234
▁Bas	-4235
▁ଶକ୍ତି	-4236
▁engine	-4237
ରୋଧ	-4238
oung	-4239
▁special	-4240
▁Although	-4241
▁बस	-4242
▁चला	-4243
▁1,	-4244
▁mot	-4245
न्यास	-4246
▁Cor	-4247
▁won	-4248
oviet	-4249
▁इससे	-4250
େତା	-4251
▁समु	-4252
▁philos	-4253
▁David	-4254
hers	-4255
▁ଆଗ	-4256
▁must	-4257
▁tri	-4258
▁पूर्वी	-4259
ାହ	-4260
▁मिलता	-4261
▁ଏଥିରେ	-4262
7)	-4263
ंबर	-4264
रिया	-4265
कर्ष	-4266
▁वहाँ	-4267
self	-4268
▁ସଂସ୍କ	-4269
▁क्रिकेट	-4270
सित	-4271
▁दल	-4272
▁विल	-4273
ining	-4274
▁କମ୍ପ	-4275
▁Comp	-4276
▁संस्थान	-4277
▁୧୨	-4278
▁ଶିବ	-4279
▁wid	-4280
▁pred	-4281
▁Budd	-4282
app	-4283
लैंड	-4284
▁sum	-4285
कालीन	-4286
▁देते	-4287
▁range	-4288
ma	-4289
ल्ड	-4290
asing	-4291
▁अप्र	-4292
▁ଆୟ	-4293
▁capital	-4294
6)	-4295
▁डी	-4296
▁Tur	-4297
▁ଅଭି	-4298
▁पृथ्वी	-4299
▁Kingdom	-4300
▁दिव	-4301
istan	-4302
▁occur	-4303
▁पे	-4304
▁circ	-4305
ଯାଇଥିଲା	-4306
▁पक्ष	-4307
▁account	-4308
▁वर्णन	-4309
▁हालांकि	-4310
▁मोह	-4311
▁town	-4312
▁ଭୂମିକ	-4313
जि	-4314
▁କେବଳ	-4315
▁राय	-4316
शास्त्र	-4317
▁meas	-4318
▁साधारण	-4319
ges	-4320
କ୍ସ	-4321
▁आने	-4322
▁अतिरिक	-4323
▁ଉଦ୍	-4324
▁घाट	-4325
▁Port	-4326
ending	-4327
▁current	-4328
▁November	-4329
ोब	-4330
▁ମୋଟ	-4331
▁aircraft	-4332
used	-4333
▁ନୃତ୍ୟ	-4334
▁आत्म	-4335
▁छोटे	-4336
▁भूमि	-4337
▁सर्वश	-4338
▁sometimes	-4339
ief	-4340
ायक	-4341
▁ପର୍ବ	-4342
ouncil	-4343
▁उसी	-4344
▁क्ल	-4345
oyal	-4346
क्षित	-4347
ର୍ଗ	-4348
ydro	-4349
▁album	-4350
▁battle	-4351
▁position	-4352
ଶ୍ଚିମ	-4353
enced	-4354
▁ରୂପେ	-4355
चाल	-4356
▁created	-4357
bo	-4358
right	-4359
▁अतिरिक्त	-4360
8)	-4361
ोलन	-4362
▁अनुवाद	-4363
▁ମୁକ୍ତିଲାଭ	-4364
sy	-4365
▁ନାରୀ	-4366
▁London	-4367
ଙ୍କା	-4368
▁care	-4369
▁international	-4370
▁1990	-4371
▁pri	-4372
▁विजय	-4373
▁स्कूल	-4374
▁generally	-4375
▁ଜନତା	-4376
ront	-4377
▁ज़िले	-4378
▁द्वीप	-4379
▁Co	-4380
ାନ୍ଧ	-4381
▁मन्दिर	-4382
eneral	-4383
त्त्व	-4384
▁women	-4385
▁Res	-4386
▁उत्तरी	-4387
▁पुस्तक	-4388
▁पश्चिमी	-4389
विध	-4390
▁ବାର	-4391
▁बच	-4392
ସ୍ୟା	-4393
▁परिण	-4394
ography	-4395
ଦେବ	-4396
▁नार	-4397
▁Soviet	-4398
ument	-4399
▁1.	-4400
▁स्थल	-4401
▁Count	-4402
▁ke	-4403
▁किये	-4404
तिहासिक	-4405
ूँ	-4406
▁ଋ	-4407
क्रिया	-4408
▁ଆଉ	-4409
hib	-4410
▁बौद्ध	-4411
action	-4412
▁enc	-4413
▁age	-4414
▁खे	-4415
▁उद्योग	-4416
▁संग्रह	-4417
▁Canada	-4418
▁pot	-4419
र्भ	-4420
▁तह	-4421
▁While	-4422
ଠି	-4423
ify	-4424
୍ରୁ	-4425
ffic	-4426
शि	-4427
ney	-4428
म्न	-4429
ील	-4430
▁शादी	-4431
▁स्तर	-4432
▁खान	-4433
aries	-4434
▁उदाहरण	-4435
ेयर	-4436
▁ସ୍ଥାପ	-4437
▁ge	-4438
▁least	-4439
inister	-4440
▁transl	-4441
▁liter	-4442
▁mer	-4443
▁लौ	-4444
ित्त	-4445
▁ଅନୁଷ୍ଠ	-4446
ଫା	-4447
▁side	-4448
ାଳୀ	-4449
▁तट	-4450
▁how	-4451
▁प्राय	-4452
▁ଦୀ	-4453
▁धार्मिक	-4454
▁ସ୍ୱାଧୀନ	-4455
AS	-4456
▁Atl	-4457
▁ପ୍ରସ୍ତୁ	-4458
▁compet	-4459
ula	-4460
▁सर्वश्रेष्ठ	-4461
भाषा	-4462
▁addition	-4463
▁पौ	-4464
धिकार	-4465
▁दूसरी	-4466
▁Des	-4467
▁express	-4468
▁ଲାଭ	-4469
▁ବାହାର	-4470
▁आन	-4471
ार्क	-4472
▁होगा	-4473
କେ	-4474
iol	-4475
ades	-4476
▁ग्रंथ	-4477
ators	-4478
१९	-4479
▁priv	-4480
ounced	-4481
ensive	-4482
▁continued	-4483
born	-4484
▁50	-4485
▁ऊपर	-4486
୍ରମ	-4487
▁Western	-4488
▁Army	-4489
▁list	-4490
▁पहला	-4491
rica	-4492
▁ଜାନ	-4493
▁पूरी	-4494
▁received	-4495
▁କରାଯାଇଛି	-4496
ିଅ	-4497
▁Cath	-4498
ising	-4499
▁ସେମାନେ	-4500
ming	-4501
▁होना	-4502
ele	-4503
▁ଭାଷା	-4504
▁press	-4505
▁recogn	-4506
▁Sy	-4507
▁बिहार	-4508
▁temper	-4509
▁especially	-4510
ef	-4511
ached	-4512
▁संस्कृति	-4513
▁डे	-4514
▁पूजा	-4515
▁compos	-4516
▁possible	-4517
▁अक	-4518
▁ନୁ	-4519
ିତୀୟ	-4520
)।	-4521
▁बाहर	-4522
▁४	-4523
ंडल	-4524
ଭୟ	-4525
ସ୍ଟ	-4526
ଅନ୍ତି	-4527
▁आर्थ	-4528
▁अधिकांश	-4529
raw	-4530
▁Pal	-4531
▁ରଖି	-4532
▁ପ୍ରତିଶତ	-4533
चन	-4534
▁Kh	-4535
▁आते	-4536
क्रमण	-4537
▁natural	-4538
▁data	-4539
▁parts	-4540
▁ध्यान	-4541
▁विरोध	-4542
▁व्यवस्था	-4543
▁ସାହା	-4544
▁बोल	-4545
ows	-4546
▁1980	-4547
दास	-4548
▁El	-4549
80	-4550
▁ନୀ	-4551
▁ସଭାକୁ	-4552
▁ପତ୍ର	-4553
▁rather	-4554
▁ବର୍ତ୍ତ	-4555
▁Per	-4556
▁रहने	-4557
▁cop	-4558
▁उत्पन्न	-4559
▁net	-4560
चार्य	-4561
▁style	-4562
▁पुरुष	-4563
जों	-4564
▁fail	-4565
▁ବିଷୟରେ	-4566
▁लोकप्रिय	-4567
▁माम	-4568
▁क्रम	-4569
▁Latin	-4570
▁केन्द्र	-4571
▁Ben	-4572
▁energy	-4573
ports	-4574
▁ସମ୍ପର୍କ	-4575
गोरी	-4576
ୋଜନା	-4577
▁good	-4578
▁previous	-4579
गोल	-4580
▁ver	-4581
▁देखा	-4582
इन	-4583
oid	-4584
କ୍ଷଣ	-4585
▁୧୬	-4586
ସ୍ଥାନ	-4587
▁numbers	-4588
▁laun	-4589
▁ଖେଳ	-4590
ples	-4591
century	-4592
▁Phil	-4593
ements	-4594
▁version	-4595
▁କରୁଥିବା	-4596
▁तौर	-4597
▁ग्रेगोरी	-4598
▁अं	-4599
ार्ड	-4600
icro	-4601
यों	-4602
▁କବ	-4603
▁Great	-4604
▁formed	-4605
स्म	-4606
▁ଛା	-4607
▁22	-4608
▁deb	-4609
▁लिखा	-4610
▁ଶବ୍ଦ	-4611
▁जिनमें	-4612
▁हिन्दू	-4613
▁economic	-4614
लिया	-4615
itect	-4616
▁type	-4617
▁Africa	-4618
द्द	-4619
▁Many	-4620
ibr	-4621
▁लाख	-4622
▁free	-4623
ोस	-4624
मंत्री	-4625
▁model	-4626
▁पहुंच	-4627
▁ଭୂମିକାରେ	-4628
ରରେ	-4629
▁syn	-4630
10	-4631
न्दर	-4632
▁द्र	-4633
▁forms	-4634
▁army	-4635
ଦ୍ଧା	-4636
▁ସଦ	-4637
▁୨୦୧୪	-4638
▁ବର୍ତ୍ତମାନ	-4639
▁ପୁନ	-4640
▁ପୁରା	-4641
▁यात्रा	-4642
ोने	-4643
▁Most	-4644
uf	-4645
rael	-4646
▁ren	-4647
▁ସ୍ନା	-4648
▁ଜଗତ	-4649
▁୧୯୩	-4650
▁कौ	-4651
▁ବିଜ୍ଞାନ	-4652
',	-4653
▁धन	-4654
▁प्रे	-4655
▁जनवरी	-4656
ोद	-4657
▁शि	-4658
▁कैलंडर	-4659
ique	-4660
unic	-4661
▁died	-4662
▁ଖୋ	-4663
▁पाठ	-4664
gypt	-4665
▁(201	-4666
bor	-4667
▁project	-4668
▁चुनाव	-4669
ାନା	-4670
▁बदल	-4671
▁electron	-4672
▁tw	-4673
▁tro	-4674
▁food	-4675
▁island	-4676
▁Germany	-4677
▁children	-4678
▁लगे	-4679
▁ଉଭୟ	-4680
▁avail	-4681
▁चिकित	-4682
▁ପାଞ୍ଜି	-4683
ନୁ	-4684
▁निम्न	-4685
▁ox	-4686
▁Arch	-4687
▁test	-4688
▁elements	-4689
▁ସର୍	-4690
uel	-4691
्रा	-4692
▁abs	-4693
▁कर्म	-4694
▁computer	-4695
ତାର	-4696
▁Hol	-4697
▁final	-4698
ଗୋରି	-4699
▁जर्म	-4700
▁किमी	-4701
ହ୍ନ	-4702
▁cy	-4703
ସ୍ତକ	-4704
▁hold	-4705
▁କାହା	-4706
ournal	-4707
viron	-4708
▁दूरी	-4709
▁host	-4710
imately	-4711
▁व्यक्त	-4712
ୋଟି	-4713
▁ହେବ	-4714
▁Republic	-4715
ଳିତ	-4716
▁मूर्	-4717
डे	-4718
▁स्वा	-4719
chan	-4720
cle	-4721
वंश	-4722
▁कॉलेज	-4723
▁क्रिया	-4724
▁Russian	-4725
▁Spanish	-4726
icy	-4727
आत	-4728
ानीय	-4729
▁president	-4730
र्गत	-4731
▁terms	-4732
▁विदेश	-4733
ption	-4734
▁broad	-4735
▁ମୂଲ୍ୟ	-4736
▁ପରିବର୍ତ୍ତ	-4737
▁निवास	-4738
▁विकसित	-4739
▁certain	-4740
▁making	-4741
▁पूरे	-4742
▁ବିଭାଗ	-4743
▁princip	-4744
ॉन	-4745
ंकर	-4746
ky	-4747
▁films	-4748
▁eth	-4749
▁House	-4750
धे	-4751
itted	-4752
▁diff	-4753
▁अभी	-4754
ିରେ	-4755
र्मा	-4756
▁initial	-4757
▁ମୁଣ୍ଡ	-4758
▁accept	-4759
ଜନ୍ମ	-4760
▁lower	-4761
▁pur	-4762
▁ତେବେ	-4763
▁days	-4764
▁Egypt	-4765
▁ପରବର୍ତ୍ତୀ	-4766
▁z	-4767
aves	-4768
▁घटना	-4769
▁अंग्रेजी	-4770
ingu	-4771
▁;	-4772
ତ୍ତ୍ୱ	-4773
▁द्वितीय	-4774
राष्ट	-4775
▁ଦୁଇଟି	-4776
▁श्रे	-4777
▁never	-4778
▁राजनीतिक	-4779
କରଣ	-4780
▁civil	-4781
▁वर्षों	-4782
▁सिद्धांत	-4783
▁aver	-4784
▁force	-4785
▁market	-4786
ାଇନ	-4787
60	-4788
▁ଭଲ	-4789
hest	-4790
▁ବ୍ରି	-4791
जूद	-4792
40	-4793
ett	-4794
▁सात	-4795
▁धारा	-4796
▁पदार्थ	-4797
▁1970	-4798
▁ऐतिहासिक	-4799
be	-4800
▁ଚେ	-4801
ାୟଣ	-4802
▁ଶର	-4803
iers	-4804
▁China	-4805
uth	-4806
icle	-4807
ପଣ	-4808
▁खु	-4809
▁ancient	-4810
शु	-4811
▁ଆକ	-4812
arily	-4813
▁एशिया	-4814
▁ଯୁଦ୍ଧ	-4815
▁आर्थिक	-4816
ଘାତ	-4817
▁scient	-4818
ateg	-4819
▁୧୪	-4820
▁central	-4821
ଜେ	-4822
▁५	-4823
▁univers	-4824
ତ୍ୱ	-4825
गण	-4826
ବେଷ	-4827
ours	-4828
▁ଯଦି	-4829
ताल	-4830
ପାଇଁ	-4831
▁higher	-4832
▁ଗଠ	-4833
▁सदी	-4834
▁colon	-4835
▁नियंत्र	-4836
▁ଦ୍ୱିତୀୟ	-4837
▁शी	-4838
▁ପ୍ରଧାନ	-4839
▁ମାର	-4840
ପାର	-4841
ଟିରେ	-4842
▁ରାଷ୍ଟ୍ର	-4843
▁above	-4844
▁Central	-4845
सन	-4846
▁बिना	-4847
▁हेतु	-4848
▁River	-4849
▁We	-4850
▁frequ	-4851
▁परिणाम	-4852
▁subject	-4853
ज्	-4854
ସାୟ	-4855
▁followed	-4856
ର୍ଟ	-4857
▁nov	-4858
▁coast	-4859
सत	-4860
▁ଘର	-4861
▁agre	-4862
▁राष्ट्रपति	-4863
kn	-4864
▁arm	-4865
▁consist	-4866
କଳ	-4867
ତନ୍ତ୍ର	-4868
बल	-4869
rest	-4870
▁seen	-4871
▁प्रयास	-4872
▁standard	-4873
▁defe	-4874
▁next	-4875
▁indic	-4876
bra	-4877
▁administ	-4878
▁ହାତ	-4879
ष्य	-4880
▁ଲୁ	-4881
▁प्रो	-4882
ହେଁ	-4883
क्टर	-4884
▁impro	-4885
▁ଗ୍ରେଗୋରି	-4886
▁throughout	-4887
न्थ	-4888
inary	-4889
▁समुद	-4890
▁research	-4891
ush	-4892
रात	-4893
▁President	-4894
मता	-4895
▁ସ୍ପ	-4896
▁ଶିଶୁ	-4897
▁ୟ	-4898
play	-4899
▁di	-4900
बे	-4901
▁तीस	-4902
खी	-4903
pir	-4904
▁ते	-4905
aper	-4906
▁संत	-4907
▁ଉତ୍ପ	-4908
▁State	-4909
▁ରଥ	-4910
▁करें	-4911
-19	-4912
ଲେଖ	-4913
▁whe	-4914
▁ଏକାଡେ	-4915
ishing	-4916
▁Earth	-4917
iles	-4918
▁वाप	-4919
▁संस	-4920
ମ୍ନ	-4921
▁तम	-4922
▁offer	-4923
ग्रह	-4924
ष्णु	-4925
▁पढ़	-4926
▁୧୭	-4927
ebru	-4928
ଲରେ	-4929
▁Fl	-4930
▁ମହିଳ	-4931
▁Canadian	-4932
श्वर	-4933
▁କଟକ	-4934
inter	-4935
▁conc	-4936
▁पर्या	-4937
▁super	-4938
▁हिस्सा	-4939
▁40	-4940
▁2000	-4941
▁(197	-4942
▁ସାହାଯ୍ୟ	-4943
ाइन	-4944
ights	-4945
▁अह	-4946
ning	-4947
rick	-4948
ebruary	-4949
▁आधारित	-4950
▁मात्रा	-4951
ceed	-4952
▁୨୦୨	-4953
▁regard	-4954
ୃହ	-4955
▁लेखक	-4956
▁स्थानीय	-4957
म्मद	-4958
▁वैज्ञानिक	-4959
▁information	-4960
▁ମଣ୍ଡଳୀରୁ	-4961
पु	-4962
pite	-4963
▁पंच	-4964
cript	-4965
▁Park	-4966
▁पड़ा	-4967
iforn	-4968
▁complex	-4969
ulg	-4970
ume	-4971
▁23	-4972
▁सां	-4973
▁विशाल	-4974
▁League	-4975
▁प्रती	-4976
▁Mc	-4977
▁महाराज	-4978
▁185	-4979
▁Since	-4980
▁trade	-4981
▁अभिनेता	-4982
▁1960	-4983
▁star	-4984
▁0	-4985
▁2007	-4986
▁text	-4987
▁means	-4988
▁command	-4989
▁ଆକାର	-4990
स्ट्रे	-4991
▁Bat	-4992
▁Mor	-4993
ସ୍ଥାରେ	-4994
▁across	-4995
न्ना	-4996
▁खिलाफ	-4997
aff	-4998
▁ପେ	-4999
▁fig	-5000
▁ହାସ	-5001
ଚି	-5002
rant	-5003
▁imm	-5004
▁लेने	-5005
िरा	-5006
▁जे	-5007
▁ତିନି	-5008
▁himself	-5009
ଜାର	-5010
▁ପଶ୍ଚିମ	-5011
▁best	-5012
▁2020	-5013
▁plan	-5014
▁History	-5015
like	-5016
▁सित	-5017
▁ball	-5018
ात्म	-5019
stand	-5020
▁thus	-5021
▁अक्ष	-5022
▁Croat	-5023
▁मना	-5024
▁मनुष	-5025
▁अर्था	-5026
▁change	-5027
୍ୟାୟ	-5028
▁bar	-5029
▁integ	-5030
▁culture	-5031
ଜାତି	-5032
▁ହାଇ	-5033
▁କଳାକାର	-5034
▁reported	-5035
▁ମତ	-5036
▁Day	-5037
ଯାଇଛି	-5038
▁ପଟ୍ଟ	-5039
▁acid	-5040
▁ବଳ	-5041
▁ଜିଲ୍ଲା	-5042
न्या	-5043
िष्ट	-5044
▁den	-5045
▁गंगा	-5046
lement	-5047
▁प्रवेश	-5048
▁located	-5049
▁ଜଗନ୍ନାଥ	-5050
▁बॉ	-5051
▁ଇଣ୍ଡ	-5052
▁Colle	-5053
▁निर्म	-5054
ଭବ	-5055
▁स्पष्ट	-5056
ର୍ଘ	-5057
atory	-5058
▁(198	-5059
▁भिन्न	-5060
▁ବିଶ୍ୱବିଦ୍ୟାଳୟ	-5061
फा	-5062
▁television	-5063
ାମୀ	-5064
ାପ୍ତ	-5065
▁बंगाल	-5066
▁ତେଣୁ	-5067
▁compan	-5068
ड्ड	-5069
▁prote	-5070
9)	-5071
▁अली	-5072
▁सभा	-5073
▁2019	-5074
▁କୁମାର	-5075
▁singer	-5076
हन	-5077
▁Sm	-5078
▁San	-5079
▁क्या	-5080
▁available	-5081
रल	-5082
utch	-5083
▁lik	-5084
▁समर्थ	-5085
▁ହା	-5086
▁पुलिस	-5087
▁February	-5088
▁କ୍ଷେତ୍ରରେ	-5089
▁successful	-5090
▁୧୧	-5091
▁father	-5092
▁आता	-5093
▁hard	-5094
not	-5095
▁To	-5096
▁ବ୍ରହ	-5097
▁पत्नी	-5098
▁Reg	-5099
▁house	-5100
▁योजना	-5101
▁Battle	-5102
▁evidence	-5103
▁कहानी	-5104
▁almost	-5105
▁member	-5106
▁କରିଥାଏ	-5107
ପାତ୍ର	-5108
▁Australia	-5109
न्स	-5110
ିକାଶ	-5111
ଲୀ	-5112
rel	-5113
▁26	-5114
▁schol	-5115
▁स्वतंत्रता	-5116
▁join	-5117
▁ପଞ୍ଚ	-5118
▁କରିଥାନ୍ତି	-5119
▁तैयार	-5120
▁चन्द्र	-5121
▁ସେବା	-5122
▁Im	-5123
▁ଜି	-5124
aign	-5125
▁नम	-5126
▁सत	-5127
atal	-5128
▁full	-5129
▁सम्बन्ध	-5130
▁ଅସ	-5131
ତ୍ନୀ	-5132
▁List	-5133
▁actor	-5134
▁hydro	-5135
▁समा	-5136
▁party	-5137
ब्र	-5138
ानु	-5139
▁खोज	-5140
▁ताप	-5141
writer	-5142
र्ज	-5143
▁taken	-5144
▁इनमें	-5145
ନ୍ଦର	-5146
erous	-5147
▁ground	-5148
▁0.	-5149
ଣ୍ଟି	-5150
▁पंजा	-5151
▁profess	-5152
▁multip	-5153
ein	-5154
शील	-5155
berg	-5156
▁rate	-5157
▁जुलाई	-5158
▁एस	-5159
ysis	-5160
▁आयु	-5161
ंदन	-5162
▁ସୀ	-5163
▁समाप्त	-5164
▁Catholic	-5165
▁according	-5166
5%	-5167
▁जून	-5168
▁संगठन	-5169
िति	-5170
ଦାୟ	-5171
ford	-5172
▁ପିତ	-5173
▁निकट	-5174
▁କୃଷ୍ଣ	-5175
भारत	-5176
▁ill	-5177
▁पूरा	-5178
▁चर	-5179
cret	-5180
▁tog	-5181
▁soft	-5182
▁उत्पादन	-5183
uk	-5184
ternal	-5185
▁becom	-5186
ali	-5187
▁invest	-5188
▁ବୃଦ୍ଧି	-5189
▁याद	-5190
▁Atlant	-5191
ନ୍ସ	-5192
▁key	-5193
▁ନାଟକ	-5194
भाष	-5195
सभा	-5196
atively	-5197
▁fac	-5198
▁କାର	-5199
▁employ	-5200
▁meaning	-5201
कर्	-5202
▁ଭଗ	-5203
▁ୟୁ	-5204
chie	-5205
ington	-5206
▁General	-5207
▁introduced	-5208
uation	-5209
ेंद	-5210
▁mid	-5211
▁ପୁସ୍ତକ	-5212
ads	-5213
▁प्रणाली	-5214
▁Rev	-5215
▁पाया	-5216
▁नर	-5217
▁bir	-5218
▁concept	-5219
▁together	-5220
चित्र	-5221
▁मज	-5222
ideo	-5223
▁ऐसी	-5224
▁ଯେଉଁଥିରେ	-5225
▁सन	-5226
▁हज	-5227
▁विद्व	-5228
ରାପ	-5229
ଡ଼ିଆ	-5230
▁गांव	-5231
▁सहित	-5232
▁ସ୍ୱା	-5233
तिम	-5234
▁Govern	-5235
▁entire	-5236
▁Italian	-5237
▁प्रक्रिया	-5238
▁सुन	-5239
inese	-5240
ought	-5241
▁upon	-5242
▁feature	-5243
ulf	-5244
▁Gl	-5245
▁समुद्र	-5246
vironment	-5247
▁दिस	-5248
▁mount	-5249
▁नए	-5250
▁Sea	-5251
क़	-5252
▁Paul	-5253
▁adop	-5254
▁Californ	-5255
▁दशक	-5256
▁mathem	-5257
▁fire	-5258
mercial	-5259
ିତି	-5260
utions	-5261
▁आश	-5262
ାଇଟି	-5263
▁सिक	-5264
▁दुर्	-5265
▁उपन्यास	-5266
lim	-5267
▁nuc	-5268
ଗି	-5269
▁अश	-5270
ving	-5271
▁blood	-5272
aria	-5273
▁कृषि	-5274
▁प्रारंभ	-5275
गम	-5276
▁If	-5277
▁access	-5278
पास	-5279
▁exec	-5280
ଦନ	-5281
▁ମଧ	-5282
▁Hen	-5283
▁From	-5284
▁industry	-5285
▁ज्यादा	-5286
इड	-5287
टल	-5288
▁see	-5289
▁वेद	-5290
▁नीचे	-5291
▁respect	-5292
utes	-5293
▁सत्य	-5294
▁प्यार	-5295
▁architect	-5296
▁ପ୍ରସ୍ତୁତ	-5297
ଳକୁ	-5298
▁fund	-5299
▁गाँव	-5300
▁ନବ	-5301
▁ପ୍ରାର୍ଥ	-5302
▁क़	-5303
▁दिल	-5304
▁सागर	-5305
▁दूसरा	-5306
चान	-5307
▁टीम	-5308
▁अगस्त	-5309
▁इंग्ल	-5310
▁neg	-5311
▁ପାଳନ	-5312
▁contain	-5313
▁ସଂକ୍ରମଣ	-5314
▁ପହ	-5315
▁fem	-5316
▁2006	-5317
▁capt	-5318
▁tour	-5319
▁ପତ୍ନୀ	-5320
▁ang	-5321
▁related	-5322
स्टर	-5323
▁इला	-5324
▁ପାଣି	-5325
ोम	-5326
र्च	-5327
▁रहती	-5328
▁story	-5329
ेख	-5330
▁average	-5331
sych	-5332
▁red	-5333
▁value	-5334
▁सहायता	-5335
्ला	-5336
▁et	-5337
▁Bur	-5338
▁ଜନସଂ	-5339
▁community	-5340
▁Tr	-5341
▁नई	-5342
▁ବେଶ	-5343
▁शैली	-5344
bol	-5345
▁दा	-5346
▁परी	-5347
▁राव	-5348
itude	-5349
ଯୁ	-5350
inct	-5351
सिंह	-5352
▁perm	-5353
▁estim	-5354
कीय	-5355
rial	-5356
▁vict	-5357
▁जारी	-5358
▁determ	-5359
▁Britain	-5360
ବର୍ଷ	-5361
ୁଲାଇ	-5362
▁poin	-5363
na	-5364
itch	-5365
▁deg	-5366
▁विस्तार	-5367
▁services	-5368
कारों	-5369
▁Press	-5370
▁players	-5371
▁ନିର୍ଦ୍ଦେଶନା	-5372
ocr	-5373
zil	-5374
▁cross	-5375
विज्ञान	-5376
▁ଯନ୍ତ୍ରଣା	-5377
▁୧୩	-5378
sel	-5379
▁far	-5380
▁surv	-5381
▁instead	-5382
▁influence	-5383
▁ଅଲ	-5384
▁fav	-5385
stant	-5386
▁cost	-5387
ଠାକୁ	-5388
▁sec	-5389
icult	-5390
▁miss	-5391
▁itself	-5392
▁structure	-5393
▁associated	-5394
▁prob	-5395
▁ରୁ	-5396
ମିଟର	-5397
ୁଆରୀ	-5398
▁dou	-5399
▁club	-5400
▁academ	-5401
▁मुख्यालय	-5402
–2	-5403
▁ज़िला	-5404
▁विभाज	-5405
▁ବିକାଶ	-5406
▁ଭିନ୍ନ	-5407
ात्मक	-5408
ta	-5409
ixed	-5410
▁करी	-5411
▁ଦଳର	-5412
▁इस्ल	-5413
ाष्ट्रीय	-5414
rast	-5415
▁ଚାଲି	-5416
ର୍ତ୍ତି	-5417
roy	-5418
▁find	-5419
ଳକ	-5420
ଗରେ	-5421
୍ଲା	-5422
▁ପ୍ରାଚ	-5423
▁movement	-5424
▁conn	-5425
rug	-5426
▁2008	-5427
▁ଦେବା	-5428
▁increased	-5429
୍ଚ୍ଚ	-5430
▁ପରିଚ	-5431
▁building	-5432
ୟର	-5433
▁ସଙ୍କ	-5434
▁ଅଞ୍ଚଳରେ	-5435
▁tre	-5436
▁dise	-5437
▁court	-5438
▁ଜେ	-5439
▁doc	-5440
▁तत्	-5441
▁Sl	-5442
▁उद्देश	-5443
लग	-5444
ूबर	-5445
ଲାରେ	-5446
▁मुह	-5447
▁शासक	-5448
▁ସାକ୍ଷ	-5449
▁James	-5450
▁includes	-5451
▁lost	-5452
▁शुरुआत	-5453
▁California	-5454
▁Charles	-5455
▁stri	-5456
▁domin	-5457
ପୂର୍ଣ୍ଣ	-5458
ାନର	-5459
▁गांधी	-5460
▁କାହାଣୀ	-5461
▁tradition	-5462
ream	-5463
▁pers	-5464
▁ଦେଖି	-5465
ନେ	-5466
hel	-5467
ड़ों	-5468
▁ste	-5469
tained	-5470
▁जाति	-5471
▁clos	-5472
▁आकर्ष	-5473
ंजन	-5474
▁जनता	-5475
▁Scott	-5476
▁ଉଲ୍	-5477
▁Thom	-5478
▁religious	-5479
ନାହିଁ	-5480
▁इस्त	-5481
uries	-5482
▁ପ୍ରମୁଖ	-5483
▁size	-5484
ୋବର	-5485
▁निकल	-5486
aps	-5487
▁fall	-5488
▁founded	-5489
▁thought	-5490
मर	-5491
▁ति	-5492
▁whose	-5493
▁traditional	-5494
जात	-5495
▁sex	-5496
▁यही	-5497
▁रेलवे	-5498
ourt	-5499
▁गुज	-5500
ounds	-5501
▁George	-5502
ମାନଙ୍କରେ	-5503
▁जैन	-5504
▁ସମାଜ	-5505
ection	-5506
70	-5507
iter	-5508
▁कोल	-5509
ंग्रेस	-5510
स्ट्रेलिया	-5511
▁रॉ	-5512
▁ବସ	-5513
▁ଫିଲ୍	-5514
▁ସମସ୍ୟା	-5515
लाल	-5516
ବ୍ୟ	-5517
medi	-5518
▁Athen	-5519
▁ପଟ୍ଟନାୟକ	-5520
ଜୀ	-5521
ଦ୍ମ	-5522
▁2010	-5523
▁मार्च	-5524
▁Japanese	-5525
▁६	-5526
▁Cont	-5527
▁सूची	-5528
▁Camb	-5529
rought	-5530
▁विभाग	-5531
▁approx	-5532
▁कठ	-5533
▁words	-5534
▁अफ्री	-5535
▁except	-5536
▁प्रभावित	-5537
▁La	-5538
aint	-5539
▁Albert	-5540
pos	-5541
▁percent	-5542
सु	-5543
तार	-5544
▁ଉତ୍ସ	-5545
▁ନୁହେଁ	-5546
▁Museum	-5547
▁rights	-5548
oted	-5549
▁कविता	-5550
▁स्वीकार	-5551
ee	-5552
▁sit	-5553
▁referred	-5554
धर	-5555
्सा	-5556
▁foc	-5557
▁2005	-5558
▁ନାୟକ	-5559
▁UK	-5560
▁ମହାର	-5561
गरी	-5562
▁ଦିଲ୍	-5563
▁मिली	-5564
▁तुलना	-5565
▁School	-5566
▁କମ୍	-5567
▁ସପ୍ତ	-5568
▁cities	-5569
▁lo	-5570
▁Qu	-5571
▁ऊँच	-5572
▁कहला	-5573
ूब	-5574
चर	-5575
ophy	-5576
▁Rich	-5577
▁site	-5578
▁particularly	-5579
ଡିକ	-5580
▁Bay	-5581
ବାନ	-5582
cast	-5583
▁ବନ୍ଧ	-5584
▁ଅନ୍ତର୍	-5585
दाय	-5586
▁2.	-5587
▁norm	-5588
▁अप्रैल	-5589
▁प्रशास	-5590
्राष्ट्रीय	-5591
आई	-5592
▁Mod	-5593
▁କରାଯାଇଥାଏ	-5594
ପଥ	-5595
▁ur	-5596
▁killed	-5597
▁भाषाओं	-5598
▁जीत	-5599
liam	-5600
୍ରାହ	-5601
▁विष्णु	-5602
वें	-5603
▁ଟି	-5604
▁ଶୈ	-5605
atives	-5606
ederal	-5607
▁events	-5608
खंड	-5609
iting	-5610
ems	-5611
▁Mich	-5612
▁magn	-5613
ties	-5614
▁ନିର୍ଣ୍ଣ	-5615
पात	-5616
द्रा	-5617
▁ପ୍ରତିକ୍ରିୟାରେ	-5618
ିୟ	-5619
େତେ	-5620
▁Spe	-5621
▁କମି	-5622
▁अंतिम	-5623
▁ଭାରତରେ	-5624
▁ମହାପାତ୍ର	-5625
rus	-5626
मेंट	-5627
▁नेपाल	-5628
▁गाय	-5629
het	-5630
▁--	-5631
र्जा	-5632
ଙ୍ଗା	-5633
▁AD	-5634
amples	-5635
▁designed	-5636
शल	-5637
र्न	-5638
▁reb	-5639
▁announced	-5640
लिम	-5641
▁ହରି	-5642
▁ହ୍ର	-5643
▁Cong	-5644
▁instit	-5645
▁allowed	-5646
▁ହେଉଥିବା	-5647
द्वीप	-5648
▁दिशा	-5649
▁Brazil	-5650
ବାସ	-5651
େରା	-5652
▁१९९	-5653
▁Party	-5654
▁Trans	-5655
);	-5656
▁लंब	-5657
▁तत्व	-5658
▁campaign	-5659
▁Dutch	-5660
▁ଜାନୁଆରୀ	-5661
▁remained	-5662
▁Instit	-5663
▁fri	-5664
▁once	-5665
▁altern	-5666
▁amount	-5667
୍ରିକ	-5668
▁coll	-5669
▁ଲେଖା	-5670
ipp	-5671
▁gre	-5672
▁Chinese	-5673
oney	-5674
ृत्य	-5675
▁किन	-5676
▁इनका	-5677
▁cases	-5678
▁दिनों	-5679
▁मिस	-5680
▁ଖଣ୍ଡ	-5681
▁ଭୁବନ	-5682
elling	-5683
ଶା	-5684
ାଇଟ	-5685
▁मीटर	-5686
▁किन्तु	-5687
ଦୀର	-5688
▁Dem	-5689
▁जाप	-5690
ael	-5691
▁किस	-5692
काशन	-5693
ାଇଥିଲେ	-5694
▁मंत्र	-5695
▁Angl	-5696
▁rail	-5697
क्टूबर	-5698
्ब	-5699
▁मिट	-5700
▁ଯାଏ	-5701
▁अमेरिकी	-5702
▁पीछ	-5703
भर	-5704
▁नद	-5705
▁लगता	-5706
▁footballer	-5707
र्प	-5708
▁सके	-5709
▁condu	-5710
▁ପ୍ରତ୍ୟ	-5711
▁भु	-5712
ibility	-5713
▁features	-5714
ଫି	-5715
nel	-5716
▁ଧାରା	-5717
▁୨୦୦୧	-5718
▁गा	-5719
▁୨୫	-5720
▁arr	-5721
▁High	-5722
ଚନ	-5723
ପାତ	-5724
▁नै	-5725
▁आबाद	-5726
▁achie	-5727
▁ବର୍ଣ୍ଣନା	-5728
▁Pat	-5729
▁नाटक	-5730
▁୨୦୦୯	-5731
▁ଏକାଡେମୀ	-5732
▁ଜୟ	-5733
୍ୟରେ	-5734
▁निर	-5735
burg	-5736
▁ଚାରି	-5737
▁Royal	-5738
▁वृद्धि	-5739
▁transport	-5740
लिक	-5741
ିଷ୍ଟ	-5742
▁मुस्	-5743
ounter	-5744
istance	-5745
liament	-5746
mar	-5747
लाह	-5748
▁सामने	-5749
▁2011	-5750
▁First	-5751
iment	-5752
▁ମିଳେ	-5753
▁critic	-5754
▁northern	-5755
▁उससे	-5756
▁surface	-5757
clus	-5758
▁चक्र	-5759
▁ମାଧ୍ୟ	-5760
▁concern	-5761
▁ଶ୍ରେଷ୍ଠ	-5762
ोर्ट	-5763
▁अरब	-5764
▁lack	-5765
▁ଅକ୍ଟ	-5766
pro	-5767
▁जर	-5768
स्वर	-5769
ाह्म	-5770
▁gave	-5771
▁ଶତାବ୍ଦୀ	-5772
12	-5773
▁Pri	-5774
▁मही	-5775
▁ସୁର	-5776
▁know	-5777
▁consider	-5778
▁difficult	-5779
▁28	-5780
▁III	-5781
▁ଅଧିକା	-5782
▁କଣ୍ଠ	-5783
▁rule	-5784
▁ରୋଗର	-5785
▁astron	-5786
▁ପଦାର୍ଥ	-5787
ପୋ	-5788
ିଏ	-5789
anc	-5790
▁री	-5791
▁ଖ୍ରୀ	-5792
▁education	-5793
भाग	-5794
ୋହନ	-5795
▁able	-5796
▁पर्वत	-5797
▁companies	-5798
▁ହିଁ	-5799
ication	-5800
▁ଚଳଚ୍ଚିତ୍ରରେ	-5801
▁लाभ	-5802
▁विध	-5803
▁help	-5804
ग्	-5805
▁पुराण	-5806
▁बहु	-5807
▁mach	-5808
▁रेखा	-5809
▁ହିନ୍ଦୀ	-5810
▁राज्यों	-5811
peror	-5812
▁commercial	-5813
▁books	-5814
▁परिवर्तन	-5815
କରି	-5816
▁fight	-5817
▁Asia	-5818
▁लक्ष्म	-5819
▁science	-5820
▁राजस्थान	-5821
ଏସ	-5822
▁दक्षिणी	-5823
▁27	-5824
୍ତ୍ର	-5825
▁ସ୍ଥ	-5826
▁ଶରୀର	-5827
ios	-5828
▁ଖୁ	-5829
Amer	-5830
ାଙ୍କର	-5831
▁बोली	-5832
▁प्रतिश	-5833
▁provide	-5834
ିକେଟ	-5835
▁applic	-5836
▁निर्मित	-5837
▁समस्या	-5838
▁instrum	-5839
▁health	-5840
ଳିକ	-5841
▁खुद	-5842
▁ସଫଳ	-5843
▁ଉଦ୍ୟ	-5844
▁मिलती	-5845
बू	-5846
▁खा	-5847
▁सिर	-5848
ricult	-5849
ोड	-5850
lier	-5851
ufact	-5852
▁୩୦	-5853
ulated	-5854
बार	-5855
▁rock	-5856
▁प्राकृतिक	-5857
ତିରେ	-5858
▁काव्य	-5859
amer	-5860
▁ପ୍ରଣ	-5861
▁source	-5862
ras	-5863
ାନୁ	-5864
▁anti	-5865
▁ख़ान	-5866
ବୃ	-5867
ଗ୍ରୀ	-5868
▁डाल	-5869
मार्ग	-5870
▁ରାଜନୀତିରେ	-5871
▁ଦିବ	-5872
▁Bulg	-5873
▁suff	-5874
▁मनुष्य	-5875
▁ନିର୍ଣ୍ଣୟ	-5876
लिंग	-5877
▁ଦେହ	-5878
▁ଡଲାର	-5879
▁Frank	-5880
▁किंतु	-5881
▁respons	-5882
▁अक्टूबर	-5883
▁खिलाड़ी	-5884
▁बर	-5885
ତୀତ	-5886
୍ୟତା	-5887
वै	-5888
ores	-5889
▁बताया	-5890
▁growth	-5891
▁increasing	-5892
नेट	-5893
ंपरा	-5894
▁ବିଶ୍ୱାସ	-5895
ासी	-5896
▁IS	-5897
▁billion	-5898
ଟିଶ	-5899
▁निश्च	-5900
ston	-5901
रवरी	-5902
▁ପାଠ	-5903
icles	-5904
▁past	-5905
▁viol	-5906
▁Columb	-5907
▁प्रकाशन	-5908
▁वर	-5909
itor	-5910
ership	-5911
▁ସ୍ୱାଧୀନତା	-5912
▁put	-5913
▁बैठ	-5914
ago	-5915
ାରିତ	-5916
▁कंपनी	-5917
▁leading	-5918
हरी	-5919
ଗ୍ର	-5920
विधान	-5921
▁manufact	-5922
▁specific	-5923
थर	-5924
▁ଯେତେ	-5925
istics	-5926
ସେମ୍ବର	-5927
▁larger	-5928
टे	-5929
▁uses	-5930
ev	-5931
ya	-5932
asc	-5933
ିନୀ	-5934
▁tax	-5935
year	-5936
ृत्व	-5937
▁economy	-5938
▁started	-5939
▁ଅଧିକାଂଶ	-5940
्राट	-5941
▁Lou	-5942
▁मिश्र	-5943
▁Israel	-5944
▁mother	-5945
बद्ध	-5946
▁हिंदू	-5947
artment	-5948
▁foreign	-5949
▁director	-5950
och	-5951
ributed	-5952
ଦୁ	-5953
▁ନୂଆ	-5954
राव	-5955
ସିସ	-5956
▁ନାଗ	-5957
▁typically	-5958
omm	-5959
▁मई	-5960
▁god	-5961
▁went	-5962
▁white	-5963
▁provided	-5964
▁ବର	-5965
▁emer	-5966
▁ଅକ୍ଟୋବର	-5967
▁Pers	-5968
▁moved	-5969
▁let	-5970
▁मनो	-5971
▁born	-5972
▁close	-5973
▁territory	-5974
ख़	-5975
▁No	-5976
ires	-5977
▁184	-5978
▁Cap	-5979
▁बाज	-5980
▁इन्हें	-5981
based	-5982
aching	-5983
▁ବାଘ	-5984
▁କର୍କ	-5985
षद	-5986
leg	-5987
ज़ा	-5988
▁ଗଛ	-5989
ghan	-5990
ength	-5991
फ्ट	-5992
anks	-5993
▁ହାସଲ	-5994
▁defin	-5995
▁element	-5996
ux	-5997
▁ten	-5998
▁ଜନସଂଖ୍ୟା	-5999
ର୍ଚ୍ଚ	-6000
▁meet	-6001
▁बनाए	-6002
min	-6003
obal	-6004
▁squ	-6005
ishop	-6006
▁रक्त	-6007
▁required	-6008
େର	-6009
▁हों	-6010
▁ମୂଳ	-6011
▁वापस	-6012
▁ଅତ୍ୟ	-6013
▁ଉଲ୍ଲେଖ	-6014
ij	-6015
oice	-6016
otic	-6017
तियों	-6018
▁believed	-6019
ror	-6020
aval	-6021
ଣ୍ଡର	-6022
▁ଭାଇ	-6023
▁crew	-6024
▁young	-6025
▁ଡିସେମ୍ବର	-6026
▁Bab	-6027
▁सड़	-6028
▁ରୋଗରେ	-6029
▁Robert	-6030
पाद	-6031
▁पेश	-6032
▁Mart	-6033
▁ଆକ୍ରମଣ	-6034
▁eventually	-6035
American	-6036
କାଳୀନ	-6037
ପ୍ରିୟ	-6038
राष्ट्रीय	-6039
▁southern	-6040
▁वीर	-6041
ference	-6042
▁ପରିବର୍ତ୍ତନ	-6043
wood	-6044
▁ऊंच	-6045
▁ऑफ़	-6046
▁पाँच	-6047
▁Apple	-6048
▁might	-6049
▁names	-6050
▁oppos	-6051
▁तीर्थ	-6052
▁ଜୁଲାଇ	-6053
▁effects	-6054
पद	-6055
ेप	-6056
▁गौ	-6057
▁लाग	-6058
▁ब्राह्म	-6059
isl	-6060
▁ଝିଅ	-6061
anced	-6062
▁ସହରର	-6063
▁bank	-6064
▁ସୂର୍ଯ୍ୟ	-6065
▁increase	-6066
rate	-6067
▁log	-6068
▁ord	-6069
▁हास	-6070
▁ପଦ୍ମ	-6071
▁commonly	-6072
▁problems	-6073
▁୨୦୧୫	-6074
▁୨୦୧୯	-6075
▁ବ୍ରିଟିଶ	-6076
rol	-6077
▁धात	-6078
▁Islands	-6079
ଜର	-6080
▁quant	-6081
▁private	-6082
ico	-6083
▁ରୋ	-6084
▁2001	-6085
▁देती	-6086
स्क	-6087
▁AC	-6088
▁Red	-6089
େତ୍ରୀ	-6090
▁रखने	-6091
▁प्रस्त	-6092
DP	-6093
ट्र	-6094
▁Me	-6095
▁ରଖ	-6096
▁ଏଥି	-6097
▁କରାଯାଉ	-6098
▁Sim	-6099
▁Met	-6100
▁saw	-6101
▁ଉନ୍ନ	-6102
▁ମାର୍ଚ୍ଚ	-6103
▁कार्यक्रम	-6104
्वज	-6105
▁ରାୟ	-6106
▁1950	-6107
▁away	-6108
▁title	-6109
▁ଗାନ୍ଧ	-6110
▁କଂଗ୍ରେସ	-6111
omy	-6112
▁आए	-6113
pper	-6114
▁ଅଗଷ୍ଟ	-6115
▁परंपरा	-6116
▁brought	-6117
ंका	-6118
▁My	-6119
ିତ୍ୱ	-6120
▁quest	-6121
▁प्रसाद	-6122
साग	-6123
▁नेत	-6124
▁साह	-6125
▁ସ୍କୁ	-6126
▁caused	-6127
▁आक्रमण	-6128
▁सम्राट	-6129
▁पक	-6130
▁radio	-6131
ilities	-6132
▁election	-6133
भु	-6134
।"	-6135
▁छा	-6136
▁चंद्र	-6137
▁सहायक	-6138
▁individual	-6139
ଷା	-6140
jan	-6141
▁सुल	-6142
▁କବି	-6143
▁अभिन	-6144
▁west	-6145
▁types	-6146
▁widely	-6147
▁Council	-6148
▁महत्त्व	-6149
ଫୁ	-6150
hab	-6151
▁jud	-6152
▁पांच	-6153
▁ପ୍ରଭାବିତ	-6154
▁Bu	-6155
reme	-6156
୍ରେଲ	-6157
▁highest	-6158
▁अध्यक्ष	-6159
ଜ୍ୟ	-6160
ଆନ୍ତି	-6161
▁विशिष्ट	-6162
▁ମଇ	-6163
▁परन्तु	-6164
ନ୍ଦୋ	-6165
▁करे	-6166
▁ଟ୍ର	-6167
▁ଦେଖିବାକୁ	-6168
▁Fre	-6169
▁तेल	-6170
▁trib	-6171
▁mechan	-6172
▁served	-6173
▁ଇତିହାସ	-6174
▁remains	-6175
वेद	-6176
▁जम	-6177
▁ris	-6178
▁मैच	-6179
▁nature	-6180
कुल	-6181
ills	-6182
vert	-6183
▁east	-6184
▁metal	-6185
▁आबादी	-6186
▁प्रतिशत	-6187
▁academic	-6188
ନାଲ	-6189
▁Sam	-6190
ेन्द्र	-6191
▁अन्तर	-6192
ंबई	-6193
र्फ	-6194
वाया	-6195
▁ମନ୍ତ	-6196
▁mission	-6197
ंखला	-6198
▁ଅଧିକାର	-6199
ତର	-6200
▁दिखाई	-6201
ବିଧା	-6202
▁वायु	-6203
▁भौतिक	-6204
डियो	-6205
iding	-6206
▁इंटर	-6207
▁कम्प	-6208
▁ଫଳରେ	-6209
▁novel	-6210
▁राजनीति	-6211
ୟାର	-6212
uals	-6213
▁अनुस	-6214
▁ପାର୍ଟ	-6215
ression	-6216
▁ନିକଟରେ	-6217
▁recorded	-6218
ତ୍ମ	-6219
ନ୍ଥ	-6220
ାଳି	-6221
▁एम	-6222
▁झील	-6223
▁church	-6224
▁ବିଧ	-6225
▁(196	-6226
▁Cons	-6227
▁शाखा	-6228
▁conditions	-6229
▁poet	-6230
▁ଡାକ୍ତ	-6231
▁ग्रन्थ	-6232
▁ଏପରି	-6233
▁सूत्र	-6234
▁interp	-6235
▁इंडिया	-6236
▁interest	-6237
▁ବିପ	-6238
eleb	-6239
ित्य	-6240
▁टेस्ट	-6241
reet	-6242
▁Val	-6243
▁majority	-6244
rav	-6245
ପ୍ଟେ	-6246
ଷ୍ଟା	-6247
▁sat	-6248
▁शब्दों	-6249
▁मुस्लिम	-6250
▁Gro	-6251
▁स्‍	-6252
▁mostly	-6253
ଗଡ଼	-6254
ଞ୍ଚି	-6255
▁ଆର୍	-6256
्योति	-6257
▁इनकी	-6258
25	-6259
କୃଷ୍ଣ	-6260
▁Islam	-6261
▁months	-6262
▁ଏହାପରେ	-6263
▁नेतृत्व	-6264
ବଲ	-6265
▁कांग्रेस	-6266
ଣ୍ଟା	-6267
▁କିଲୋ	-6268
▁୨୦୧୧	-6269
▁ପୂର୍ଣ୍ଣ	-6270
ମୂ	-6271
▁ଗବେଷ	-6272
▁ସ୍ୱର	-6273
त्तर	-6274
▁बल्	-6275
uture	-6276
▁वस्तु	-6277
ament	-6278
▁बुद्ध	-6279
▁କବିତା	-6280
▁brother	-6281
▁ପାଇଥିଲେ	-6282
▁producer	-6283
୍ଯ	-6284
सों	-6285
odes	-6286
throp	-6287
वर्ती	-6288
▁ଯୋଗୁଁ	-6289
▁outside	-6290
ତ୍ନ	-6291
▁ଘଟ	-6292
▁ଦୃ	-6293
▁विधि	-6294
▁ଲେଖି	-6295
acters	-6296
▁କର୍କଟ	-6297
राम	-6298
▁likely	-6299
▁subsequ	-6300
▁ରାଜନୀତିଜ୍ଞ	-6301
resp	-6302
▁aud	-6303
▁sea	-6304
▁ପାଖ	-6305
▁ପ୍ରକ	-6306
पे	-6307
hips	-6308
▁oil	-6309
▁carbon	-6310
ूं	-6311
ंडी	-6312
▁प्रचल	-6313
ପକ	-6314
▁ବୟସରେ	-6315
▁Associ	-6316
now	-6317
▁आंद	-6318
ranch	-6319
▁concent	-6320
▁live	-6321
▁Jewish	-6322
▁journal	-6323
▁ଜୀ	-6324
ands	-6325
▁183	-6326
▁२०१	-6327
ଯାଇଥାଏ	-6328
▁ଯାତ୍ରା	-6329
▁ଚତୁ	-6330
▁cover	-6331
▁ସଦସ୍ୟ	-6332
▁स्टेशन	-6333
▁पव	-6334
▁मानते	-6335
▁ଭିତରେ	-6336
▁ସ୍ନାତ	-6337
▁प्रदर्शन	-6338
▁ବ୍ର	-6339
▁तमिल	-6340
▁ସେତେ	-6341
▁ess	-6342
▁नृत्य	-6343
11	-6344
▁८	-6345
uous	-6346
▁स्वामी	-6347
▁alc	-6348
▁ଭୁବନେଶ୍ୱର	-6349
ଳୟରେ	-6350
▁ବାପ	-6351
▁self	-6352
▁ପଡ଼ି	-6353
ancial	-6354
ibrary	-6355
▁व्यापक	-6356
▁संबंधित	-6357
▁software	-6358
▁इंग्लैंड	-6359
irit	-6360
▁बेह	-6361
▁ऑस्ट्रेलिया	-6362
NA	-6363
▁fle	-6364
▁Court	-6365
▁सैनिक	-6366
चक	-6367
दर	-6368
▁ଫୁଟ	-6369
▁चलता	-6370
▁संस्था	-6371
▁समुदाय	-6372
▁returned	-6373
▁Its	-6374
ାରାୟଣ	-6375
ଭେମ୍ବର	-6376
▁occup	-6377
▁living	-6378
▁ପ୍ରବେଶ	-6379
ध्या	-6380
▁problem	-6381
▁potential	-6382
arent	-6383
▁Alexand	-6384
िली	-6385
▁चरण	-6386
▁Batman	-6387
ायर	-6388
▁code	-6389
▁ପାରି	-6390
selves	-6391
▁longer	-6392
▁changes	-6393
▁products	-6394
▁७	-6395
oul	-6396
म्स	-6397
▁ଜାତି	-6398
▁ଲକ୍ଷ୍ମ	-6399
▁ପରୀକ୍ଷା	-6400
▁ହୁଅନ୍ତି	-6401
घु	-6402
▁मदद	-6403
▁तकनी	-6404
▁ବିଜୁ	-6405
▁screen	-6406
▁चिकित्सा	-6407
ପେ	-6408
▁Henry	-6409
▁cause	-6410
▁पड़ता	-6411
▁उद्देश्य	-6412
▁ପଞ୍ଜ	-6413
▁୨୦୧୩	-6414
▁lines	-6415
▁primary	-6416
▁2014	-6417
▁ଅଳ୍ପ	-6418
▁ପାକି	-6419
▁ନିର୍ଦ୍ଦେଶକ	-6420
▁Ir	-6421
▁2004	-6422
▁clear	-6423
su	-6424
िको	-6425
▁हिम	-6426
ivity	-6427
▁आकार	-6428
▁Island	-6429
ଭର	-6430
elled	-6431
▁ବଙ୍ଗଳା	-6432
▁themselves	-6433
alled	-6434
ଳୁ	-6435
▁जोड़	-6436
▁न्या	-6437
▁विश्वास	-6438
ont	-6439
▁दर्श	-6440
▁little	-6441
▁regions	-6442
▁ଆସ	-6443
orph	-6444
▁Mex	-6445
▁hom	-6446
▁added	-6447
▁देखने	-6448
▁मुक्त	-6449
ଶୀଳ	-6450
▁Bal	-6451
▁आलो	-6452
वस्था	-6453
▁creat	-6454
▁आवश्यकता	-6455
▁ସେମାନଙ୍କ	-6456
bre	-6457
ନ୍ୟାସ	-6458
▁phot	-6459
स्कृतिक	-6460
90	-6461
▁appeared	-6462
ini	-6463
▁Dep	-6464
କ୍ରମେ	-6465
▁Histor	-6466
▁ମୁଖ୍ୟତଃ	-6467
▁ଓଡ଼ିଶାରେ	-6468
▁उठ	-6469
▁ଥର	-6470
▁hit	-6471
▁mag	-6472
▁प्रबंध	-6473
ूरत	-6474
▁बंद	-6475
asion	-6476
ସ୍ଥ୍ୟ	-6477
▁loss	-6478
मल	-6479
त्स	-6480
▁उम	-6481
lied	-6482
▁pen	-6483
▁वार	-6484
▁୧୯୨	-6485
▁Gold	-6486
▁चीनी	-6487
▁पहचान	-6488
▁construction	-6489
▁effort	-6490
▁Alf	-6491
▁यून	-6492
▁replaced	-6493
▁independent	-6494
▁dom	-6495
▁विप	-6496
igned	-6497
urity	-6498
▁ଯୋ	-6499
▁Mal	-6500
▁बां	-6501
स्वरूप	-6502
▁video	-6503
▁ଯିଏ	-6504
▁Eastern	-6505
▁sources	-6506
47	-6507
▁ଇଂ	-6508
▁ପ୍ରଚ	-6509
▁sound	-6510
▁सहयोग	-6511
▁whether	-6512
▁ପ୍ରାର୍ଥୀ	-6513
ଷି	-6514
▁नेता	-6515
▁Ze	-6516
▁मरा	-6517
▁ଜ୍ୟ	-6518
▁ନଭେମ୍ବର	-6519
▁dial	-6520
▁today	-6521
ola	-6522
ोर्ड	-6523
▁ଗ୍ର	-6524
ृंखला	-6525
▁Afghan	-6526
▁particip	-6527
▁characters	-6528
କରେ	-6529
▁फी	-6530
▁ax	-6531
itiz	-6532
▁ଇଞ୍ଜ	-6533
▁dam	-6534
▁sal	-6535
▁ଜନଗଣ	-6536
▁ବହୁତ	-6537
▁legal	-6538
▁Society	-6539
चि	-6540
ॉट	-6541
ଦାର	-6542
▁हवाई	-6543
▁धी	-6544
uted	-6545
ଙ୍କଠାରୁ	-6546
ଷ୍ୟ	-6547
▁उत्तरा	-6548
oe	-6549
onds	-6550
पश्च	-6551
▁veh	-6552
▁छोटी	-6553
ଇଂରାଜୀ	-6554
▁eight	-6555
SC	-6556
▁gas	-6557
▁रोक	-6558
▁2012	-6559
▁2013	-6560
▁earlier	-6561
▁दस	-6562
्‍य	-6563
▁एन	-6564
▁ତ୍ରି	-6565
▁ग्राम	-6566
▁ଆନ୍ଦୋ	-6567
▁prevent	-6568
▁towards	-6569
▁writing	-6570
▁gun	-6571
्रिया	-6572
▁पैदा	-6573
ampions	-6574
▁necess	-6575
▁60	-6576
▁But	-6577
▁lay	-6578
▁produce	-6579
▁historical	-6580
rim	-6581
▁रि	-6582
▁speak	-6583
▁जानकारी	-6584
▁chemical	-6585
णों	-6586
▁targ	-6587
▁islands	-6588
go	-6589
▁जाल	-6590
▁sequ	-6591
▁बैंक	-6592
ପ୍ଟେମ୍ବର	-6593
डर	-6594
ुरी	-6595
ेमाल	-6596
▁Dan	-6597
▁हत्या	-6598
▁Minister	-6599
▁नियंत्रण	-6600
ग़	-6601
▁i	-6602
atch	-6603
axim	-6604
क्सर	-6605
▁grad	-6606
▁गर्म	-6607
ोजित	-6608
ବାସୀ	-6609
▁रानी	-6610
▁रक्षा	-6611
▁results	-6612
▁ଜିଲ୍ଲାରେ	-6613
fl	-6614
ବତୀ	-6615
▁Old	-6616
▁गुप्त	-6617
▁प्रकृति	-6618
ଦିତ	-6619
▁ଇନ	-6620
ୃତ୍ତ	-6621
▁ଆମେରି	-6622
▁regular	-6623
खन	-6624
ili	-6625
▁ଅଧ୍ୟ	-6626
▁Academ	-6627
▁କରିବାର	-6628
▁इस्तेमाल	-6629
▁Award	-6630
▁below	-6631
▁विद्या	-6632
नगर	-6633
▁अस्त	-6634
▁ଜଙ୍ଗ	-6635
▁limited	-6636
▁संविधान	-6637
▁ଭୋଗ	-6638
▁पंजाब	-6639
15	-6640
▁संसद	-6641
▁Portug	-6642
▁symbol	-6643
▁vir	-6644
▁ग्री	-6645
बि	-6646
▁लो	-6647
▁say	-6648
▁College	-6649
▁विद्यालय	-6650
▁beginning	-6651
▁environment	-6652
▁न्याय	-6653
ki	-6654
owers	-6655
▁ଇଣ୍ଡିଆ	-6656
itz	-6657
aren	-6658
▁acqu	-6659
▁लिपि	-6660
▁ସମାନ	-6661
▁practice	-6662
ଦେଇ	-6663
isions	-6664
▁जिन्होंने	-6665
न्य	-6666
▁2009	-6667
▁action	-6668
▁स्वरूप	-6669
ସ୍ପ	-6670
▁औसत	-6671
▁ଆଇନ	-6672
▁troops	-6673
▁cultural	-6674
▁fa	-6675
cont	-6676
▁घोषणा	-6677
▁ପ୍ରତିଷ୍ଠା	-6678
sen	-6679
ताब	-6680
▁2,	-6681
्राम	-6682
ତାରେ	-6683
▁ନିମ୍ନ	-6684
▁stated	-6685
▁ସମୁଦ୍ର	-6686
▁१५	-6687
त्मा	-6688
दर्श	-6689
▁Armen	-6690
▁Inter	-6691
▁Mount	-6692
▁पो	-6693
cher	-6694
▁ଘୋଷ	-6695
▁atom	-6696
धिकारिक	-6697
▁ज्योति	-6698
▁ହର	-6699
▁१९८	-6700
▁ପିଲ	-6701
नो	-6702
ects	-6703
ୃତୀୟ	-6704
ୈତିକ	-6705
दिक	-6706
▁तरी	-6707
ynast	-6708
pected	-6709
porary	-6710
▁personal	-6711
▁ସେପ୍ଟେମ୍ବର	-6712
me	-6713
ଯାୟୀ	-6714
▁Cub	-6715
▁अंक	-6716
▁behav	-6717
ଦେଶର	-6718
▁शक्त	-6719
▁network	-6720
ଳର	-6721
विधा	-6722
▁पीछे	-6723
▁ଜନଗଣନା	-6724
▁ବ୍ୟବସ୍ଥା	-6725
bl	-6726
airs	-6727
वाले	-6728
▁Richard	-6729
18	-6730
ियत	-6731
aged	-6732
▁जिसकी	-6733
▁actress	-6734
ंटी	-6735
ଥ୍ୟ	-6736
▁भे	-6737
▁ବଂଶ	-6738
known	-6739
▁लंदन	-6740
▁centuries	-6741
ଉଣ୍ଡ	-6742
▁units	-6743
▁ସଭାରେ	-6744
▁प्रतिनि	-6745
▁temperature	-6746
▁गेंद	-6747
▁ବୟସ୍କ	-6748
▁variety	-6749
▁ଅଭିନେତା	-6750
▁ଢ	-6751
▁मर	-6752
▁sett	-6753
▁କାର୍	-6754
▁plant	-6755
▁मंत्री	-6756
▁ରାଜ୍ୟର	-6757
ଟ୍ୟ	-6758
ुद्ध	-6759
▁भावना	-6760
▁सुंदर	-6761
▁points	-6762
▁Another	-6763
▁ପିତା	-6764
▁ପରିଚିତ	-6765
▁ଅନ୍ତର୍ଭ	-6766
▁सभ	-6767
cies	-6768
▁Jack	-6769
▁उत्स	-6770
▁baseball	-6771
▁establish	-6772
क्ष्य	-6773
▁ସ୍ୱାସ୍ଥ୍ୟ	-6774
▁hon	-6775
▁ଅପେ	-6776
▁spok	-6777
▁स्रो	-6778
▁award	-6779
▁परंतु	-6780
ीक	-6781
▁29	-6782
▁Bell	-6783
▁मान्यता	-6784
▁आठ	-6785
▁ଶା	-6786
▁जिसने	-6787
▁କୃ	-6788
ज्ञा	-6789
field	-6790
ଦର୍ଶନ	-6791
▁୨୦୧୬	-6792
▁travel	-6793
omer	-6794
west	-6795
▁ଗର୍	-6796
▁defined	-6797
▁सांस्कृतिक	-6798
▁Rad	-6799
▁Arabic	-6800
▁always	-6801
ribution	-6802
ଫେ	-6803
war	-6804
ରତା	-6805
▁मधु	-6806
▁come	-6807
▁अमरी	-6808
ground	-6809
▁विधान	-6810
▁directly	-6811
▁Institute	-6812
IC	-6813
hing	-6814
oral	-6815
▁अल्	-6816
▁ତାମ	-6817
▁ମନ୍ତ୍ରୀ	-6818
▁ସ୍ୱତନ୍ତ୍ର	-6819
▁चा	-6820
onse	-6821
ister	-6822
गुप्त	-6823
iences	-6824
▁Italy	-6825
▁river	-6826
▁योगदान	-6827
▁schools	-6828
▁discovered	-6829
ମନ	-6830
met	-6831
ସାର	-6832
back	-6833
lying	-6834
▁कश्म	-6835
▁बल्कि	-6836
▁पवित्र	-6837
▁estimated	-6838
ଜୀବ	-6839
ବରଣ	-6840
▁dig	-6841
▁vari	-6842
▁ଗର୍ଭ	-6843
▁Peter	-6844
▁Middle	-6845
न्‍	-6846
▁एड	-6847
▁ହୃ	-6848
▁Hall	-6849
▁अभिया	-6850
▁न्याया	-6851
୨୦୦	-6852
▁che	-6853
▁पर्यटन	-6854
▁ଅବସ୍ଥା	-6855
त्न	-6856
वों	-6857
▁birth	-6858
▁सूचना	-6859
▁eas	-6860
▁आसपास	-6861
ाइड	-6862
ଶୁଣା	-6863
▁इका	-6864
▁नियु	-6865
▁अवस्था	-6866
▁९	-6867
umn	-6868
ପ୍ରା	-6869
ାଜିକ	-6870
▁ସାଇ	-6871
utive	-6872
ଦ୍ରା	-6873
▁Jer	-6874
▁Off	-6875
▁sil	-6876
▁too	-6877
▁दिए	-6878
▁अभिनेत्री	-6879
ाउ	-6880
▁Que	-6881
▁रास	-6882
▁निर्ण	-6883
▁ଆମେରିକାରେ	-6884
oz	-6885
ଲର	-6886
ିନେ	-6887
▁ଡେ	-6888
खण्ड	-6889
ଭାରତ	-6890
ଯ୍ୟା	-6891
isation	-6892
▁require	-6893
▁ପ୍ରକାରର	-6894
▁ଯେତେବେଳେ	-6895
ଆଇ	-6896
ष्क	-6897
ସ୍ର	-6898
▁ଆଫ	-6899
୍ୟାନ	-6900
▁मील	-6901
कृष्ण	-6902
▁card	-6903
ନ୍ତ୍ରଣ	-6904
▁इत्या	-6905
▁ଯେପରି	-6906
▁प्रमाण	-6907
▁कर्	-6908
ords	-6909
▁celeb	-6910
▁Aut	-6911
▁remov	-6912
▁prec	-6913
aughter	-6914
▁संघर्ष	-6915
▁व्यवहार	-6916
ज़र	-6917
▁एयर	-6918
▁ଚିହ୍ନ	-6919
▁studies	-6920
▁physical	-6921
ona	-6922
कन	-6923
भू	-6924
ष्म	-6925
▁Sal	-6926
▁alg	-6927
▁मिट्टी	-6928
spe	-6929
ंसा	-6930
▁उपस्थित	-6931
SA	-6932
साथ	-6933
▁ରୋଗୀ	-6934
change	-6935
▁ପୁତ୍ର	-6936
▁reached	-6937
▁Vol	-6938
▁opt	-6939
▁कमी	-6940
▁gold	-6941
▁ସ୍ଥି	-6942
▁Hung	-6943
▁कहीं	-6944
▁ଫେବୃ	-6945
ୂର୍ଣ୍ଣ	-6946
ପୀ	-6947
▁मां	-6948
▁proposed	-6949
▁डॉ॰	-6950
▁ହୋଇଯାଏ	-6951
▁आरंभ	-6952
▁संभव	-6953
▁ପାଖରେ	-6954
▁destroy	-6955
▁ଭେ	-6956
ଗୁଡିକ	-6957
▁प्रौ	-6958
▁ଉତ୍କଳ	-6959
ମନ୍ତ୍ରୀ	-6960
▁ବ୍ରହ୍ମ	-6961
▁अत	-6962
▁Del	-6963
▁Swed	-6964
▁୨୦୧୨	-6965
rative	-6966
▁सर्वा	-6967
anded	-6968
▁ଅନ୍ତର୍ଗତ	-6969
डु	-6970
pan	-6971
▁उपा	-6972
▁recent	-6973
▁smaller	-6974
▁ଅନ୍ତର୍ଭୁକ୍ତ	-6975
▁କ୍ୟା	-6976
▁ପୁଣି	-6977
▁Berlin	-6978
▁रस	-6979
▁କଲେଜ	-6980
▁ରାଜନ	-6981
▁आंदोलन	-6982
▁constitution	-6983
||	-6984
isms	-6985
▁Stud	-6986
▁unit	-6987
▁front	-6988
▁via	-6989
▁ସନ୍ତ	-6990
▁separate	-6991
imal	-6992
▁ଏସିଆ	-6993
▁प्रचार	-6994
▁Law	-6995
▁भाष	-6996
▁working	-6997
मति	-6998
ेक्षा	-6999
▁ଅପେକ୍ଷା	-7000
▁complete	-7001
▁br	-7002
▁अशोक	-7003
▁भागों	-7004
▁इत्यादि	-7005
ब्ब	-7006
ଜିତ	-7007
anned	-7008
▁ଜଣାଶୁଣା	-7009
ରୋ	-7010
ୁରୀ	-7011
onic	-7012
▁करीब	-7013
▁ଦର୍ଶନ	-7014
▁Russia	-7015
▁फूल	-7016
▁learn	-7017
▁किनारे	-7018
▁ଅଷ୍ଟ	-7019
▁compar	-7020
▁ସାମାଜିକ	-7021
OS	-7022
▁शर्मा	-7023
▁People	-7024
ୋଜନ	-7025
▁बज	-7026
itar	-7027
ାନରେ	-7028
▁Bos	-7029
▁ମାର୍	-7030
▁disease	-7031
▁खो	-7032
ables	-7033
ledge	-7034
▁सत्ता	-7035
▁reason	-7036
▁ବାପାଙ୍କ	-7037
▁आधिकारिक	-7038
जो	-7039
▁Ott	-7040
▁ଶ୍ୱ	-7041
▁Louis	-7042
ଦ୍ୟାଳୟରେ	-7043
▁अफ्रीका	-7044
ipl	-7045
▁लगी	-7046
▁जैसी	-7047
▁ତଥ୍ୟ	-7048
▁offic	-7049
▁अच्छी	-7050
▁ଅଭିନେତ୍ରୀ	-7051
मि	-7052
enes	-7053
▁अभिनय	-7054
▁ऊर्जा	-7055
▁मैदान	-7056
▁ତୃତୀୟ	-7057
▁length	-7058
▁यूरोपीय	-7059
▁distinct	-7060
▁ଠ	-7061
▁शोध	-7062
izing	-7063
▁ଜଗତରେ	-7064
▁ଫିଲ୍ମ	-7065
▁ବିଶିଷ୍ଟ	-7066
▁ସବୁଠାରୁ	-7067
,"	-7068
खित	-7069
यान	-7070
▁बाव	-7071
▁नागरिक	-7072
▁ପରିମାଣ	-7073
hi	-7074
▁31	-7075
osis	-7076
ହନ୍ତି	-7077
▁सफलता	-7078
▁ପ୍ରାଚୀନ	-7079
▁प्रस्तुत	-7080
▁मश	-7081
▁ଫି	-7082
▁pay	-7083
▁बिल	-7084
▁ମ୍ୟା	-7085
▁Commun	-7086
▁office	-7087
▁ପ୍ରକାଶିତ	-7088
iance	-7089
orial	-7090
ାରମ୍ଭ	-7091
▁heav	-7092
▁गणित	-7093
▁latter	-7094
▁मुहम्मद	-7095
▁सुरक्षा	-7096
ृति	-7097
▁Mac	-7098
▁ସହା	-7099
ड़ियों	-7100
▁minor	-7101
▁Thomas	-7102
▁mention	-7103
▁Cyp	-7104
▁ଅନୁଯାୟୀ	-7105
ेंस	-7106
ready	-7107
▁୨୦୦୪	-7108
▁greater	-7109
ଷଣ	-7110
▁board	-7111
▁ପ୍ରସି	-7112
जीत	-7113
राज्य	-7114
▁जिन्हें	-7115
▁collection	-7116
▁properties	-7117
▁मल	-7118
▁corresp	-7119
दु	-7120
स्‍	-7121
िवार	-7122
▁Vir	-7123
▁विद्र	-7124
लीय	-7125
ାନି	-7126
stein	-7127
▁ethn	-7128
▁अर्ज	-7129
▁ସୁଦ୍ଧା	-7130
▁ଅଣ	-7131
▁animals	-7132
▁analysis	-7133
▁बाँ	-7134
▁दिवस	-7135
▁seven	-7136
▁future	-7137
क्षर	-7138
ाष्ट्र	-7139
▁station	-7140
ext	-7141
itt	-7142
▁କିଲୋମିଟର	-7143
▁technology	-7144
▁2015	-7145
▁hous	-7146
ension	-7147
vention	-7148
▁flight	-7149
▁पाए	-7150
ients	-7151
स्थ्य	-7152
▁batt	-7153
▁leader	-7154
▁पिछ	-7155
▁फुट	-7156
▁सेन	-7157
ମେଣ୍ଟ	-7158
ressed	-7159
▁script	-7160
୧୮	-7161
▁policy	-7162
▁इन्होंने	-7163
डिया	-7164
▁इन्	-7165
hesis	-7166
▁प्रस्ता	-7167
za	-7168
▁ଷ	-7169
▁मात्र	-7170
▁ରହିଥାଏ	-7171
uck	-7172
्वे	-7173
ମ୍ମ	-7174
▁ତି	-7175
ପୂର୍ବ	-7176
ଚନ୍ଦ୍ର	-7177
▁अंतर्गत	-7178
▁cut	-7179
▁System	-7180
▁पट	-7181
phas	-7182
▁शिक	-7183
▁Fore	-7184
▁भोजन	-7185
▁ଠାକୁ	-7186
▁Northern	-7187
ଆରୀ	-7188
▁वज	-7189
▁180	-7190
▁Nor	-7191
▁bor	-7192
▁sem	-7193
▁bene	-7194
▁भीतर	-7195
▁Michael	-7196
▁discuss	-7197
▁involved	-7198
▁ଐ	-7199
शेष	-7200
▁ଅମ	-7201
ॉर्ड	-7202
▁largely	-7203
णि	-7204
मत	-7205
ech	-7206
oor	-7207
itte	-7208
▁lab	-7209
पुरी	-7210
▁ବିରୋଧ	-7211
▁डिग्री	-7212
▁whom	-7213
ଯିବା	-7214
ector	-7215
▁ପ୍ରଯ	-7216
▁operations	-7217
ଗ୍ରହ	-7218
▁Buddh	-7219
▁राजवंश	-7220
part	-7221
ଶ୍ୱର	-7222
▁2003	-7223
▁Jews	-7224
▁Ter	-7225
▁ठीक	-7226
▁Spain	-7227
▁ସେଥିରୁ	-7228
ସିକ	-7229
ीकरण	-7230
▁nar	-7231
▁Bron	-7232
▁give	-7233
▁विमान	-7234
raction	-7235
▁ସକ୍ରିୟ	-7236
▁supported	-7237
olk	-7238
▁placed	-7239
▁agricult	-7240
rich	-7241
▁divided	-7242
▁Bi	-7243
▁चले	-7244
▁Mass	-7245
eds	-7246
ସନ୍	-7247
୍ଲୋ	-7248
onia	-7249
▁अहम	-7250
▁अक्सर	-7251
▁elected	-7252
ଏଡ	-7253
▁घाटी	-7254
▁फ्रांस	-7255
▁ଉତ୍ପାଦ	-7256
▁ବିଦ୍ୟାଳୟ	-7257
क्ल	-7258
▁you	-7259
▁ଗୃହ	-7260
ାମାନେ	-7261
▁कोशिश	-7262
▁सुधार	-7263
▁सच	-7264
▁Belg	-7265
ift	-7266
▁ମଣି	-7267
▁वहां	-7268
▁ପରିଚାଳ	-7269
▁80	-7270
▁BBC	-7271
▁संचाल	-7272
▁Ca	-7273
▁Ste	-7274
▁यज्ञ	-7275
▁ଦେଲେ	-7276
▁Congress	-7277
▁pressure	-7278
▁approximately	-7279
जै	-7280
oper	-7281
umin	-7282
ल्पना	-7283
▁Grand	-7284
▁relatively	-7285
▁adopted	-7286
▁ଅନୁଷ୍ଠିତ	-7287
▁financial	-7288
▁originally	-7289
एन	-7290
शाह	-7291
igen	-7292
र्जी	-7293
▁अमर	-7294
▁color	-7295
▁वर्षा	-7296
▁क्षमता	-7297
▁reaction	-7298
cean	-7299
▁Alban	-7300
▁nearly	-7301
▁१७	-7302
ols	-7303
ତ୍ତି	-7304
▁ଜୁନ	-7305
unt	-7306
▁ବିଜୟ	-7307
▁media	-7308
▁Muslim	-7309
▁numerous	-7310
▁treatment	-7311
▁independence	-7312
ଘର	-7313
फ़ी	-7314
▁hor	-7315
▁bound	-7316
▁विविध	-7317
▁multiple	-7318
▁performed	-7319
▁तल	-7320
ares	-7321
सागर	-7322
onn	-7323
▁रिक	-7324
▁अवसर	-7325
▁ନୂତନ	-7326
▁आरम्भ	-7327
▁ସର୍ବା	-7328
▁better	-7329
▁center	-7330
▁प्रसार	-7331
▁document	-7332
▁surround	-7333
▁लु	-7334
▁Association	-7335
inent	-7336
राय	-7337
▁rap	-7338
▁More	-7339
▁सरकारी	-7340
van	-7341
▁अगर	-7342
▁Scot	-7343
▁ଦୀର୍ଘ	-7344
▁ଆମେରିକୀୟ	-7345
▁Bor	-7346
▁रूस	-7347
▁ପ୍ରାପ୍ତ	-7348
▁scholars	-7349
▁ପ୍ରୟ	-7350
▁दौ	-7351
view	-7352
▁Int	-7353
▁ଗଠନ	-7354
▁राजन	-7355
standing	-7356
▁ବ୍ୟବସାୟ	-7357
णु	-7358
ଦରେ	-7359
▁3.	-7360
anda	-7361
क्षेप	-7362
▁review	-7363
ias	-7364
▁Ann	-7365
▁era	-7366
ेंद्र	-7367
▁୫୦	-7368
▁मुंबई	-7369
itation	-7370
▁already	-7371
प्रे	-7372
verse	-7373
▁male	-7374
▁୨୦୧୦	-7375
22	-7376
शनल	-7377
time	-7378
ोपाल	-7379
▁Conf	-7380
▁vill	-7381
▁मिले	-7382
▁ଗୁମ୍	-7383
▁ଭକ୍ତ	-7384
▁students	-7385
▁ପ୍ରତିଯୋଗ	-7386
cel	-7387
टिल	-7388
ाये	-7389
ुरा	-7390
ନ୍ଦୁ	-7391
▁श्रेणी	-7392
▁सुविधा	-7393
▁କାର୍ଯ୍ୟକ୍ରମ	-7394
▁ବଦ	-7395
▁ईश्वर	-7396
▁कोशिका	-7397
▁समर्थन	-7398
▁ଭୂମ	-7399
▁mole	-7400
▁neigh	-7401
▁परमाण	-7402
▁ସଙ୍କଟ	-7403
▁ସୌ	-7404
ithm	-7405
्यूटर	-7406
▁cred	-7407
▁ସ୍ତର	-7408
ॉक	-7409
ଜୁ	-7410
୭ରେ	-7411
▁१९७	-7412
asons	-7413
▁चुका	-7414
▁ମାଂସ	-7415
▁psych	-7416
▁release	-7417
ୟମ	-7418
▁दै	-7419
gebra	-7420
▁rank	-7421
▁इस्लाम	-7422
जु	-7423
▁मस्	-7424
aling	-7425
▁प्ले	-7426
idents	-7427
▁western	-7428
ien	-7429
ମତା	-7430
▁ଲୋ	-7431
ନ୍ଦନ	-7432
▁...	-7433
फर	-7434
vey	-7435
▁मॉ	-7436
▁१०	-7437
▁idea	-7438
▁career	-7439
▁करा	-7440
▁ମାଧ୍ୟମରେ	-7441
▁Americans	-7442
14	-7443
rd	-7444
▁ପୀ	-7445
▁ଶାସନ	-7446
ଷ୍କ	-7447
oles	-7448
▁Def	-7449
aught	-7450
▁शंकर	-7451
▁highly	-7452
▁ପ୍ରସ୍ତ	-7453
▁ଫେବୃଆରୀ	-7454
▁additional	-7455
▁bod	-7456
▁आती	-7457
▁वीं	-7458
aches	-7459
▁अवधि	-7460
▁Second	-7461
▁ସରକାରୀ	-7462
yer	-7463
ସିନ	-7464
ଦିଷ୍ଟ	-7465
▁Force	-7466
▁कानून	-7467
▁द्वार	-7468
bed	-7469
unar	-7470
▁thous	-7471
▁करोड़	-7472
▁ବିମାନ	-7473
amm	-7474
gin	-7475
ण्य	-7476
▁ईर	-7477
irds	-7478
▁ବୁଝ	-7479
olved	-7480
▁Turk	-7481
▁Wash	-7482
▁ships	-7483
▁ବିଚାର	-7484
ଞ୍ଜନ	-7485
▁cou	-7486
▁ବାସ	-7487
▁प्रस्ताव	-7488
ଦ୍ୟୁ	-7489
itors	-7490
-3	-7491
▁१९६	-7492
▁ମାତ	-7493
लिखित	-7494
unicip	-7495
तन्त्र	-7496
▁छात्र	-7497
▁ଲୋକଙ୍କ	-7498
▁फिल्मों	-7499
Ch	-7500
नर	-7501
ଶ୍ରୀ	-7502
▁Big	-7503
▁wife	-7504
▁देना	-7505
କର୍ତ୍ତ	-7506
▁Paris	-7507
▁Croatia	-7508
▁mathemat	-7509
▁अंतर्राष्ट्रीय	-7510
''	-7511
୧୦	-7512
▁୨୦୦୦	-7513
▁ଯୁକ୍ତରାଷ୍ଟ୍ରରେ	-7514
head	-7515
▁2002	-7516
▁break	-7517
▁u	-7518
▁settle	-7519
▁response	-7520
ର୍ଡ	-7521
▁बरा	-7522
▁सड़क	-7523
▁conqu	-7524
▁अनुमान	-7525
▁स्वास्थ्य	-7526
▁performance	-7527
भूम	-7528
ାବେ	-7529
▁ଆମ	-7530
▁पत्थर	-7531
▁ପଣ୍ଡା	-7532
▁व्याख्या	-7533
▁महाराष्ट्र	-7534
ସଲ	-7535
▁x	-7536
▁पति	-7537
▁ଥାଇ	-7538
▁1999	-7539
▁Smith	-7540
▁घोषित	-7541
▁mainly	-7542
▁ଇଂରାଜୀ	-7543
एम	-7544
▁ଆଶ	-7545
ଳ୍ପୀ	-7546
▁महल	-7547
▁हार	-7548
▁ଏସ	-7549
▁wind	-7550
▁famous	-7551
▁letter	-7552
▁plants	-7553
ंदी	-7554
▁मौत	-7555
▁ever	-7556
▁प्रधानमंत्री	-7557
ଗ୍	-7558
uke	-7559
जिद	-7560
ises	-7561
▁Bank	-7562
▁आर्य	-7563
▁stage	-7564
▁निकाल	-7565
ologist	-7566
ଡୁ	-7567
ायी	-7568
▁प्रौद्योग	-7569
ियोग	-7570
▁नीति	-7571
अंग्रे	-7572
▁ମନ୍ଦିରର	-7573
enh	-7574
ket	-7575
ादा	-7576
िना	-7577
▁inj	-7578
▁Vict	-7579
▁cells	-7580
▁create	-7581
ened	-7582
▁1920	-7583
▁2018	-7584
ynasty	-7585
▁spect	-7586
▁उसमें	-7587
▁implement	-7588
ुआ	-7589
▁କଳ	-7590
ଣ୍ଟର	-7591
▁levels	-7592
▁ପ୍ରଜାତି	-7593
onst	-7594
▁माइ	-7595
▁विवाद	-7596
▁ହେଇଥିଲା	-7597
ସିଂହ	-7598
▁ନିଆ	-7599
▁Film	-7600
▁प्रत	-7601
▁वहीं	-7602
▁ସତ୍ୟ	-7603
▁କରିବାରେ	-7604
▁Sol	-7605
▁एक्स	-7606
▁ଆଣ୍ଟ	-7607
▁Franc	-7608
▁therefore	-7609
▁Two	-7610
▁अतः	-7611
▁परम	-7612
▁fell	-7613
iant	-7614
▁Bill	-7615
▁ଯାହାର	-7616
▁consum	-7617
▁ଖ୍ରୀଷ୍ଟ	-7618
▁Civil	-7619
rif	-7620
reng	-7621
▁अग्र	-7622
ferred	-7623
▁ଅନ୍ୟତମ	-7624
ବକ	-7625
▁(3	-7626
▁ସାଂ	-7627
▁बनाई	-7628
▁୧୯୯୦	-7629
▁शहरों	-7630
▁ଶିକାର	-7631
78	-7632
ump	-7633
▁bur	-7634
▁prior	-7635
▁married	-7636
ुड	-7637
▁त्रि	-7638
क्सी	-7639
▁ଘଟି	-7640
▁alph	-7641
▁गुजरात	-7642
च्छा	-7643
प्ता	-7644
ମାରୀ	-7645
▁बीज	-7646
▁ପୁଅ	-7647
▁look	-7648
▁कहान	-7649
▁बढ़ा	-7650
▁लिखी	-7651
▁measure	-7652
▁functions	-7653
ansion	-7654
▁Academy	-7655
▁Washington	-7656
०००	-7657
▁मानस	-7658
▁कव	-7659
▁Bre	-7660
▁hyp	-7661
▁ତାପ	-7662
liest	-7663
▁compon	-7664
▁display	-7665
▁राह	-7666
ensus	-7667
ville	-7668
▁wood	-7669
▁status	-7670
cks	-7671
ेलन	-7672
୮ରେ	-7673
▁चै	-7674
▁तप	-7675
▁Sen	-7676
▁ଦାୟ	-7677
uments	-7678
▁ब्रिटेन	-7679
▁फ़िल्मों	-7680
▁गल	-7681
ocal	-7682
▁मोट	-7683
▁diss	-7684
▁छोटा	-7685
▁ବିଷୟ	-7686
▁Liber	-7687
▁threat	-7688
▁ସମ୍ବନ୍ଧ	-7689
In	-7690
ୁନିକ	-7691
▁वैदिक	-7692
▁contains	-7693
िकल	-7694
ସ୍ତ୍ର	-7695
▁path	-7696
▁जैसा	-7697
▁सर्वाधिक	-7698
ଣରେ	-7699
pped	-7700
▁लौट	-7701
▁ତାର	-7702
▁Elect	-7703
▁अपेक्षा	-7704
राध	-7705
▁ମୁଖ	-7706
▁2016	-7707
▁विदेशी	-7708
▁%	-7709
नाम	-7710
wide	-7711
▁गृह	-7712
ृत्ति	-7713
▁cust	-7714
▁farm	-7715
▁ଅଙ୍ଗ	-7716
▁ଲେଖକ	-7717
estival	-7718
24	-7719
ss	-7720
cles	-7721
▁Wil	-7722
▁रात	-7723
▁सम्मानित	-7724
▁१२	-7725
▁सूर	-7726
▁मार्	-7727
ulations	-7728
▁ରହିଥିଲା	-7729
ଖିତ	-7730
▁माप	-7731
▁Class	-7732
▁ଲୋକପ୍ରିୟ	-7733
den	-7734
ikt	-7735
▁ଜ୍	-7736
▁ask	-7737
▁साध	-7738
▁maintain	-7739
75	-7740
କ୍ଷିତ	-7741
▁Jose	-7742
▁किले	-7743
▁ଖେଳି	-7744
▁detail	-7745
▁ଗୁଡ଼ିକ	-7746
▁କ୍ରିକେଟ	-7747
दय	-7748
▁फार	-7749
▁Wall	-7750
▁बनने	-7751
ocratic	-7752
▁महाभारत	-7753
▁चम	-7754
▁ଜୁ	-7755
▁ऋषि	-7756
▁ଶ୍ର	-7757
earch	-7758
▁wide	-7759
▁immedi	-7760
▁संरचना	-7761
▁तहत	-7762
▁rare	-7763
▁issue	-7764
ଚା	-7765
arc	-7766
ବାଦୀ	-7767
▁Rec	-7768
▁centre	-7769
▁forest	-7770
fficient	-7771
▁स्थानों	-7772
500	-7773
key	-7774
▁ପର୍	-7775
board	-7776
heast	-7777
▁methods	-7778
▁शास्त्र	-7779
ताप	-7780
▁बच्चे	-7781
▁ସମ୍ଭାବ	-7782
▁କରୁଛନ୍ତି	-7783
इस	-7784
ंतर	-7785
▁ଜ୍ଞ	-7786
▁Follow	-7787
ଡ଼ିତ	-7788
rying	-7789
▁धीरे	-7790
ointed	-7791
କ୍ରିୟା	-7792
▁(195	-7793
▁मस्जिद	-7794
▁Scottish	-7795
▁“	-7796
▁चतु	-7797
▁मुगल	-7798
▁लेते	-7799
▁ग्रहण	-7800
▁विद्रोह	-7801
▁compared	-7802
uda	-7803
ଜ୍ଜ	-7804
▁एल	-7805
▁Mer	-7806
सलमान	-7807
▁drug	-7808
▁wall	-7809
icated	-7810
lected	-7811
क्षेत्र	-7812
▁border	-7813
▁Kn	-7814
▁Bak	-7815
▁get	-7816
▁ଉପଲ	-7817
▁ରଖା	-7818
▁समिति	-7819
▁ପକ୍ଷୀ	-7820
▁active	-7821
▁claimed	-7822
एक	-7823
hood	-7824
▁want	-7825
ियोजना	-7826
▁whole	-7827
▁ଶ୍ରେଣୀ	-7828
ାଳୟ	-7829
lled	-7830
ापुर	-7831
▁रुप	-7832
▁विन	-7833
aring	-7834
embly	-7835
▁soon	-7836
▁अनुभव	-7837
▁अर्थात्	-7838
▁ସେତେବେଳେ	-7839
परिक	-7840
▁pie	-7841
▁ସାର	-7842
▁ଦର୍ଶ	-7843
reland	-7844
▁मिलते	-7845
▁division	-7846
▁ବ୍ଲ	-7847
▁प्रांत	-7848
zz	-7849
iff	-7850
ita	-7851
मित	-7852
▁Av	-7853
aled	-7854
सेना	-7855
द्दीन	-7856
▁बाजार	-7857
▁Company	-7858
lo	-7859
▁शांति	-7860
▁opened	-7861
▁ଦୃଷ୍ଟି	-7862
▁ପଞ୍ଜାବ	-7863
▁ଯୌ	-7864
ରୁଦ୍ଧ	-7865
▁ଚର୍ମ	-7866
व्यवस्था	-7867
▁प्रचलित	-7868
▁ପ୍ରଦର୍ଶନ	-7869
ଧର	-7870
riage	-7871
▁pric	-7872
▁लेता	-7873
ମନ୍ଦିର	-7874
▁incor	-7875
▁जापान	-7876
▁nation	-7877
▁appears	-7878
▁society	-7879
▁निश्चित	-7880
16	-7881
▁इत	-7882
▁Bah	-7883
▁ଅଫ୍	-7884
▁ଜେନ	-7885
▁ମହାରା	-7886
▁संस्करण	-7887
▁suggested	-7888
86	-7889
▁काउ	-7890
▁नया	-7891
▁1997	-7892
▁ଉତ୍ସବ	-7893
▁matter	-7894
▁climate	-7895
ala	-7896
ामा	-7897
୍ରୋମ	-7898
▁Dis	-7899
▁शीर्ष	-7900
▁ପ୍ରତିକ୍ରିୟା	-7901
oud	-7902
ାନ୍ସ	-7903
▁पालन	-7904
▁rat	-7905
▁saf	-7906
▁तरफ	-7907
▁मंगल	-7908
▁quick	-7909
▁cannot	-7910
hy	-7911
गार	-7912
▁ଗୌ	-7913
▁खूब	-7914
▁enter	-7915
▁ପରମ୍ପ	-7916
▁influenced	-7917
वत	-7918
कान	-7919
▁1998	-7920
▁Southern	-7921
▁primarily	-7922
AT	-7923
▁alk	-7924
▁ଫୁଲ	-7925
म्परा	-7926
▁noted	-7927
ଠୀ	-7928
ାବି	-7929
▁सल	-7930
▁ପୃଥି	-7931
▁accom	-7932
▁categ	-7933
▁दोस्त	-7934
▁प्राण	-7935
▁ବ୍ୟତୀତ	-7936
▁probably	-7937
can	-7938
ପାରିବ	-7939
ାମାନଙ୍କ	-7940
mark	-7941
्वाल	-7942
▁ନନ୍ଦ	-7943
▁spread	-7944
▁ଅନୁବାଦ	-7945
ୀପ	-7946
ांतर	-7947
▁असम	-7948
▁1991	-7949
▁draw	-7950
▁guitar	-7951
राब	-7952
र्द	-7953
▁ens	-7954
▁दास	-7955
▁वही	-7956
▁1992	-7957
▁Irish	-7958
▁rules	-7959
▁नारायण	-7960
▁eastern	-7961
▁ପ୍ରସିଦ୍ଧ	-7962
▁आँ	-7963
ially	-7964
▁Prot	-7965
▁ପାହା	-7966
▁focus	-7967
▁जर्मनी	-7968
▁परियोजना	-7969
amin	-7970
▁देवता	-7971
▁Following	-7972
ଏଲ	-7973
ज्ज	-7974
▁उनमें	-7975
▁Ireland	-7976
▁activity	-7977
ାଟ	-7978
ंडा	-7979
▁୨୪	-7980
▁Sun	-7981
▁अफ़	-7982
▁तेज	-7983
▁coin	-7984
▁Early	-7985
▁basis	-7986
▁कार्ब	-7987
କର୍ତ୍ତା	-7988
▁enough	-7989
▁target	-7990
▁बच्चों	-7991
▁ଅଛନ୍ତି	-7992
▁ପାକିସ୍ତ	-7993
▁resulting	-7994
hol	-7995
ोरी	-7996
िक्स	-7997
▁ଅସୁ	-7998
▁चुके	-7999
▁alcoh	-8000
गाह	-8001
zech	-8002
ନାରେ	-8003
▁खंड	-8004
▁theore	-8005
▁सार्वज	-8006
unk	-8007
▁ଖା	-8008
ault	-8009
rown	-8010
▁shows	-8011
actions	-8012
▁1930	-8013
▁citiz	-8014
▁makes	-8015
▁shown	-8016
▁निर्देशक	-8017
आर	-8018
चय	-8019
bai	-8020
िरी	-8021
क्का	-8022
▁ପୁରୀ	-8023
▁विशेषता	-8024
ଆର	-8025
▁Rom	-8026
कर्ता	-8027
▁वर्मा	-8028
▁ନ୍ୟାୟ	-8029
▁ସର୍ବାଧିକ	-8030
ବିଶ	-8031
▁flu	-8032
▁चाल	-8033
▁Azer	-8034
▁benef	-8035
▁location	-8036
▁completed	-8037
rupt	-8038
▁ସିଂ	-8039
▁मुद्रा	-8040
▁property	-8041
▁Cur	-8042
▁Fin	-8043
▁जाय	-8044
▁ତରଳ	-8045
▁weap	-8046
▁issues	-8047
▁ସମ୍ପାଦ	-8048
▁literature	-8049
AM	-8050
्रु	-8051
▁ଉପର	-8052
▁दिखा	-8053
▁contrast	-8054
▁cast	-8055
▁भक्त	-8056
େସନ	-8057
▁ग़	-8058
▁vot	-8059
▁कृत	-8060
▁ସ୍କ	-8061
iform	-8062
▁memory	-8063
▁ब्राह्मण	-8064
edy	-8065
▁काली	-8066
▁antib	-8067
▁heavy	-8068
▁चारों	-8069
▁पहाड़ी	-8070
▁प्रौद्योगिकी	-8071
▁esc	-8072
urches	-8073
▁White	-8074
▁फरवरी	-8075
▁स्रोत	-8076
▁ଭୂମିକା	-8077
▁contract	-8078
▁ପ୍ରାରମ୍ଭ	-8079
▁ମୂର୍ତ୍ତି	-8080
्नि	-8081
▁ବୌ	-8082
▁sac	-8083
▁ଗତି	-8084
▁ନେଇଥିଲେ	-8085
pr	-8086
यात	-8087
comp	-8088
▁सुख	-8089
baijan	-8090
▁heart	-8091
▁conver	-8092
▁प्रारम्भ	-8093
▁ପ୍ରତ୍ୟେକ	-8094
▁date	-8095
▁kind	-8096
▁ज्ञात	-8097
▁सर्वो	-8098
▁अनुसंध	-8099
ଫ୍	-8100
ask	-8101
ाइट	-8102
▁Mos	-8103
▁ଗାଁ	-8104
astic	-8105
द्यपि	-8106
▁poor	-8107
▁सम्प	-8108
▁Chile	-8109
▁contem	-8110
ଷ୍ଣୁ	-8111
▁एंड	-8112
▁बाग	-8113
▁Serv	-8114
▁संके	-8115
▁table	-8116
▁streng	-8117
▁आचार्य	-8118
▁ପୃଥିବୀ	-8119
▁ସଂସ୍କୃତି	-8120
▁Revolution	-8121
ହର	-8122
शाली	-8123
overy	-8124
ାଇଟିସ	-8125
▁derived	-8126
▁प्रान्त	-8127
यक	-8128
▁ଦା	-8129
hold	-8130
uman	-8131
▁गुल	-8132
मात्र	-8133
▁sens	-8134
▁graph	-8135
▁forced	-8136
stitution	-8137
bour	-8138
tters	-8139
▁भारी	-8140
▁विवे	-8141
▁लगाया	-8142
▁कश्मीर	-8143
▁changed	-8144
▁विस्तृत	-8145
▁ଝା	-8146
▁Div	-8147
▁गठन	-8148
▁done	-8149
▁ଦିବସ	-8150
▁ପ୍ରମାଣ	-8151
▁प्रदर्श	-8152
21	-8153
3%	-8154
▁ଦର	-8155
▁ଶୀ	-8156
ibly	-8157
itan	-8158
सीसी	-8159
▁Rome	-8160
▁जलवा	-8161
▁Government	-8162
olf	-8163
alle	-8164
ର୍ଦ୍	-8165
▁Ash	-8166
▁ବାୟୁ	-8167
▁अच्छा	-8168
▁belief	-8169
▁पुराने	-8170
्प	-8171
ada	-8172
▁भवन	-8173
iques	-8174
▁ଜୀବା	-8175
▁Techn	-8176
▁କାଳରେ	-8177
▁औद्योग	-8178
दम	-8179
କୀ	-8180
ंदा	-8181
लाब	-8182
▁୨୧	-8183
▁धातु	-8184
▁ତାମିଲ	-8185
▁presence	-8186
जीव	-8187
୧୯୯	-8188
▁70	-8189
ର୍ଦ୍ଧ	-8190
ୁଥିବା	-8191
▁Mark	-8192
▁block	-8193
▁ମୃତ୍ୟୁବରଣ	-8194
▁km	-8195
ଦର୍ଶ	-8196
▁Mah	-8197
▁कब्	-8198
▁equip	-8199
▁ପାଞ୍ଚ	-8200
▁ଯାହାକି	-8201
▁earliest	-8202
AC	-8203
▁ହୋ	-8204
azine	-8205
ellig	-8206
▁week	-8207
▁ଦୁର୍ଗ	-8208
▁transm	-8209
▁ଆନ୍ଦୋଳନ	-8210
▁ସାକ୍ଷରତା	-8211
तौर	-8212
स्फ	-8213
ारक	-8214
▁वजह	-8215
istry	-8216
▁Aber	-8217
▁ମହାବିଦ୍ୟାଳୟ	-8218
ାମା	-8219
▁Ev	-8220
▁Pre	-8221
▁जंग	-8222
▁ଭୋଟ	-8223
▁stop	-8224
▁Saint	-8225
rm	-8226
िनियम	-8227
▁मांग	-8228
प्रदाय	-8229
▁मित्र	-8230
▁परम्परा	-8231
▁daughter	-8232
▁Azerbaijan	-8233
▁ଫଳ	-8234
rier	-8235
▁keep	-8236
▁behind	-8237
▁joined	-8238
▁यद्यपि	-8239
▁carried	-8240
▁complet	-8241
▁correspond	-8242
▁୦	-8243
▁ଦୈ	-8244
स्थल	-8245
▁Pet	-8246
▁1996	-8247
▁पद्म	-8248
▁लागू	-8249
▁Center	-8250
▁relationship	-8251
use	-8252
ୋତି	-8253
▁रण	-8254
▁buildings	-8255
▁scientific	-8256
lym	-8257
मती	-8258
ନିଆ	-8259
▁Mil	-8260
icted	-8261
▁ଭାଗରେ	-8262
▁legisl	-8263
▁artists	-8264
irm	-8265
▁counter	-8266
▁मुसलमान	-8267
▁constant	-8268
▁सार्वजनिक	-8269
▁लै	-8270
▁mom	-8271
▁blue	-8272
▁ଆନ୍ତ	-8273
ର୍ଜାତୀୟ	-8274
▁manager	-8275
7%	-8276
▁ଚୁ	-8277
▁दान	-8278
▁ରହେ	-8279
▁Bern	-8280
▁ଗର୍ଭାବ	-8281
▁question	-8282
▁वास्तविक	-8283
▁AM	-8284
▁ମୌ	-8285
▁Czech	-8286
▁#	-8287
ନନ୍ଦ	-8288
▁उम्र	-8289
▁ମିଟର	-8290
▁Under	-8291
▁paper	-8292
▁मौजूद	-8293
▁impact	-8294
▁निर्वा	-8295
▁Cop	-8296
▁prin	-8297
▁rapid	-8298
45	-8299
ଟୋ	-8300
फ्त	-8301
ସ୍ତି	-8302
tical	-8303
▁Navy	-8304
▁move	-8305
▁demonst	-8306
▁राजमार्ग	-8307
थी	-8308
ena	-8309
set	-8310
▁गोल	-8311
▁କେଶ	-8312
▁federal	-8313
▁letters	-8314
▁ବନ	-8315
▁ଏବେ	-8316
water	-8317
ବାହିକ	-8318
ମ୍ବାଇ	-8319
▁risk	-8320
▁ଅବସର	-8321
▁Despite	-8322
▁रन	-8323
▁disp	-8324
▁निर्णय	-8325
2%	-8326
▁ଟା	-8327
िस्ट	-8328
▁sus	-8329
▁Mont	-8330
▁ମସିହାରୁ	-8331
▁soldiers	-8332
with	-8333
କ୍ଷେ	-8334
ଥିବାର	-8335
▁laws	-8336
▁बेटे	-8337
▁ବର୍ଗ	-8338
ଜଣ	-8339
ulpt	-8340
ेंगे	-8341
स्पति	-8342
▁अनुसंधान	-8343
▁materials	-8344
▁टै	-8345
▁ଟାଇ	-8346
▁1994	-8347
▁Best	-8348
perial	-8349
▁ଦିଲ୍ଲୀ	-8350
izations	-8351
कता	-8352
▁भवि	-8353
▁आयोजन	-8354
99	-8355
ube	-8356
▁link	-8357
▁आनंद	-8358
▁global	-8359
▁तापमान	-8360
23	-8361
ମଣ୍ଡ	-8362
▁ଗୁଣ	-8363
लेक्ट	-8364
▁urban	-8365
▁Common	-8366
▁female	-8367
ଅମ	-8368
▁मू	-8369
▁true	-8370
▁orbit	-8371
▁ସୁନ୍ଦର	-8372
65	-8373
ेय	-8374
हान	-8375
arter	-8376
▁Brown	-8377
ned	-8378
▁गैर	-8379
iated	-8380
opher	-8381
undred	-8382
▁writer	-8383
▁कट	-8384
ging	-8385
▁Cast	-8386
▁अधीन	-8387
▁ଅକ୍ଷ	-8388
▁ମାନବ	-8389
▁ରାଜଧାନ	-8390
▁पत्रिका	-8391
An	-8392
aters	-8393
▁calcul	-8394
▁Ottoman	-8395
▁expansion	-8396
▁represented	-8397
झे	-8398
▁mig	-8399
▁ଦେଉ	-8400
▁परमाणु	-8401
▁victory	-8402
▁professional	-8403
हारी	-8404
▁bomb	-8405
▁ନାରାୟଣ	-8406
ଗଲେ	-8407
ପାନ	-8408
ider	-8409
▁Rel	-8410
▁epis	-8411
▁ଫେରି	-8412
▁hours	-8413
▁शास्त	-8414
▁degree	-8415
▁ସ୍ଥାନୀୟ	-8416
4%	-8417
ynam	-8418
त्रि	-8419
▁କ୍ରୀ	-8420
igation	-8421
▁regional	-8422
yr	-8423
"),	-8424
nia	-8425
▁Kar	-8426
▁Tex	-8427
▁step	-8428
▁हस्त	-8429
▁signed	-8430
▁worked	-8431
▁objects	-8432
▁intended	-8433
▁35	-8434
मारी	-8435
ाद्य	-8436
ଭୂମି	-8437
▁inn	-8438
ख्यात	-8439
▁1989	-8440
▁Mary	-8441
नान	-8442
वियत	-8443
▁Not	-8444
ented	-8445
ensity	-8446
▁प्रोट	-8447
▁संसार	-8448
▁ହେଉଛନ୍ତି	-8449
enz	-8450
त्ती	-8451
▁ult	-8452
▁provides	-8453
--	-8454
6%	-8455
bro	-8456
odox	-8457
▁inhab	-8458
▁ମାସରେ	-8459
▁annual	-8460
▁league	-8461
▁resour	-8462
▁ଗାନ୍ଧୀ	-8463
▁alternative	-8464
ियल	-8465
ରେଶ	-8466
▁१६	-8467
▁ଚକ୍ର	-8468
▁Angel	-8469
▁ବୌଦ୍ଧ	-8470
▁ଡିଗ୍ରୀ	-8471
व्र	-8472
▁cand	-8473
▁spirit	-8474
▁creation	-8475
alo	-8476
▁वाण	-8477
ender	-8478
्लेषण	-8479
▁wikt	-8480
▁money	-8481
▁उद्या	-8482
▁ଆକାରରେ	-8483
▁training	-8484
85	-8485
▁भेद	-8486
स्यों	-8487
▁coach	-8488
▁पार्क	-8489
▁Martin	-8490
▁ସଂଗ୍ରାମ	-8491
▁जॉ	-8492
▁पेट	-8493
▁मिथ	-8494
▁१९४	-8495
▁तर्क	-8496
ଲିକ	-8497
▁ब्ल	-8498
▁ଗ୍ରୀ	-8499
▁ଆଧୁନିକ	-8500
▁individuals	-8501
▁महाविद्यालय	-8502
="	-8503
वीर	-8504
▁4.	-8505
▁Modern	-8506
▁reform	-8507
▁प्रतिक	-8508
▁experience	-8509
घर	-8510
ବ୍ଧ	-8511
▁अस्प	-8512
▁ଆକାଶ	-8513
୍ରାହ୍ମ	-8514
▁व्याव	-8515
▁algebra	-8516
▁op	-8517
cest	-8518
क्ता	-8519
▁dram	-8520
▁Treat	-8521
▁algor	-8522
▁मिलकर	-8523
▁ହେବାର	-8524
17	-8525
ର୍ସ	-8526
▁ପକ	-8527
▁संश	-8528
▁କଲା	-8529
▁ଥରେ	-8530
obile	-8531
▁Buddha	-8532
▁ପତ୍ନୀଙ୍କ	-8533
AR	-8534
▁उदय	-8535
▁रोम	-8536
नुमान	-8537
▁synt	-8538
▁जाएगा	-8539
▁ଚିନ୍ତ	-8540
▁भविष्य	-8541
▁प्रतिमा	-8542
▁Rob	-8543
▁ସାହୁ	-8544
▁अत्यंत	-8545
▁कार्यों	-8546
▁सिद्धान्त	-8547
▁ir	-8548
▁गी	-8549
▁यौ	-8550
▁stars	-8551
▁ଭଗବାନ	-8552
▁ହାରଠାରୁ	-8553
▁अंग्रेज़ी	-8554
va	-8555
ଖର	-8556
uge	-8557
▁जेल	-8558
▁प्रय	-8559
▁round	-8560
▁taking	-8561
▁महिलाओं	-8562
▁composed	-8563
▁प्रयुक्त	-8564
acc	-8565
खों	-8566
जाति	-8567
▁उन्	-8568
▁Lord	-8569
▁rise	-8570
▁युवा	-8571
▁महीने	-8572
୧୨	-8573
▁आत	-8574
▁2017	-8575
▁आदेश	-8576
▁medic	-8577
▁decided	-8578
▁नियुक्त	-8579
▁remaining	-8580
sw	-8581
पक	-8582
▁बहा	-8583
▁पार्	-8584
▁रखते	-8585
▁decre	-8586
▁composer	-8587
रि	-8588
erve	-8589
▁Both	-8590
▁हजार	-8591
▁needed	-8592
▁reduced	-8593
वर्ष	-8594
▁Sub	-8595
▁ध्व	-8596
annel	-8597
भावना	-8598
▁share	-8599
▁places	-8600
▁ଅପ୍ରେଲ	-8601
▁suggest	-8602
पू	-8603
ବଣ	-8604
ado	-8605
୍ରୟ	-8606
▁जित	-8607
▁ନେତ	-8608
▁Group	-8609
▁becoming	-8610
ying	-8611
ittee	-8612
▁निधन	-8613
▁वित्त	-8614
▁समस्त	-8615
▁କରାଗଲା	-8616
▁ମୁମ୍ବାଇ	-8617
▁broadcast	-8618
EC	-8619
song	-8620
▁ମାଇ	-8621
▁ସ୍କୁଲ	-8622
▁जलवायु	-8623
ani	-8624
ण्ट	-8625
▁Bang	-8626
▁सोवियत	-8627
▁machine	-8628
▁Columbia	-8629
▁combined	-8630
▁identified	-8631
▁Gra	-8632
▁खास	-8633
▁सही	-8634
▁tree	-8635
▁परिषद	-8636
▁passed	-8637
▁प्रतिष्ठ	-8638
▁Ma	-8639
▁पस	-8640
▁Mem	-8641
▁ded	-8642
▁दूध	-8643
▁ସ୍ଟ	-8644
▁assum	-8645
▁peace	-8646
▁sense	-8647
▁Greece	-8648
▁Atlantic	-8649
▁speed	-8650
▁Victor	-8651
▁औद्योगिक	-8652
64	-8653
enth	-8654
▁ପଥର	-8655
୧୫	-8656
मारे	-8657
▁500	-8658
▁दृष्ट	-8659
▁आयोजित	-8660
ographic	-8661
▁କଂଗ୍ରେସର	-8662
ID	-8663
दूर	-8664
ଦିଆ	-8665
rine	-8666
▁amb	-8667
▁ରେଳ	-8668
▁बराबर	-8669
▁double	-8670
▁failed	-8671
▁ରାଜଧାନୀ	-8672
ूगल	-8673
▁୨୨	-8674
▁୨୭	-8675
edom	-8676
र्दू	-8677
▁yet	-8678
▁लम्ब	-8679
▁ଦେଶର	-8680
▁୨୦୨୦	-8681
▁subst	-8682
▁ବୟସରୁ	-8683
▁Joseph	-8684
▁industrial	-8685
गति	-8686
नाइट	-8687
▁आदर्श	-8688
▁historian	-8689
rief	-8690
▁ରହୁ	-8691
crete	-8692
▁conv	-8693
▁निजी	-8694
▁सिक्	-8695
▁କ୍ଷୁଦ୍ର	-8696
ାଇଡ	-8697
गणना	-8698
▁Bec	-8699
▁हरा	-8700
▁ୟୁର	-8701
▁मोहन	-8702
▁teams	-8703
▁आलोचना	-8704
▁ରହିଥିବା	-8705
गन	-8706
ଣୀର	-8707
well	-8708
▁Cost	-8709
▁Year	-8710
▁deep	-8711
▁ଅଭାବ	-8712
▁launched	-8713
ua	-8714
200	-8715
୧୯୮	-8716
▁हॉ	-8717
▁box	-8718
▁समाचार	-8719
अलग	-8720
ygen	-8721
▁१९५	-8722
▁ଚୀନ	-8723
sec	-8724
▁हरि	-8725
▁ସମୁ	-8726
which	-8727
धारित	-8728
▁Dist	-8729
▁That	-8730
▁व्यवसाय	-8731
13	-8732
ils	-8733
थान	-8734
▁cry	-8735
▁जल्	-8736
▁୧୯୮୦	-8737
cluding	-8738
▁ability	-8739
▁ସୁରକ୍ଷା	-8740
▁tex	-8741
▁सरल	-8742
▁ପରା	-8743
▁1947	-8744
▁basic	-8745
▁values	-8746
▁ଉପନ୍ୟାସ	-8747
▁accepted	-8748
▁ମିଳିଥିଲା	-8749
▁अंतरराष्ट्रीय	-8750
ोधन	-8751
▁150	-8752
▁Just	-8753
▁Science	-8754
▁ସମ୍ପୂର୍ଣ୍ଣ	-8755
एल	-8756
ato	-8757
करी	-8758
pose	-8759
ship	-8760
▁Bet	-8761
▁ସ୍ମ	-8762
▁सारे	-8763
▁ଦୂରରେ	-8764
खे	-8765
uit	-8766
ଶିଳ୍ପୀ	-8767
▁arran	-8768
▁ब्रह्मा	-8769
▁respectively	-8770
FL	-8771
ंघ	-8772
ଟିଳ	-8773
୍ୟାସ	-8774
▁fif	-8775
▁Sant	-8776
thodox	-8777
▁बावजूद	-8778
▁medical	-8779
▁section	-8780
8%	-8781
भूमि	-8782
▁सें	-8783
▁अड्ड	-8784
न्त्री	-8785
▁ବିଷ୍ଣୁ	-8786
केट	-8787
भाई	-8788
ଯିବ	-8789
▁सृ	-8790
ସ୍ଥିତି	-8791
▁bacter	-8792
▁क्षेत्रफल	-8793
▁controvers	-8794
ोड़ा	-8795
ଙ୍ଗୁ	-8796
▁जुड़ा	-8797
▁प्रतीक	-8798
▁ବ୍ରାହ୍ମ	-8799
▁journalist	-8800
लोक	-8801
▁वेब	-8802
▁ସଂର	-8803
▁consists	-8804
▁philosophy	-8805
Al	-8806
col	-8807
ेशा	-8808
ସାବ	-8809
▁UN	-8810
▁ey	-8811
▁ମାମ	-8812
▁ट्रे	-8813
▁ଆଲୋକ	-8814
St	-8815
lav	-8816
ण्डल	-8817
▁pil	-8818
र्वेद	-8819
▁songs	-8820
▁हासिल	-8821
▁pattern	-8822
▁authority	-8823
ply	-8824
▁TV	-8825
▁रिप	-8826
▁ବହି	-8827
ously	-8828
ତିହାସିକ	-8829
▁launch	-8830
▁ସପ୍ତାହ	-8831
iro	-8832
ତ୍ତର	-8833
▁Mag	-8834
▁रवि	-8835
rical	-8836
▁मौसम	-8837
▁राशि	-8838
▁होगी	-8839
▁exhib	-8840
▁लड़ाई	-8841
▁collect	-8842
27	-8843
र्श	-8844
वेयर	-8845
शाला	-8846
▁मास	-8847
▁1972	-8848
▁माने	-8849
▁ଠାକୁର	-8850
▁argued	-8851
▁religion	-8852
▁mix	-8853
▁ended	-8854
▁इन्द्र	-8855
▁सूक्ष्म	-8856
▁defeated	-8857
▁appointed	-8858
aud	-8859
ात्	-8860
▁mur	-8861
ultan	-8862
▁Barb	-8863
▁Base	-8864
▁Anton	-8865
▁writers	-8866
▁formation	-8867
▁previously	-8868
hat	-8869
ଣିକ	-8870
▁पॉ	-8871
rone	-8872
माता	-8873
▁दार्	-8874
▁grant	-8875
▁older	-8876
ନାନ	-8877
zant	-8878
▁Min	-8879
▁ବିଜେ	-8880
▁conne	-8881
▁lived	-8882
▁ତାହାର	-8883
67	-8884
मेर	-8885
▁exc	-8886
▁ବୃହ	-8887
▁ମଧୁ	-8888
▁slow	-8889
▁sculpt	-8890
▁ସ୍ୱାମୀ	-8891
▁distance	-8892
▁ଧାରାବାହିକ	-8893
9%	-8894
win	-8895
बॉल	-8896
ାସନ	-8897
lict	-8898
lymp	-8899
odia	-8900
▁(),	-8901
▁ଧାରଣ	-8902
▁Public	-8903
▁Po	-8904
▁ଗଜ	-8905
ादेश	-8906
ograp	-8907
▁1995	-8908
▁Moon	-8909
▁neut	-8910
▁race	-8911
▁किंग	-8912
▁लिखे	-8913
▁ଜଟିଳ	-8914
▁ସେନା	-8915
▁कन्या	-8916
▁models	-8917
▁native	-8918
▁सदस्यों	-8919
▁निम्नलिखित	-8920
1%	-8921
▁win	-8922
▁summer	-8923
▁न्यायालय	-8924
ida	-8925
न्ट	-8926
▁जह	-8927
▁रै	-8928
▁ice	-8929
aging	-8930
ର୍ମାନ	-8931
▁ताकि	-8932
▁पात्र	-8933
▁ethnic	-8934
▁weight	-8935
▁गणराज्य	-8936
▁Don	-8937
▁Pac	-8938
▁ଚରି	-8939
▁ଆତ୍ମ	-8940
▁chief	-8941
rations	-8942
▁ଖର୍ଚ୍ଚ	-8943
▁Because	-8944
▁initially	-8945
▁Ah	-8946
▁अद	-8947
▁Add	-8948
▁gra	-8949
ାତ୍ରୀ	-8950
▁तंत्र	-8951
▁सुन्दर	-8952
▁ପାରମ୍ପ	-8953
ाइल	-8954
ନ୍ତୀ	-8955
▁चर्	-8956
▁1940	-8957
▁Corn	-8958
▁चाहते	-8959
▁Street	-8960
▁हनुमान	-8961
▁attacks	-8962
▁decision	-8963
୧୪	-8964
ଚାପ	-8965
▁अय	-8966
िलों	-8967
▁spl	-8968
▁अंश	-8969
lines	-8970
▁इमार	-8971
▁Olymp	-8972
▁ସରକାରଙ୍କ	-8973
कला	-8974
ହରଣ	-8975
▁178	-8976
▁ठाक	-8977
▁समर्प	-8978
elt	-8979
ଢ଼ା	-8980
ଲୋକ	-8981
▁ୱେ	-8982
ଦେବୀ	-8983
ieval	-8984
▁निष्	-8985
▁मूर्ति	-8986
लम	-8987
▁Dou	-8988
▁ଆଖି	-8989
▁ଖାଇ	-8990
▁Sever	-8991
▁ଜ୍ୟୋତି	-8992
▁behavior	-8993
ଥରେ	-8994
धारा	-8995
▁सीता	-8996
▁Organ	-8997
▁हमारे	-8998
▁humans	-8999
▁sexual	-9000
▁उत्पत्ति	-9001
ाटा	-9002
▁(20	-9003
▁Pan	-9004
▁इंज	-9005
▁मजब	-9006
▁ପ୍ରତିନି	-9007
▁university	-9008
वाब	-9009
▁Aj	-9010
▁1988	-9011
▁Chap	-9012
▁Rail	-9013
▁burn	-9014
▁Their	-9015
▁Research	-9016
▁observed	-9017
▁Mu	-9018
illed	-9019
▁आन्द	-9020
▁हिस्से	-9021
▁विद्युत	-9022
▁incorpor	-9023
3),	-9024
▁ଫା	-9025
▁Ari	-9026
▁नही	-9027
▁ବାବ	-9028
▁deal	-9029
▁equal	-9030
▁ବିହାର	-9031
▁Comput	-9032
▁Library	-9033
डल	-9034
୬ରେ	-9035
yond	-9036
िलित	-9037
▁our	-9038
▁उद्यान	-9039
घाट	-9040
भूत	-9041
▁ସୈ	-9042
▁वाक	-9043
estic	-9044
ोग्राम	-9045
▁Scotland	-9046
▁programs	-9047
ଥେ	-9048
ँकि	-9049
ଟରେ	-9050
▁bal	-9051
स्वती	-9052
▁edition	-9053
▁अस्तित्व	-9054
तल	-9055
▁जनगणना	-9056
खर	-9057
ହନ	-9058
ारण	-9059
▁बर्	-9060
सूत्र	-9061
▁vary	-9062
▁ଯଥାକ୍ରମେ	-9063
उस	-9064
वाला	-9065
▁सिल	-9066
▁monarch	-9067
▁अधिकारी	-9068
▁Parliament	-9069
▁3,	-9070
ॉफ्ट	-9071
▁pun	-9072
▁खरी	-9073
▁माह	-9074
▁ପଡ଼	-9075
▁अकबर	-9076
▁night	-9077
▁ଯୋଜନା	-9078
uls	-9079
ully	-9080
काता	-9081
▁Ast	-9082
▁ईसाई	-9083
▁ମଙ୍ଗ	-9084
▁micro	-9085
लेक्ट्र	-9086
▁दिसम्बर	-9087
iot	-9088
yal	-9089
iled	-9090
▁उड़	-9091
▁मुर	-9092
acity	-9093
▁कैसे	-9094
▁ତାକୁ	-9095
▁aspect	-9096
थि	-9097
inet	-9098
▁साइ	-9099
▁ତାଲ	-9100
ilies	-9101
▁County	-9102
▁electric	-9103
ान्	-9104
ରାଧ	-9105
ogen	-9106
▁बहन	-9107
press	-9108
▁road	-9109
▁शुद्ध	-9110
▁ଦେଶରେ	-9111
▁अर्थव्यवस्था	-9112
स्पे	-9113
िकोण	-9114
ेनिस	-9115
्रिय	-9116
त्कार	-9117
दर्शन	-9118
▁nucle	-9119
▁आनन्द	-9120
▁सैन्य	-9121
▁सभ्यता	-9122
ପ୍ରେ	-9123
▁177	-9124
▁Tra	-9125
▁Miss	-9126
▁Afghanistan	-9127
▁Ball	-9128
▁बेटी	-9129
▁ପରିଷ	-9130
▁ଉପଲବ୍ଧ	-9131
ela	-9132
ଫରୁ	-9133
▁पशु	-9134
▁ଆଣି	-9135
▁phen	-9136
▁सेंट	-9137
▁ବିଧାୟକ	-9138
▁ଯାହାକୁ	-9139
▁applied	-9140
▁संग्रहालय	-9141
eff	-9142
ଜାତ	-9143
▁ଏନ	-9144
▁अंदर	-9145
▁recon	-9146
▁प्रकट	-9147
ଢ଼ିଥିଲେ	-9148
▁municip	-9149
।।	-9150
▁Mur	-9151
▁आत्मा	-9152
▁communities	-9153
दुर	-9154
ଙ୍କାର	-9155
▁Test	-9156
▁enem	-9157
▁उनसे	-9158
▁किला	-9159
▁नष्ट	-9160
▁अग्नि	-9161
▁लक्षण	-9162
▁सुल्त	-9163
▁comment	-9164
▁श्रृंखला	-9165
फे	-9166
lem	-9167
see	-9168
▁Ox	-9169
▁Den	-9170
▁साब	-9171
▁Beng	-9172
▁ତାରିଖ	-9173
▁Byzant	-9174
▁frequently	-9175
ॉम	-9176
oned	-9177
ଖଣ୍ଡ	-9178
▁पाई	-9179
▁ଯାଉ	-9180
▁हाला	-9181
▁sport	-9182
oration	-9183
▁अंग्रेजों	-9184
▁॥	-9185
wor	-9186
▁ମଠ	-9187
▁अमी	-9188
▁घंट	-9189
▁brain	-9190
▁fourth	-9191
▁ସଂସ୍ଥା	-9192
▁nuclear	-9193
▁Department	-9194
▁घट	-9195
fect	-9196
iger	-9197
▁Arg	-9198
▁Oper	-9199
▁fish	-9200
▁Later	-9201
▁ठाकुर	-9202
▁resulted	-9203
▁CE	-9204
▁୨୩	-9205
▁GDP	-9206
▁टाइ	-9207
▁तुम	-9208
light	-9209
anguage	-9210
▁middle	-9211
▁ଗବେଷଣା	-9212
▁Johnson	-9213
▁possess	-9214
▁examples	-9215
▁compounds	-9216
▁resistance	-9217
akh	-9218
ଭଳି	-9219
ାପା	-9220
ଗିରି	-9221
▁फैला	-9222
▁ଶାସ୍ତ୍ର	-9223
▁approach	-9224
▁effective	-9225
ଙ୍ଗି	-9226
ପତ୍ର	-9227
▁Hill	-9228
▁tend	-9229
▁ସିଣ୍ଡ	-9230
▁parties	-9231
▁हृ	-9232
gram	-9233
▁ଆସୁ	-9234
▁conserv	-9235
▁विभाजित	-9236
book	-9237
▁ମାଆ	-9238
orders	-9239
▁ପୁରାତନ	-9240
▁featured	-9241
▁province	-9242
BA	-9243
णिक	-9244
▁rot	-9245
▁Micro	-9246
▁corre	-9247
lection	-9248
▁anthrop	-9249
▁सामग्री	-9250
kin	-9251
ାର୍ଡ	-9252
▁शेष	-9253
▁charg	-9254
▁takes	-9255
▁ସିଦ୍ଧ	-9256
▁ହିସାବ	-9257
▁formal	-9258
भि	-9259
ांक	-9260
▁पठ	-9261
दर्भ	-9262
पत्र	-9263
▁pal	-9264
amine	-9265
▁ବନ୍ଧୁ	-9266
▁ancest	-9267
▁secret	-9268
▁लक्ष्मी	-9269
▁internal	-9270
▁सम्मिलित	-9271
▁activities	-9272
୍ମା	-9273
▁आइ	-9274
▁Ach	-9275
▁Tor	-9276
▁liber	-9277
▁ସମୁଦାୟ	-9278
▁playing	-9279
▁quickly	-9280
▁knowledge	-9281
▁୨୮	-9282
▁ग्ल	-9283
▁bring	-9284
▁prison	-9285
▁reject	-9286
▁पश्चात	-9287
▁शो	-9288
uese	-9289
▁ପଦକ	-9290
iplom	-9291
▁इतना	-9292
▁श्रद्ध	-9293
▁figures	-9294
▁records	-9295
▁କରାଯାଇପାରେ	-9296
nam	-9297
usal	-9298
ର୍ଷଣ	-9299
▁suc	-9300
▁ଏକ୍ସ	-9301
▁ସ୍ୱୀ	-9302
▁Prince	-9303
▁search	-9304
▁वास्तव	-9305
▁address	-9306
▁प्रतियोग	-9307
48	-9308
ii	-9309
ाब	-9310
्क	-9311
ମିଆ	-9312
ସ୍ତା	-9313
▁Sat	-9314
स्त्र	-9315
▁1971	-9316
▁पटना	-9317
itable	-9318
▁Prime	-9319
▁ideas	-9320
▁purch	-9321
▁Nations	-9322
▁conflict	-9323
:-	-9324
SM	-9325
▁लाइ	-9326
▁Music	-9327
▁दृश्य	-9328
▁ତରଫରୁ	-9329
ातार	-9330
▁Ark	-9331
▁गोर	-9332
▁1987	-9333
▁अकाद	-9334
▁लेखन	-9335
▁୨୦୨୧	-9336
ructed	-9337
▁Arist	-9338
▁chall	-9339
▁Virgin	-9340
▁figure	-9341
▁राजाओं	-9342
....	-9343
▁BCE	-9344
▁अरु	-9345
▁୧୦୦	-9346
ବିନ୍ଦ	-9347
▁ପୂର୍	-9348
▁upper	-9349
▁ପୃଷ୍ଠ	-9350
▁moment	-9351
▁entered	-9352
songwriter	-9353
▁Cambridge	-9354
▁techniques	-9355
▁ଉଇ	-9356
ଭକ୍ତ	-9357
▁aim	-9358
▁विज	-9359
▁Thus	-9360
▁तहसी	-9361
▁occurred	-9362
बह	-9363
osm	-9364
ଳାପ	-9365
▁AT	-9366
opes	-9367
▁वाह	-9368
usion	-9369
▁ସଂଗଠ	-9370
▁Major	-9371
▁हमेशा	-9372
▁sector	-9373
aker	-9374
▁1986	-9375
▁depend	-9376
▁online	-9377
▁नदियों	-9378
▁उन्होने	-9379
▁सम्मेलन	-9380
▁interpret	-9381
▁Jul	-9382
▁Mat	-9383
▁ବାଇ	-9384
▁बाबा	-9385
▁सिने	-9386
▁गाँधी	-9387
▁ଏମାନେ	-9388
▁କରିଛି	-9389
▁despite	-9390
▁citizens	-9391
▁କର୍ମକର୍ତ୍ତା	-9392
la	-9393
band	-9394
ावली	-9395
▁आये	-9396
▁ଋତୁ	-9397
▁କ୍ୱ	-9398
▁mess	-9399
▁sets	-9400
▁ପରିଣ	-9401
▁ଘୋଷଣା	-9402
▁लक्ष्य	-9403
लाश	-9404
वीय	-9405
▁Er	-9406
▁hy	-9407
▁୨୬	-9408
icit	-9409
uing	-9410
▁Sur	-9411
▁don	-9412
▁ଓଜନ	-9413
▁ପିଲା	-9414
▁जिनके	-9415
ବିଦ୍ୟାଳୟରେ	-9416
▁direction	-9417
▁operating	-9418
▁प्रारंभिक	-9419
▁definition	-9420
ପନ	-9421
क्सा	-9422
▁Jes	-9423
▁गर्	-9424
rants	-9425
▁अधिव	-9426
ternet	-9427
▁extended	-9428
▁ନିର୍ଦ୍ଦିଷ୍ଟ	-9429
हो	-9430
संग	-9431
▁Ep	-9432
▁पद्ध	-9433
▁Series	-9434
▁emphas	-9435
▁simple	-9436
▁अभियान	-9437
▁सितंबर	-9438
▁hundred	-9439
▁appearance	-9440
▁ut	-9441
र्की	-9442
ेदार	-9443
▁harm	-9444
▁prem	-9445
▁reve	-9446
पूर्वक	-9447
▁Prize	-9448
▁earth	-9449
▁ଜୀବାଣୁ	-9450
▁ସ୍ଥାପନ	-9451
▁directed	-9452
▁district	-9453
▁ଶତାବ୍ଦୀର	-9454
ंव	-9455
2),	-9456
ୟୁତ	-9457
▁ec	-9458
ନ୍ଧା	-9459
▁Nap	-9460
▁समृ	-9461
iller	-9462
ायनिक	-9463
▁1974	-9464
▁Rock	-9465
▁fort	-9466
▁पुनः	-9467
▁सन्द	-9468
▁favor	-9469
▁अधिकतर	-9470
▁becomes	-9471
▁କଳାକାରମାନେ	-9472
ଦୟ	-9473
dam	-9474
arsh	-9475
▁vow	-9476
imens	-9477
▁1977	-9478
▁Life	-9479
▁ସ୍ନାତକ	-9480
▁offered	-9481
▁responsible	-9482
rey	-9483
▁ଚୌ	-9484
न्दी	-9485
▁घरेल	-9486
▁musical	-9487
▁बदला	-9488
▁candid	-9489
▁पुराना	-9490
भीर	-9491
सला	-9492
िकता	-9493
▁Leg	-9494
▁Sing	-9495
▁ଜିତି	-9496
▁ଦଣ୍ଡ	-9497
▁इच्छा	-9498
▁charge	-9499
▁experim	-9500
▁Constant	-9501
मै	-9502
▁सफ	-9503
▁ଅଶ	-9504
▁Tem	-9505
▁big	-9506
▁autom	-9507
▁lunar	-9508
▁संपाद	-9509
▁positive	-9510
▁operation	-9511
रस	-9512
ଟନ	-9513
କ୍ଷମ	-9514
force	-9515
ान्ति	-9516
▁rain	-9517
▁ଯକୃତ	-9518
▁मिलने	-9519
▁योग्य	-9520
▁spoken	-9521
▁allowing	-9522
▁continue	-9523
▁declared	-9524
▁ଶତାବ୍ଦୀରେ	-9525
BM	-9526
जन्म	-9527
▁ଆବି	-9528
▁ଜମି	-9529
▁ମୁଁ	-9530
▁Carl	-9531
ieties	-9532
inated	-9533
▁claims	-9534
▁alcohol	-9535
िणी	-9536
oura	-9537
▁Land	-9538
▁Athens	-9539
▁निर्भर	-9540
▁ordered	-9541
▁management	-9542
▁organization	-9543
ରମ	-9544
aded	-9545
ella	-9546
▁माध	-9547
▁दत्त	-9548
▁Atari	-9549
▁मामले	-9550
▁सक्रिय	-9551
▁marriage	-9552
▁ତତ୍	-9553
▁ତିନ	-9554
▁लगातार	-9555
▁विरुद्ध	-9556
▁ମନ୍ଦିରରେ	-9557
सेन	-9558
▁११	-9559
ଲୁଗୁ	-9560
▁Also	-9561
▁Bost	-9562
▁Super	-9563
▁match	-9564
▁उपकरण	-9565
▁କନ୍ୟା	-9566
▁महाराजा	-9567
ूरी	-9568
▁90	-9569
▁Abb	-9570
▁चुन	-9571
ବାହିତ	-9572
▁अनुर	-9573
▁बाकी	-9574
▁ଆଘାତ	-9575
ceeded	-9576
▁Confeder	-9577
▁churches	-9578
▁Nic	-9579
▁भ्र	-9580
osaur	-9581
▁त्या	-9582
କଂଗ୍ରେ	-9583
▁ସଂଖ୍ୟ	-9584
▁museum	-9585
▁प्रतिनिध	-9586
hess	-9587
▁କ୍ଲ	-9588
ବିଧାନ	-9589
▁turned	-9590
▁दिसंबर	-9591
▁ଲୋକଙ୍କୁ	-9592
व्या	-9593
▁Nob	-9594
▁संय	-9595
▁1969	-9596
▁वाता	-9597
▁month	-9598
▁जर्मन	-9599
▁article	-9600
▁ପ୍ରଯୋଜନା	-9601
▁classical	-9602
▁reference	-9603
୫୦	-9604
erg	-9605
ंसर	-9606
वंबर	-9607
▁ବିର	-9608
▁सिन्	-9609
▁withd	-9610
▁कोरिया	-9611
oo	-9612
ियस	-9613
▁1993	-9614
▁୨୦୧୭	-9615
କଂଗ୍ରେସ	-9616
▁हालाँकि	-9617
kh	-9618
1),	-9619
वती	-9620
▁ଜୋ	-9621
ତାଣୁ	-9622
▁lif	-9623
▁गैस	-9624
isted	-9625
osing	-9626
▁1975	-9627
▁Kore	-9628
▁जाये	-9629
▁୧୯୯୫	-9630
▁ଜ୍ଞାନ	-9631
▁अधिनियम	-9632
▁condition	-9633
ढ़ी	-9634
▁ତୋ	-9635
izes	-9636
▁Sir	-9637
▁हवा	-9638
▁Bible	-9639
▁Alfred	-9640
▁distingu	-9641
▁presented	-9642
gar	-9643
▁ଦ୍ର	-9644
▁Iran	-9645
▁Georg	-9646
▁संकेत	-9647
▁lawyer	-9648
▁Turkish	-9649
▁protect	-9650
▁necessary	-9651
▁Portuguese	-9652
गंज	-9653
्याम	-9654
▁Mad	-9655
aland	-9656
iring	-9657
onian	-9658
ବଲପୁର	-9659
▁ଟିକା	-9660
▁Radio	-9661
▁avoid	-9662
▁उर्दू	-9663
▁ହ୍ରାସ	-9664
न्द्रीय	-9665
▁ସନ୍ତାନ	-9666
▁सम्पूर्ण	-9667
▁ନିୟନ୍ତ୍ରଣ	-9668
वाली	-9669
▁Bol	-9670
rates	-9671
▁runs	-9672
▁आमतौर	-9673
▁भक्ति	-9674
▁belong	-9675
▁ମାନସିକ	-9676
▁expected	-9677
▁mountain	-9678
▁universe	-9679
28	-9680
ୂଳ	-9681
iah	-9682
ରିତ	-9683
▁Age	-9684
▁फ्ल	-9685
▁रोड	-9686
orage	-9687
ରିଆରେ	-9688
▁1985	-9689
▁stra	-9690
▁ଧୀରେ	-9691
▁ରକ୍ତଚାପ	-9692
▁essential	-9693
ନୋ	-9694
बाज	-9695
▁AI	-9696
▁CP	-9697
▁ଜୈ	-9698
▁କହିଥିଲେ	-9699
▁Orthodox	-9700
▁agreement	-9701
▁ସେମାନଙ୍କର	-9702
हे	-9703
रीय	-9704
▁तृ	-9705
onso	-9706
▁dead	-9707
▁speech	-9708
▁परिवर्त	-9709
▁ଗ୍ରାମରେ	-9710
▁institutions	-9711
ଚର	-9712
धरी	-9713
ातर	-9714
▁Di	-9715
▁इल	-9716
▁Over	-9717
▁image	-9718
▁मिस्र	-9719
▁friend	-9720
▁आन्दोलन	-9721
▁सरस्वती	-9722
ରାୟ	-9723
▁So	-9724
बर्ट	-9725
▁ଘରେ	-9726
oured	-9727
▁1979	-9728
▁गर्भ	-9729
▁जुड़े	-9730
ressive	-9731
▁अध्याय	-9732
▁ପରିବେଶ	-9733
▁ईस	-9734
▁ଅନୁଭବ	-9735
▁Pacific	-9736
▁एकमात्र	-9737
▁इट	-9738
▁भा	-9739
्याण	-9740
ପ୍ରି	-9741
▁300	-9742
▁ଅଲି	-9743
▁आतंक	-9744
▁ଅଲଗା	-9745
▁ନିଜେ	-9746
▁react	-9747
▁सिर्फ	-9748
▁sports	-9749
▁hydrogen	-9750
35	-9751
वां	-9752
▁सतह	-9753
ସ୍ରାବ	-9754
▁गहरा	-9755
▁नेहर	-9756
▁କେହି	-9757
▁ଶୁକ୍	-9758
▁fully	-9759
▁शुक्र	-9760
▁Anglican	-9761
-4	-9762
ୋଜି	-9763
atre	-9764
▁Bob	-9765
▁rang	-9766
ketball	-9767
▁ଇଞ୍ଜେକ	-9768
▁संस्कार	-9769
भुत	-9770
ାଲୋ	-9771
▁179	-9772
▁Mel	-9773
▁चोट	-9774
ାନନ୍ଦ	-9775
▁grand	-9776
▁ଦିଗରେ	-9777
▁तत्कालीन	-9778
ips	-9779
uis	-9780
▁Of	-9781
ष्टा	-9782
ସିସ୍	-9783
▁ISO	-9784
▁mis	-9785
▁tun	-9786
▁पकड़	-9787
▁पुरी	-9788
▁newsp	-9789
▁नवंबर	-9790
▁मनाया	-9791
▁deaths	-9792
▁marked	-9793
▁विचारों	-9794
लर	-9795
ଜରେ	-9796
ଟର୍	-9797
ଟିକ	-9798
–18	-9799
▁सप	-9800
क्षक	-9801
मंडल	-9802
▁alt	-9803
▁nit	-9804
▁ଦିଗ	-9805
▁हरिया	-9806
▁illust	-9807
▁oldest	-9808
▁କମ୍ପାନୀ	-9809
▁पर्यावरण	-9810
ଏକ	-9811
ସରେ	-9812
ପକ୍ଷ	-9813
ିକାଲ	-9814
▁Out	-9815
▁cru	-9816
▁पहल	-9817
▁१९२	-9818
▁1984	-9819
▁repe	-9820
iverse	-9821
▁ବେଳକୁ	-9822
▁ଜଣାଯାଏ	-9823
▁disorder	-9824
▁structures	-9825
▁bra	-9826
itage	-9827
▁myth	-9828
▁जीवा	-9829
▁chlor	-9830
▁ସର୍ବୋ	-9831
▁animal	-9832
▁notable	-9833
▁architecture	-9834
ैर	-9835
ଫୋ	-9836
୧୭	-9837
mad	-9838
ामु	-9839
क्षी	-9840
▁ସାତ	-9841
▁क्रमश	-9842
igenous	-9843
▁occurs	-9844
▁कोलकाता	-9845
▁ଲୋକଙ୍କର	-9846
थे	-9847
କ୍କ	-9848
ବାଇ	-9849
▁दब	-9850
▁तिर	-9851
where	-9852
▁इकाई	-9853
ivalent	-9854
ublican	-9855
▁ଚେଷ୍ଟା	-9856
▁अत्यधिक	-9857
▁पर्याप्त	-9858
▁प्राप्ति	-9859
▁Champions	-9860
▁mentioned	-9861
ih	-9862
ीद	-9863
ମୋନ	-9864
୨ରେ	-9865
wise	-9866
माने	-9867
▁ଜାଗ	-9868
▁ସଂସ	-9869
alism	-9870
▁impl	-9871
▁ମାତା	-9872
anning	-9873
▁maxim	-9874
▁reign	-9875
▁खन्ना	-9876
▁जिनका	-9877
▁Polish	-9878
▁slight	-9879
▁प्रायः	-9880
▁kingdom	-9881
▁महासागर	-9882
▁evolution	-9883
oln	-9884
ଉଣୀ	-9885
ମତି	-9886
▁Jud	-9887
▁भेज	-9888
▁आरोप	-9889
▁ଗଳ୍ପ	-9890
▁spent	-9891
▁ମାନଙ୍କ	-9892
▁Bulgaria	-9893
पत	-9894
मो	-9895
ବଂଶ	-9896
itic	-9897
▁ସଂକ	-9898
▁୨୦୦୫	-9899
▁labor	-9900
ଂରାଜୀରେ	-9901
କ୍ରାନ୍ତ	-9902
▁देवताओं	-9903
▁exchange	-9904
▁administration	-9905
ंजी	-9906
रीत	-9907
eral	-9908
▁व्र	-9909
▁texts	-9910
▁ଛାତ୍ର	-9911
୧୩	-9912
ams	-9913
rod	-9914
वेश	-9915
्वा	-9916
ମୋହନ	-9917
▁har	-9918
inner	-9919
▁Blue	-9920
▁ପ୍ରୋ	-9921
▁brief	-9922
▁ଅନୁମୋ	-9923
▁conclud	-9924
कोश	-9925
▁Camp	-9926
▁ଶୈଳୀ	-9927
▁artist	-9928
▁अनुमति	-9929
▁ग्रामी	-9930
▁existence	-9931
ୃଷ୍ଟ	-9932
▁Heb	-9933
▁झार	-9934
▁ପାନ	-9935
चारिक	-9936
▁Tele	-9937
▁राजप	-9938
▁राधा	-9939
▁रोमन	-9940
▁ଦ୍ରା	-9941
▁refers	-9942
▁ପରମ୍ପରା	-9943
▁ଯେପରିକି	-9944
66	-9945
CA	-9946
ls	-9947
▁*	-9948
▁adj	-9949
▁सदा	-9950
▁dark	-9951
▁दुर्ग	-9952
▁allows	-9953
▁क्रांति	-9954
▁प्रशिक्ष	-9955
ST	-9956
▁Adm	-9957
ortun	-9958
▁କାନ୍	-9959
▁ଏମାନଙ୍କ	-9960
▁रासायनिक	-9961
▁विद्वानों	-9962
Is	-9963
mas	-9964
cons	-9965
किंग	-9966
निर्	-9967
स्को	-9968
▁कमल	-9969
ସ୍କୃତ	-9970
▁खेती	-9971
▁ସମର୍ଥ	-9972
▁विषयों	-9973
comm	-9974
acing	-9975
eding	-9976
ଦେଶରେ	-9977
▁Camer	-9978
▁Texas	-9979
▁ଦ୍ୱାର	-9980
akistan	-9981
▁Several	-9982
ासन	-9983
ोली	-9984
onym	-9985
ଲ୍ୟା	-9986
▁Shah	-9987
▁दिये	-9988
▁भूगोल	-9989
▁Boston	-9990
▁oxygen	-9991
▁ବିରୁଦ୍ଧ	-9992
▁ସଂଯୁକ୍ତ	-9993
▁elections	-9994
▁आख	-9995
▁ପଛ	-9996
ंडित	-9997
शनिक	-9998
▁cat	-9999
▁बसा	-10000
▁ଜଙ୍ଗଲ	-10001
▁ସୂଚନା	-10002
▁अर्जुन	-10003
▁କାରଣରୁ	-10004
-5	-10005
टों	-10006
illa	-10007
ैतिक	-10008
ିଶୋର	-10009
▁आर्	-10010
▁इंद	-10011
▁किश	-10012
ennis	-10013
▁Serb	-10014
▁auth	-10015
inking	-10016
କ୍ଷାଂଶ	-10017
▁Green	-10018
▁Emperor	-10019
▁contact	-10020
▁प्रदर्शित	-10021
bu	-10022
add	-10023
anes	-10024
▁Tim	-10025
▁संधि	-10026
▁ନୀତି	-10027
antage	-10028
▁immig	-10029
▁provin	-10030
▁संबंधी	-10031
▁ମହାପ୍ର	-10032
▁follows	-10033
▁सुल्तान	-10034
▁ଅକ୍ଷାଂଶ	-10035
BS	-10036
car	-10037
▁मंग	-10038
▁royal	-10039
▁course	-10040
ह्न	-10041
ଲାଇ	-10042
ମାତ୍ର	-10043
▁ମଣିଷ	-10044
▁प्रथा	-10045
▁Edward	-10046
▁विभाजन	-10047
▁passeng	-10048
▁ସମ୍ଭାବନା	-10049
▁distribution	-10050
ँग	-10051
ାଲୁ	-10052
▁कराया	-10053
▁simply	-10054
▁हिमालय	-10055
▁ବାହାରି	-10056
▁ସମ୍ବଲପୁର	-10057
▁उल्लेखनीय	-10058
▁ରାଷ୍ଟ୍ରପତି	-10059
वुड	-10060
ଲିସ	-10061
▁Do	-10062
ooth	-10063
▁hol	-10064
▁comes	-10065
▁वातावरण	-10066
▁प्रतियोगिता	-10067
▁Abd	-10068
▁ଚାପ	-10069
▁pron	-10070
▁powers	-10071
▁resources	-10072
डम	-10073
िमा	-10074
▁5.	-10075
▁Ban	-10076
cious	-10077
ांतिक	-10078
▁sites	-10079
▁घरेलू	-10080
▁କହିଲେ	-10081
▁device	-10082
▁expressed	-10083
▁Aud	-10084
▁Lab	-10085
ାୟିକା	-10086
▁ବୃତ୍ତ	-10087
▁agreed	-10088
ग्व	-10089
ଦିକ	-10090
ଚ୍ଛା	-10091
▁emb	-10092
▁फीट	-10093
▁କ୍ରି	-10094
incoln	-10095
▁ଉଦ୍ଦେଶ	-10096
▁ଚରିତ୍ର	-10097
▁ପ୍ରୟୋଗ	-10098
▁particles	-10099
मह	-10100
▁ଥି	-10101
irect	-10102
▁Jean	-10103
▁गोवि	-10104
▁ସହାୟ	-10105
▁अस्पताल	-10106
▁interview	-10107
रीब	-10108
नाटक	-10109
िश्च	-10110
▁Alc	-10111
କୃତିକ	-10112
▁1981	-10113
▁जातक	-10114
▁୨୦୧୮	-10115
▁atoms	-10116
▁ଦ୍ରାଘ	-10117
▁ପ୍ରାଥ	-10118
▁binary	-10119
▁अर्थात	-10120
महा	-10121
मोह	-10122
ାୟତ	-10123
▁छह	-10124
such	-10125
▁1982	-10126
▁अगले	-10127
▁धारण	-10128
▁रेडियो	-10129
▁finally	-10130
▁निर्धारित	-10131
त्प	-10132
▁अख	-10133
▁तथ	-10134
▁धर	-10135
▁लॉ	-10136
▁कुर	-10137
कुमार	-10138
▁Lake	-10139
▁folk	-10140
▁काशी	-10141
vement	-10142
▁ପ୍ରେମ	-10143
▁ବିସ୍ତ	-10144
▁purpose	-10145
velopment	-10146
▁दार्शनिक	-10147
▁ଶ୍ରୀମନ୍ଦିର	-10148
▁Ur	-10149
olar	-10150
कल्प	-10151
फ़ेयर	-10152
▁Viet	-10153
▁face	-10154
▁flow	-10155
▁परिस	-10156
▁मेरे	-10157
▁तहसील	-10158
▁ପ୍ରଦାହ	-10159
▁वस्तुओं	-10160
▁currently	-10161
▁applications	-10162
Ar	-10163
ोषण	-10164
inem	-10165
▁nine	-10166
▁गुफा	-10167
▁paint	-10168
▁प्रेर	-10169
▁giving	-10170
▁council	-10171
▁actually	-10172
▁ଐତିହାସିକ	-10173
गोलिक	-10174
नियों	-10175
▁Cult	-10176
▁iron	-10177
▁reach	-10178
▁पर्यटक	-10179
▁प्रताप	-10180
▁संदर्भ	-10181
▁leaving	-10182
▁contribut	-10183
68	-10184
rog	-10185
गान	-10186
▁१४	-10187
▁Sum	-10188
▁शीत	-10189
▁effic	-10190
▁exact	-10191
ଚାର୍ଯ୍ୟ	-10192
▁awarded	-10193
▁decades	-10194
ପିତ	-10195
ର୍ମା	-10196
▁चाव	-10197
▁Prov	-10198
arters	-10199
▁वृक्ष	-10200
▁diplom	-10201
▁Islamic	-10202
मय	-10203
ଆଁ	-10204
ଚଳ	-10205
ଚରଣ	-10206
▁चढ़	-10207
▁हूँ	-10208
inity	-10209
▁Amaz	-10210
▁Adrian	-10211
▁advert	-10212
▁ଅବସ୍ଥାରେ	-10213
ees	-10214
ାବ୍ୟ	-10215
▁ple	-10216
▁उठा	-10217
▁१९३	-10218
▁Duke	-10219
▁आकाश	-10220
ception	-10221
▁Social	-10222
▁स्त्री	-10223
ifically	-10224
▁opposed	-10225
▁ଅଧିକାରୀ	-10226
▁ସିଣ୍ଡ୍ରୋମ	-10227
33	-10228
ैक	-10229
रेट	-10230
iral	-10231
▁bit	-10232
▁ରାଉ	-10233
▁ମିଶି	-10234
▁fleet	-10235
▁विपरीत	-10236
▁leaders	-10237
▁केन्द्रीय	-10238
▁महत्त्वपूर्ण	-10239
ସୋ	-10240
केश	-10241
ख्य	-10242
ିମା	-10243
mann	-10244
▁poll	-10245
▁Mexico	-10246
▁कहलाता	-10247
▁Lincoln	-10248
▁quality	-10249
▁ଦାୟିତ୍ୱ	-10250
▁सर्वोच्च	-10251
iary	-10252
▁Haw	-10253
▁ବସି	-10254
ropol	-10255
▁काला	-10256
▁Ancient	-10257
▁ବଜ	-10258
agon	-10259
▁ନୀଳ	-10260
▁ବାମ	-10261
▁1976	-10262
▁doub	-10263
▁ways	-10264
▁gives	-10265
▁woman	-10266
▁युक्त	-10267
▁ନିୟୁତ	-10268
▁closed	-10269
▁चरित्र	-10270
▁prominent	-10271
osen	-10272
▁सीमित	-10273
▁ସଙ୍ଗେ	-10274
▁efforts	-10275
▁apparent	-10276
▁contemporary	-10277
▁32	-10278
▁4,	-10279
rapy	-10280
िवेश	-10281
▁hot	-10282
▁लखन	-10283
dered	-10284
▁bapt	-10285
▁mill	-10286
▁shot	-10287
▁ଦୁର୍	-10288
formed	-10289
▁ରଙ୍ଗର	-10290
▁ପ୍ରାଣୀ	-10291
▁serious	-10292
▁communication	-10293
▁van	-10294
▁Post	-10295
▁told	-10296
▁सूरज	-10297
▁ପଣ୍ଡ	-10298
▁ରଚିତ	-10299
▁विवरण	-10300
▁लोकसभा	-10301
▁ସେଥିରେ	-10302
▁replace	-10303
▁साहित्यिक	-10304
▁फ़िल्मफ़ेयर	-10305
▁significantly	-10306
सान	-10307
ରାଟ	-10308
more	-10309
श्री	-10310
ारोह	-10311
▁Tom	-10312
▁କର୍	-10313
ulate	-10314
▁କଲିକ	-10315
▁Stand	-10316
▁छोड़कर	-10317
▁ବିଦ୍ୟୁ	-10318
ଛା	-10319
ନୀୟ	-10320
୍ଲେ	-10321
range	-10322
ନ୍ଧାନ	-10323
▁अश्व	-10324
▁ଆଣ୍ଡ	-10325
▁faith	-10326
▁Christianity	-10327
eks	-10328
षद्	-10329
▁୪୦	-10330
▁अम्	-10331
▁doct	-10332
▁अकादमी	-10333
▁ଗୁମ୍ଫା	-10334
▁critical	-10335
▁versions	-10336
▁officially	-10337
▁मुख्यमंत्री	-10338
ଡୋ	-10339
ଙ୍ଖ	-10340
ଷ୍ପ	-10341
▁गौर	-10342
▁नाथ	-10343
▁ଚାଷ	-10344
ିମାରେ	-10345
▁webs	-10346
▁Cyprus	-10347
▁कल्पना	-10348
▁ଡାକ୍ତରୀ	-10349
▁descript	-10350
▁families	-10351
▁negative	-10352
▁ପ୍ରସ୍ତାବ	-10353
▁Go	-10354
arus	-10355
inus	-10356
▁Hel	-10357
ଯାତ୍ରା	-10358
▁तीनों	-10359
▁ପ୍ରସାଦ	-10360
▁ଲକ୍ଷ୍ମୀ	-10361
ogy	-10362
ିକୋ	-10363
न्दु	-10364
▁poly	-10365
▁सिंध	-10366
ospital	-10367
ଯାଇପାରେ	-10368
▁इलेक्ट्र	-10369
zen	-10370
ୋଜିତ	-10371
▁1945	-10372
▁Ruth	-10373
▁Young	-10374
▁कैंसर	-10375
▁चौधरी	-10376
ରେନ୍ଦ୍ର	-10377
▁motion	-10378
▁प्राथम	-10379
▁रामायण	-10380
▁regarded	-10381
▁अन्तर्गत	-10382
▁positions	-10383
▁Constitution	-10384
वक	-10385
ंगी	-10386
ସାରି	-10387
claim	-10388
thing	-10389
▁कर्ण	-10390
▁चुकी	-10391
▁normal	-10392
▁things	-10393
▁winter	-10394
▁ଓଡ଼ିଶୀ	-10395
▁removed	-10396
▁stories	-10397
▁ପ୍ରାଥମିକ	-10398
▁combination	-10399
▁AS	-10400
▁nob	-10401
iling	-10402
▁ନଷ୍ଟ	-10403
▁अपराध	-10404
▁वर्णित	-10405
▁Further	-10406
▁opposition	-10407
39	-10408
En	-10409
୧୧	-10410
▁मछ	-10411
ସ୍ରା	-10412
cular	-10413
ଲେକ୍ଟ	-10414
▁Love	-10415
▁खूबस	-10416
▁୧୯୯୯	-10417
▁ଜର୍ମାନ	-10418
▁preserv	-10419
▁भौगोलिक	-10420
▁continuous	-10421
his	-10422
ାଳା	-10423
▁How	-10424
▁ସଂଘ	-10425
ishes	-10426
▁हमें	-10427
▁ଅଧୀନ	-10428
▁showed	-10429
▁विक्रम	-10430
▁Airport	-10431
").	-10432
▁कथ	-10433
▁von	-10434
युद्ध	-10435
▁रिया	-10436
▁ରକ୍ଷା	-10437
▁ସୁବିଧା	-10438
▁equipment	-10439
▁°	-10440
mat	-10441
र्घ	-10442
▁गं	-10443
▁୨୯	-10444
mosp	-10445
▁etc	-10446
▁लघु	-10447
▁plays	-10448
▁स्वर्ण	-10449
▁ଅତ୍ୟଧିକ	-10450
▁ସମ୍ମାନିତ	-10451
▁ସେମାନଙ୍କୁ	-10452
án	-10453
▁Ke	-10454
लंका	-10455
▁Inc	-10456
▁dro	-10457
▁fer	-10458
▁नेप	-10459
▁मेल	-10460
pired	-10461
▁2021	-10462
▁अल्प	-10463
▁ପଦ୍ଧ	-10464
▁believe	-10465
▁परीक्षा	-10466
aph	-10467
▁जू	-10468
▁mut	-10469
▁आकर	-10470
▁साधन	-10471
▁स्था	-10472
▁काउंटी	-10473
▁महात्मा	-10474
▁परिस्थित	-10475
▁recognized	-10476
डो	-10477
ansas	-10478
राबाद	-10479
ମ୍ଭୀର	-10480
▁रसाय	-10481
▁ସିନେ	-10482
େନ୍ଦ୍ର	-10483
▁Space	-10484
▁square	-10485
▁ଅଧ୍ୟୟନ	-10486
▁ଜରିଆରେ	-10487
▁planned	-10488
▁secondary	-10489
OM	-10490
यू	-10491
▁ମାଛ	-10492
ଣ୍ଡରେ	-10493
▁adapt	-10494
▁Persian	-10495
▁परीक्षण	-10496
▁समर्पित	-10497
▁अंतरिक्ष	-10498
▁immediately	-10499
▁श्रम	-10500
▁Found	-10501
▁आश्रम	-10502
▁ଲିଖିତ	-10503
ିଆର	-10504
▁१३	-10505
ृत्त	-10506
▁ban	-10507
▁ଜାପ	-10508
ନାଟ୍ୟ	-10509
▁इसने	-10510
▁hypot	-10511
▁ଲିଙ୍ଗ	-10512
▁ଉତ୍ପାଦନ	-10513
▁governor	-10514
▁translation	-10515
▁und	-10516
▁ପେଟ	-10517
▁देखते	-10518
▁सर्वे	-10519
▁ହତ୍ୟା	-10520
GB	-10521
भाल	-10522
ାଗୁ	-10523
▁(5	-10524
▁शिश	-10525
▁alle	-10526
▁ଜ୍ୱର	-10527
▁ଭିତର	-10528
▁ଯଦିଓ	-10529
racted	-10530
▁Carol	-10531
▁Econom	-10532
▁captured	-10533
▁ଅନୁଷ୍ଠାନ	-10534
▁ବିରୁଦ୍ଧରେ	-10535
ୱା	-10536
4),	-10537
हरे	-10538
indu	-10539
rong	-10540
▁बृह	-10541
▁हल्	-10542
▁ହୃତ	-10543
▁adult	-10544
▁ऊंचाई	-10545
▁मूल्य	-10546
▁ପହଞ୍ଚି	-10547
▁Zealand	-10548
▁ज्योतिष	-10549
▁ଗୁରୁତ୍ୱ	-10550
▁fighting	-10551
▁ରାଜନୈତିକ	-10552
32	-10553
Un	-10554
ହଁ	-10555
oir	-10556
तें	-10557
▁आशा	-10558
▁rein	-10559
▁ଘଟଣା	-10560
▁asked	-10561
▁ପ୍ରଚାର	-10562
▁convers	-10563
▁dynasty	-10564
▁ग्रामीण	-10565
▁Pakistan	-10566
▁territories	-10567
▁!	-10568
rat	-10569
oven	-10570
त्रु	-10571
▁lic	-10572
▁लीग	-10573
▁ଗୁଜ	-10574
▁जहाज	-10575
▁अवतार	-10576
▁devices	-10577
▁Egyptian	-10578
ken	-10579
ंदु	-10580
ମସି	-10581
िव्य	-10582
ମ୍ବେ	-10583
▁Bru	-10584
▁जॉन	-10585
▁୧୯୦	-10586
▁1978	-10587
▁friends	-10588
▁computers	-10589
▁containing	-10590
▁हथ	-10591
▁ରହିବା	-10592
▁running	-10593
▁Jo	-10594
▁Up	-10595
aily	-10596
▁ପୋଷ	-10597
▁ସାରା	-10598
▁୧୯୮୫	-10599
▁beyond	-10600
▁कलाकार	-10601
▁ग्रंथों	-10602
▁Austrian	-10603
uan	-10604
abet	-10605
aped	-10606
स्ति	-10607
▁fixed	-10608
▁rough	-10609
▁trees	-10610
▁कक्षा	-10611
▁बच्चन	-10612
▁नवम्बर	-10613
▁मंदिरों	-10614
▁व्याकरण	-10615
▁identity	-10616
▁instance	-10617
▁प्रोग्राम	-10618
awa	-10619
▁ଟୁ	-10620
apers	-10621
▁ଶକ୍ତ	-10622
▁उपाधि	-10623
▁ମିଳିତ	-10624
▁ଆମେରିକା	-10625
▁Commission	-10626
▁subsequently	-10627
BN	-10628
isf	-10629
arat	-10630
life	-10631
ାତ୍ମ	-10632
▁समझौ	-10633
▁୧୯୭୧	-10634
▁ପୁରାଣ	-10635
▁सिनेमा	-10636
▁content	-10637
▁factors	-10638
▁ସଂସ୍କୃତ	-10639
ଟୁ	-10640
erc	-10641
ois	-10642
ପେଶ	-10643
ancy	-10644
emis	-10645
ियार	-10646
▁Che	-10647
▁Sup	-10648
▁grew	-10649
▁vote	-10650
▁गीता	-10651
▁मुझे	-10652
नाइटेड	-10653
▁ପର୍ବତ	-10654
▁ସ୍ୱରୂପ	-10655
▁security	-10656
▁solution	-10657
▁निर्माता	-10658
ୃତ୍ୱ	-10659
▁Tod	-10660
illery	-10661
▁Queen	-10662
▁ମୁକ୍ତ	-10663
▁Andrew	-10664
▁growing	-10665
▁reflect	-10666
▁କରିପାରି	-10667
▁completely	-10668
पल	-10669
ायल	-10670
ଷ୍ମ	-10671
▁Us	-10672
▁ଥା	-10673
▁ପବ	-10674
aska	-10675
ैण्ड	-10676
▁चर्च	-10677
▁କଷ୍ଟ	-10678
usalem	-10679
▁ଘଣ୍ଟା	-10680
▁inside	-10681
▁consequ	-10682
ଶୟ	-10683
क्‍	-10684
▁45	-10685
▁Eth	-10686
▁fast	-10687
▁भ्रम	-10688
▁यहीं	-10689
▁ବିବେ	-10690
▁୨୦୦୮	-10691
▁पिछले	-10692
▁Sk	-10693
▁घन	-10694
▁गढ़	-10695
▁सिख	-10696
inate	-10697
▁1973	-10698
▁हमला	-10699
▁Asian	-10700
▁Color	-10701
▁nomin	-10702
▁ଆନନ୍ଦ	-10703
▁ତିନୋଟି	-10704
ସାଦ	-10705
▁दोष	-10706
▁मिन	-10707
▁Cuba	-10708
▁Well	-10709
▁शुक्ल	-10710
▁emperor	-10711
▁कार्यालय	-10712
▁Ob	-10713
▁ରେକ	-10714
▁virt	-10715
▁सुना	-10716
▁ଟ୍ରେ	-10717
▁meant	-10718
▁अच्छे	-10719
▁विकेट	-10720
▁extrem	-10721
▁minutes	-10722
▁ବ୍ରାହ୍ମଣ	-10723
get	-10724
▁ଭୌ	-10725
ର୍ଡ଼	-10726
▁ଅରୁ	-10727
▁Pope	-10728
▁गणेश	-10729
▁mixed	-10730
ଜ୍ଞାନିକ	-10731
▁helped	-10732
poration	-10733
▁battles	-10734
अर	-10735
दो	-10736
rie	-10737
▁36	-10738
▁गठ	-10739
▁ଫାଇ	-10740
▁ଲାଲ	-10741
▁समझा	-10742
▁କରାଇ	-10743
▁Human	-10744
▁प्रजात	-10745
▁ଖେଳାଳି	-10746
▁connected	-10747
▁principle	-10748
▁pp	-10749
▁କଣ	-10750
▁mel	-10751
▁घूम	-10752
▁सजा	-10753
isher	-10754
काव्य	-10755
▁1965	-10756
▁bear	-10757
▁चट्ट	-10758
▁ହେତୁ	-10759
▁Jesus	-10760
▁bishop	-10761
▁ପାଇଥିଲା	-10762
▁ରହିଥିଲେ	-10763
▁importance	-10764
iy	-10765
haps	-10766
କୃତି	-10767
▁Ath	-10768
▁Los	-10769
▁1968	-10770
▁नियमित	-10771
▁କ୍ଷମତା	-10772
▁authors	-10773
▁minister	-10774
▁निर्देशन	-10775
▁सुरक्षित	-10776
▁extensive	-10777
▁मक	-10778
agen	-10779
दातर	-10780
▁Bapt	-10781
▁छाया	-10782
▁रखता	-10783
▁ପ୍ରଭ	-10784
▁Holly	-10785
▁ଅବଦାନ	-10786
▁ସମ୍ଭବ	-10787
▁gained	-10788
▁श्रीलंका	-10789
▁ପ୍ରତିରୋଧ	-10790
▁ଲେଖିଥିଲେ	-10791
▁instruments	-10792
29	-10793
दिन	-10794
▁हल	-10795
▁उपचार	-10796
ଯାଇଥିବା	-10797
▁reserv	-10798
▁महादेव	-10799
▁ମାନ୍ୟତା	-10800
▁व्यक्तियों	-10801
कभी	-10802
युग	-10803
ांड	-10804
▁फॉ	-10805
▁ताल	-10806
▁नहर	-10807
▁ଶୀତ	-10808
antry	-10809
venue	-10810
▁1966	-10811
▁Each	-10812
▁ବାଲେ	-10813
▁नेहरू	-10814
▁पंडित	-10815
▁କର୍ମୀ	-10816
▁Hebrew	-10817
▁करवाया	-10818
▁पश्चात्	-10819
▁capacity	-10820
▁Christians	-10821
नाश	-10822
ଟ୍ର	-10823
▁अज	-10824
र्षि	-10825
ଟିକୁ	-10826
▁नेट	-10827
antic	-10828
ଲିଙ୍ଗ	-10829
▁Form	-10830
▁seem	-10831
▁केंद	-10832
▁संगठ	-10833
▁स्वर	-10834
▁पुरानी	-10835
▁difference	-10836
▁ଗର୍ଭାବସ୍ଥାରେ	-10837
स्ती	-10838
▁ସମୂ	-10839
▁1983	-10840
▁Time	-10841
▁कहना	-10842
ifying	-10843
पश्चिम	-10844
▁Among	-10845
▁Catal	-10846
▁volume	-10847
37	-10848
abb	-10849
osa	-10850
▁ନର	-10851
soft	-10852
▁चली	-10853
▁Four	-10854
▁भेजा	-10855
▁ମୋହନ	-10856
uscript	-10857
▁ବିଶ୍ୱର	-10858
▁commission	-10859
ଘୁ	-10860
बोध	-10861
ହୀନ	-10862
▁Ak	-10863
iced	-10864
ping	-10865
▁Pop	-10866
▁कन्न	-10867
▁जीवित	-10868
▁କଲରାପ	-10869
▁मिलियन	-10870
▁श्रेष्ठ	-10871
49	-10872
equ	-10873
ଟାଲ	-10874
▁रम	-10875
धर्म	-10876
oples	-10877
प्रथम	-10878
ାଧାରଣ	-10879
▁1948	-10880
▁stru	-10881
▁चुना	-10882
▁तरीके	-10883
▁ଦ୍ୱୀପ	-10884
▁ସଂଗୀତ	-10885
▁arrived	-10886
▁greatest	-10887
▁determined	-10888
▁ଦ୍ରାଘିମାରେ	-10889
जल	-10890
१८	-10891
ଦାସ	-10892
lies	-10893
म्बई	-10894
▁Ham	-10895
itzer	-10896
stone	-10897
▁pair	-10898
▁हाइड	-10899
▁त्याग	-10900
▁Military	-10901
ବସ	-10902
ibb	-10903
▁गे	-10904
▁काट	-10905
▁शेख	-10906
▁Chad	-10907
▁serve	-10908
▁branch	-10909
▁स्वतन्त्र	-10910
षा	-10911
tra	-10912
▁ପାଉ	-10913
धिकारी	-10914
▁मन्त्र	-10915
स्पेक्टर	-10916
अंग्रेज़ी	-10917
▁Division	-10918
▁प्रत्यक्ष	-10919
ରେଜ	-10920
▁(17	-10921
▁Clin	-10922
▁cart	-10923
▁ones	-10924
▁गणना	-10925
▁ପ୍ରିୟ	-10926
▁Country	-10927
▁संरक्षण	-10928
▁କମ୍ପ୍ୟୁ	-10929
elligence	-10930
▁magazine	-10931
▁vehicles	-10932
रोध	-10933
anth	-10934
▁ଯୋଗା	-10935
▁issued	-10936
▁पद्धति	-10937
▁शासकों	-10938
▁protection	-10939
जें	-10940
ହେରା	-10941
▁pit	-10942
▁बेल	-10943
▁ପଢ଼	-10944
ीनियर	-10945
▁1967	-10946
▁Chic	-10947
▁आगरा	-10948
▁2011,	-10949
▁Ocean	-10950
▁prime	-10951
▁विद्वान	-10952
▁संस्थाप	-10953
ଅର	-10954
aya	-10955
▁sen	-10956
▁हृदय	-10957
▁ଭଉଣୀ	-10958
▁defeat	-10959
▁supply	-10960
▁closely	-10961
तरी	-10962
▁Ol	-10963
▁ନିର	-10964
▁copy	-10965
▁उनको	-10966
▁बांध	-10967
▁सलाह	-10968
▁birds	-10969
▁weeks	-10970
▁पुर्त	-10971
▁ଶୁକ୍ଳ	-10972
▁proced	-10973
▁describe	-10974
▁recently	-10975
etherlands	-10976
▁competition	-10977
ୁମ	-10978
ूनी	-10979
▁लक	-10980
▁indu	-10981
▁phase	-10982
▁ऊँचाई	-10983
▁पृष्ठ	-10984
▁Secret	-10985
26	-10986
▁Ver	-10987
▁ଚରଣ	-10988
uated	-10989
▁Fort	-10990
▁seek	-10991
▁पराज	-10992
▁ହଜାର	-10993
▁notes	-10994
▁track	-10995
▁Sultan	-10996
▁ସାମ୍ରା	-10997
▁ସାମାନ୍ୟ	-10998
▁powerful	-10999
38	-11000
agh	-11001
ଡିଓ	-11002
▁ଶୋ	-11003
▁Cup	-11004
▁ପାଦ	-11005
adium	-11006
▁ସଭ୍ୟ	-11007
▁ସାଗର	-11008
▁Order	-11009
▁वर्गी	-11010
▁ଜଡ଼ିତ	-11011
▁Bosnia	-11012
▁Protest	-11013
▁प्रशासन	-11014
▁£	-11015
ନାର	-11016
ctic	-11017
wana	-11018
▁Alaska	-11019
▁empire	-11020
▁Swedish	-11021
ଫ୍ଟ	-11022
▁Cy	-11023
▁तू	-11024
▁ପୌ	-11025
aeus	-11026
वाड़	-11027
▁प्ल	-11028
ittle	-11029
▁subs	-11030
▁୨୦୦୭	-11031
ighter	-11032
▁ପ୍ରଭୁ	-11033
▁कल्याण	-11034
ବତ	-11035
ety	-11036
omers	-11037
▁Times	-11038
▁ବସ୍ତୁ	-11039
▁recomm	-11040
▁ସାହାଯ୍ୟରେ	-11041
-8	-11042
▁),	-11043
हवीं	-11044
ଷ୍ଠୀ	-11045
▁Jac	-11046
▁किर	-11047
▁शाय	-11048
▁prep	-11049
▁2009,	-11050
▁scale	-11051
▁ସମଗ୍ର	-11052
▁subsequent	-11053
ny	-11054
urb	-11055
्ता	-11056
▁1964	-11057
▁डाला	-11058
▁୧୯୭୭	-11059
▁Nobel	-11060
▁Minist	-11061
▁समारोह	-11062
▁ଅଞ୍ଚଳର	-11063
▁winning	-11064
चंद	-11065
हीन	-11066
▁उल	-11067
ette	-11068
zero	-11069
म्मू	-11070
▁Jos	-11071
▁जमा	-11072
▁बोध	-11073
▁କାଶ	-11074
▁news	-11075
▁समीप	-11076
▁ଅଗ୍ର	-11077
▁ଅର୍ଥା	-11078
▁ଶେଷରେ	-11079
▁Oxford	-11080
▁bodies	-11081
▁propos	-11082
▁राजपूत	-11083
▁Jackson	-11084
▁कर्नाटक	-11085
▁ଯାଇଥିଲେ	-11086
▁ଲୋକମାନେ	-11087
▁Jerusalem	-11088
टो	-11089
क्शन	-11090
▁Inf	-11091
▁पेर	-11092
▁चलते	-11093
▁सुनी	-11094
▁किताब	-11095
ध्यात्म	-11096
▁unique	-11097
▁ସ୍ୱଳ୍ପ	-11098
▁inhabit	-11099
▁Alexandria	-11100
ैया	-11101
ଘ୍ର	-11102
ତ୍ତମ	-11103
▁Sar	-11104
▁शनि	-11105
त्तीस	-11106
▁News	-11107
▁गुजर	-11108
▁बल्ले	-11109
▁archae	-11110
▁storage	-11111
▁प्रेरित	-11112
▁possibly	-11113
▁relative	-11114
▁sequence	-11115
▁ସ୍ୱର୍ଣ୍ଣ	-11116
road	-11117
प्ताह	-11118
▁Star	-11119
▁ହସ୍ତ	-11120
▁चर्चा	-11121
▁बाहरी	-11122
▁landing	-11123
ସୂ	-11124
▁मस	-11125
▁वॉ	-11126
edia	-11127
teen	-11128
ଗ୍ରା	-11129
▁Arm	-11130
▁jur	-11131
▁ମନୁ	-11132
▁ଯୁଗ	-11133
erman	-11134
rison	-11135
▁Holy	-11136
▁weak	-11137
▁Labor	-11138
▁motor	-11139
▁split	-11140
outheast	-11141
▁କଣ୍ଠଦାନ	-11142
▁ମାଂସପେଶ	-11143
▁settlement	-11144
▁परिणामस्वरूप	-11145
िनि	-11146
▁पोल	-11147
▁ପୂଜ	-11148
omial	-11149
▁Step	-11150
▁coal	-11151
▁pack	-11152
▁केरल	-11153
▁परिक	-11154
▁ପରାମ	-11155
▁toward	-11156
▁प्रगति	-11157
▁meeting	-11158
▁ଅସୁବିଧା	-11159
୧୬	-11160
▁घु	-11161
▁nor	-11162
▁बिज	-11163
▁ବାତ	-11164
orter	-11165
ilding	-11166
▁गंभीर	-11167
▁वालों	-11168
▁କ୍ଷତି	-11169
▁Treaty	-11170
▁police	-11171
▁opening	-11172
▁medicine	-11173
▁attention	-11174
▁worldwide	-11175
▁Development	-11176
୩୦	-11177
een	-11178
सीय	-11179
abul	-11180
ione	-11181
लाइन	-11182
ନ୍ଦୀ	-11183
▁Bir	-11184
▁Ven	-11185
▁फैल	-11186
िशाली	-11187
▁hands	-11188
ପ୍ରାପ୍ତ	-11189
▁Service	-11190
▁refused	-11191
ଭ୍	-11192
ache	-11193
▁त्व	-11194
▁सौर	-11195
ष्कार	-11196
▁କରିବ	-11197
▁ମିନି	-11198
▁saying	-11199
▁proport	-11200
▁strength	-11201
▁destroyed	-11202
▁इंस्पेक्टर	-11203
▁surrounding	-11204
ेदी	-11205
▁NAS	-11206
▁dra	-11207
▁शेर	-11208
▁କାଠ	-11209
▁ବିନା	-11210
ାସ୍ତ୍ର	-11211
▁lingu	-11212
▁ଶିଳ୍ପ	-11213
▁promot	-11214
▁stable	-11215
▁wanted	-11216
▁formula	-11217
▁processes	-11218
ମାସ	-11219
▁Squ	-11220
▁नाइ	-11221
▁wear	-11222
▁विजे	-11223
▁ମହାନ	-11224
▁proved	-11225
▁failure	-11226
▁ପରାମର୍ଶ	-11227
▁colonies	-11228
▁expanded	-11229
▁attempted	-11230
▁प्रशासनिक	-11231
छा	-11232
bur	-11233
iga	-11234
fall	-11235
▁Aar	-11236
▁Rod	-11237
▁रखी	-11238
▁सोच	-11239
▁Play	-11240
▁बचपन	-11241
lation	-11242
▁joint	-11243
▁lands	-11244
▁खाद्य	-11245
▁तीव्र	-11246
▁ପରିଣତ	-11247
▁raised	-11248
▁shared	-11249
▁ଡାକ୍ତର	-11250
▁Austria	-11251
including	-11252
▁Croatian	-11253
▁विश्लेषण	-11254
▁magnitude	-11255
पीठ	-11256
मुना	-11257
▁Tri	-11258
▁hab	-11259
▁सोम	-11260
▁stay	-11261
ounded	-11262
▁write	-11263
▁मराठी	-11264
▁ବନ୍ଦର	-11265
▁sought	-11266
▁overall	-11267
▁परिभाषा	-11268
IA	-11269
श्र	-11270
▁Az	-11271
्षिक	-11272
▁पाप	-11273
▁ଯୌନ	-11274
ାତ୍ମକ	-11275
▁liqu	-11276
▁जाकर	-11277
▁नवीन	-11278
ଯୁକ୍ତି	-11279
▁arbit	-11280
▁यश	-11281
icon	-11282
resh	-11283
▁cas	-11284
▁मेला	-11285
▁analy	-11286
▁सामना	-11287
▁wealth	-11288
ୋଳ	-11289
ନଳୀ	-11290
▁मृ	-11291
enna	-11292
ାମିନ	-11293
▁Fer	-11294
▁Lee	-11295
▁ବିପଦ	-11296
▁ରାଣୀ	-11297
पचारिक	-11298
▁income	-11299
struction	-11300
▁parliament	-11301
▁Netherlands	-11302
▁रॉय	-11303
▁ଖବର	-11304
▁heat	-11305
▁mind	-11306
▁पाने	-11307
▁पुष्	-11308
▁କେତେ	-11309
▁ଜାଣି	-11310
▁फैसला	-11311
▁choice	-11312
▁पुर्तग	-11313
▁paralle	-11314
▁ହେଉଥିଲା	-11315
▁केंद्रीय	-11316
ंता	-11317
ଅଛି	-11318
▁ଚଉ	-11319
greg	-11320
▁तेजी	-11321
istant	-11322
▁2006,	-11323
▁स्पेन	-11324
▁ରୂପରେ	-11325
▁स्वर्ग	-11326
▁ନିର୍ଭର	-11327
▁ପାର୍ଟିର	-11328
▁ଚିକିତ୍ସାରେ	-11329
▁କଥାଚିତ୍ରଟିରେ	-11330
ସମ	-11331
pha	-11332
risis	-11333
▁देकर	-11334
▁ସେବକ	-11335
▁beaut	-11336
▁ପୃଥିବ	-11337
▁ଦୂରଦର୍ଶନ	-11338
▁ପାରମ୍ପରିକ	-11339
dis	-11340
hus	-11341
kins	-11342
then	-11343
्वती	-11344
ହାରି	-11345
▁Way	-11346
▁ପାଟ	-11347
▁ईरान	-11348
▁depos	-11349
▁notably	-11350
▁studied	-11351
▁theories	-11352
▁situation	-11353
ପାଟ	-11354
▁भूत	-11355
irmed	-11356
level	-11357
▁gain	-11358
▁स्ना	-11359
▁ପାଣ୍ଡ	-11360
▁anarch	-11361
▁exclus	-11362
▁ପରାସ୍ତ	-11363
▁ଲକ୍ଷ୍ୟ	-11364
ologists	-11365
▁dedicated	-11366
बु	-11367
କୋଷ	-11368
▁ରଣ	-11369
bury	-11370
ଚାରୀ	-11371
▁मंज	-11372
▁रूसी	-11373
▁୨୦୦୬	-11374
encies	-11375
▁green	-11376
▁moving	-11377
▁अत्यन्त	-11378
▁achieved	-11379
ंबी	-11380
▁ହଳ	-11381
alus	-11382
rome	-11383
चंद्र	-11384
▁तीसरे	-11385
▁ନିର୍ମ	-11386
▁Health	-11387
▁receive	-11388
▁suggests	-11389
▁engineering	-11390
टकों	-11391
▁Ale	-11392
लीवुड	-11393
▁1956	-11394
▁kept	-11395
▁wave	-11396
▁मानी	-11397
sterdam	-11398
▁atomic	-11399
▁signal	-11400
▁starting	-11401
▁व्यक्तिगत	-11402
ca	-11403
ल्फ	-11404
ासा	-11405
ହୁଏ	-11406
ogue	-11407
roph	-11408
▁दवा	-11409
▁୧୯୭୪	-11410
▁aband	-11411
▁ସମାପ୍ତ	-11412
▁convent	-11413
▁आध्यात्म	-11414
▁Byzantine	-11415
▁କଣ୍ଠଶିଳ୍ପୀ	-11416
▁पत	-11417
ଦେଶୀ	-11418
▁Sil	-11419
▁अना	-11420
▁वित	-11421
ଧ୍ୟାନ	-11422
▁qual	-11423
▁says	-11424
▁limit	-11425
▁print	-11426
जू	-11427
cts	-11428
▁(4	-11429
▁CO	-11430
▁1962	-11431
▁Khan	-11432
▁मनोर	-11433
▁ବାପା	-11434
▁2017,	-11435
▁Coast	-11436
▁ଅପରେଶ	-11437
▁गतिविध	-11438
▁विरोधी	-11439
▁experiment	-11440
obe	-11441
▁बंध	-11442
▁लोह	-11443
▁love	-11444
▁ध्रु	-11445
▁depart	-11446
▁Conserv	-11447
▁heavily	-11448
ଜାନ	-11449
ଲିମ	-11450
ାପାଖି	-11451
▁cerem	-11452
▁shell	-11453
ructure	-11454
▁easily	-11455
▁बुद्धि	-11456
▁ତେଲୁଗୁ	-11457
▁ନେତୃତ୍ୱ	-11458
▁programming	-11459
bal	-11460
୩ରେ	-11461
▁चू	-11462
▁ଲଗ	-11463
thur	-11464
ାନ୍ଦ	-11465
▁Cre	-11466
▁କଳି	-11467
▁Wales	-11468
▁देखें	-11469
ictions	-11470
▁वस्त्र	-11471
▁Armenia	-11472
▁ବୈଜ୍ଞାନିକ	-11473
▁popularity	-11474
▁translated	-11475
ero	-11476
ुति	-11477
▁Long	-11478
दराबाद	-11479
▁batter	-11480
▁perman	-11481
▁ବିଭକ୍ତ	-11482
▁killing	-11483
▁whereas	-11484
▁शक्तिशाली	-11485
ौल	-11486
धों	-11487
वाँ	-11488
साद	-11489
iser	-11490
roll	-11491
▁diam	-11492
▁बंदर	-11493
▁लखनऊ	-11494
active	-11495
▁टेनिस	-11496
▁ସ୍ନାନ	-11497
▁Supreme	-11498
▁ପୃଥିବୀର	-11499
▁निर्देशित	-11500
यम	-11501
ାର୍କ	-11502
ିନିୟ	-11503
place	-11504
▁cycl	-11505
▁isol	-11506
▁isot	-11507
▁उन्न	-11508
▁संकल	-11509
▁सारी	-11510
▁जम्मू	-11511
▁causes	-11512
▁circum	-11513
▁temple	-11514
▁इंटरनेट	-11515
▁colonial	-11516
▁describes	-11517
रत	-11518
▁Ul	-11519
୍ଷିକ	-11520
ଦାହରଣ	-11521
▁अरबी	-11522
▁खण्ड	-11523
▁लिंग	-11524
▁accur	-11525
▁ଦେବାକୁ	-11526
▁ହିସାବରେ	-11527
▁slightly	-11528
▁ପ୍ରାକୃତିକ	-11529
▁differences	-11530
nce	-11531
also	-11532
cell	-11533
enty	-11534
वर्त	-11535
ଣିବା	-11536
▁Are	-11537
ାନ୍ତର	-11538
▁सच्च	-11539
▁Polit	-11540
▁absor	-11541
▁staff	-11542
instein	-11543
मन्त्री	-11544
▁ପବିତ୍ର	-11545
▁workers	-11546
▁ପରିବାରର	-11547
▁basketball	-11548
▁leadership	-11549
▁କଥାଚିତ୍ରରେ	-11550
▁ଦେଶମାନଙ୍କରେ	-11551
ón	-11552
ସବୁ	-11553
▁cle	-11554
▁अजय	-11555
▁उपन	-11556
▁तभी	-11557
▁2008,	-11558
unction	-11559
▁କର୍ଣ୍ଣ	-11560
▁Angeles	-11561
▁Chicago	-11562
▁हरियाणा	-11563
▁attempts	-11564
ल्क	-11565
▁ଗଭ	-11566
▁भूक	-11567
cules	-11568
▁आदमी	-11569
atform	-11570
ranean	-11571
▁union	-11572
▁curren	-11573
▁useful	-11574
▁actions	-11575
▁महाद्वीप	-11576
▁organizations	-11577
tes	-11578
टिक	-11579
मी॰	-11580
ଡିଆ	-11581
୧୯୭	-11582
▁ଦୂ	-11583
बर्ग	-11584
▁लाह	-11585
▁ଅଧି	-11586
▁ବୀର	-11587
ellow	-11588
uther	-11589
▁Assy	-11590
▁Card	-11591
▁here	-11592
▁ସ୍ଥଳ	-11593
▁brand	-11594
▁ମସ୍ତି	-11595
▁ସ୍ତରରେ	-11596
▁painter	-11597
▁Hungarian	-11598
▁increasingly	-11599
िकों	-11600
ଷ୍ଟର	-11601
▁ଲାଇ	-11602
ୁଥିଲେ	-11603
▁ମାରି	-11604
▁ୟୁନି	-11605
▁୧୯୬୧	-11606
▁2012,	-11607
▁rates	-11608
▁अध्या	-11609
▁हाथों	-11610
▁ପାଳିତ	-11611
ंग्लादेश	-11612
▁connect	-11613
▁रिकॉर्ड	-11614
▁inspired	-11615
▁ପରିଚାଳନା	-11616
▁executive	-11617
▁IV	-11618
▁400	-11619
▁Net	-11620
▁क्व	-11621
pread	-11622
हाबाद	-11623
▁ଉକ୍ତ	-11624
क्षत्र	-11625
▁तिब्ब	-11626
▁देखकर	-11627
▁मानना	-11628
▁ସୁଯୋଗ	-11629
▁reduce	-11630
▁Belarus	-11631
▁ପ୍ରକଳ୍ପ	-11632
▁phenomen	-11633
▁transfer	-11634
▁something	-11635
org	-11636
ंगे	-11637
▁ଆଡ	-11638
स्टम	-11639
▁पसंद	-11640
▁ଇଣ୍ଟର	-11641
▁Before	-11642
▁प्रबंधन	-11643
▁substant	-11644
▁AP	-11645
eget	-11646
ocks	-11647
ugos	-11648
▁DNA	-11649
▁कि॰	-11650
ଲ୍ଲିକ	-11651
▁2022	-11652
▁pict	-11653
▁तुम्	-11654
▁ଗଠିତ	-11655
▁ruled	-11656
▁therm	-11657
▁रास्त	-11658
▁fields	-11659
▁context	-11660
▁covered	-11661
▁weapons	-11662
idespread	-11663
69	-11664
▁रज	-11665
omew	-11666
▁Naz	-11667
▁गुर	-11668
ragon	-11669
▁कठिन	-11670
▁ଯାଏଁ	-11671
▁oppon	-11672
▁arrest	-11673
▁geomet	-11674
▁website	-11675
▁वार्षिक	-11676
▁ପରିବାରରେ	-11677
▁Amsterdam	-11678
▁Bulgarian	-11679
▁spiritual	-11680
duc	-11681
▁Est	-11682
▁Tal	-11683
▁Foot	-11684
▁bond	-11685
▁fuel	-11686
▁Broad	-11687
▁ଟେଷ୍ଟ	-11688
▁ତାହାକୁ	-11689
▁मुख्यतः	-11690
▁Democratic	-11691
ds	-11692
ुप	-11693
▁•	-11694
cop	-11695
ସିଲ	-11696
ସ୍ମ	-11697
▁(,	-11698
▁Dr	-11699
पिता	-11700
▁Wal	-11701
▁अंज	-11702
▁wild	-11703
▁उचित	-11704
क्साइड	-11705
▁acids	-11706
▁स्थिर	-11707
▁ପାତ୍ର	-11708
▁प्रेरण	-11709
▁माइक्र	-11710
▁राजनैतिक	-11711
▁ପ୍ରତିବର୍ଷ	-11712
AF	-11713
6),	-11714
▁arc	-11715
स्थाप	-11716
▁1900	-11717
▁सौंप	-11718
▁damage	-11719
▁Project	-11720
▁vehicle	-11721
ସାଗ	-11722
େଟ୍	-11723
▁Dar	-11724
▁रोज	-11725
ोत्तर	-11726
▁Free	-11727
▁ନିୟମ	-11728
▁ପକାଇ	-11729
▁ଭାଷାର	-11730
ଯାଉଥିବା	-11731
▁Turkey	-11732
▁combat	-11733
▁Aristot	-11734
▁पत्रकार	-11735
▁opportun	-11736
▁ଚଳଚ୍ଚିତ୍ରର	-11737
तीत	-11738
ଶିତ	-11739
କ୍ରି	-11740
▁तिल	-11741
▁ଗୋଲ	-11742
▁peak	-11743
▁vess	-11744
▁Anglo	-11745
▁atmosp	-11746
▁ସଂଗ୍ରହ	-11747
▁ମହାପ୍ରଭୁ	-11748
ायन	-11749
चारी	-11750
▁भोज	-11751
▁हिल	-11752
overs	-11753
▁अहमद	-11754
▁ପୁନଃ	-11755
▁ପୁରୁ	-11756
▁बनाये	-11757
▁Aberde	-11758
▁मामलों	-11759
▁हैदराबाद	-11760
▁ବାଲେଶ୍ୱର	-11761
55	-11762
Cl	-11763
अप	-11764
ଥୀ	-11765
ରଣର	-11766
ାମୁ	-11767
agan	-11768
cycl	-11769
ାରରେ	-11770
▁pan	-11771
▁अवि	-11772
▁ଆଲୋ	-11773
ंपरिक	-11774
▁Austin	-11775
▁ବାହାରେ	-11776
▁equivalent	-11777
IV	-11778
▁Os	-11779
न्दा	-11780
▁Pen	-11781
▁नोब	-11782
▁संसा	-11783
ंत्रिक	-11784
प्रदेश	-11785
▁sales	-11786
▁व्यास	-11787
▁क्षेत्रीय	-11788
gn	-11789
▁हट	-11790
▁ଭୀ	-11791
▁Jim	-11792
▁ତଳେ	-11793
oring	-11794
▁goal	-11795
▁hero	-11796
▁शारी	-11797
▁ଅଧ୍ୟା	-11798
▁settled	-11799
▁stations	-11800
▁कंप्यूटर	-11801
ंचल	-11802
ାୟା	-11803
▁डा	-11804
atur	-11805
िज्य	-11806
▁else	-11807
▁chrom	-11808
▁नेशनल	-11809
▁सॉफ्ट	-11810
▁ସ୍ତ୍ରୀ	-11811
▁causing	-11812
▁introduction	-11813
LU	-11814
ଚେ	-11815
ଡର	-11816
▁?	-11817
େତନ	-11818
पुरा	-11819
▁ऋतु	-11820
▁bott	-11821
▁2007,	-11822
▁2020,	-11823
▁plans	-11824
▁अन्दर	-11825
▁गोपाल	-11826
▁ଅସ୍ଥି	-11827
▁अभिव्य	-11828
▁अमरीका	-11829
ographer	-11830
▁ନିଯୁକ୍ତ	-11831
▁ହୋଇଥିବାରୁ	-11832
▁controlled	-11833
▁understanding	-11834
iph	-11835
न्व	-11836
▁5,	-11837
▁ଅଗ୍	-11838
▁ଇଂଲ	-11839
ोरिया	-11840
▁ring	-11841
▁sail	-11842
▁गवर्	-11843
▁जीता	-11844
▁मारे	-11845
▁ଯିବା	-11846
▁tried	-11847
▁Philip	-11848
▁acquired	-11849
▁mathematic	-11850
▁प्रतिनिधित्व	-11851
ठे	-11852
ବୋ	-11853
▁ଈ	-11854
▁Mo	-11855
▁କନ	-11856
crib	-11857
term	-11858
ारसी	-11859
▁Buff	-11860
▁Club	-11861
▁ଟେଲି	-11862
▁armed	-11863
▁ବୁଦ୍ଧ	-11864
amental	-11865
▁output	-11866
▁मुक्ति	-11867
▁uniform	-11868
▁बांग्लादेश	-11869
rin	-11870
▁ଆଦ	-11871
▁Mot	-11872
▁Rog	-11873
▁hun	-11874
▁भरत	-11875
▁ଆହୁ	-11876
▁1963	-11877
▁Open	-11878
▁ମତରେ	-11879
▁steel	-11880
▁प्रिय	-11881
▁conscious	-11882
▁standards	-11883
▁ଆନ୍ତର୍ଜାତୀୟ	-11884
डन	-11885
ano	-11886
त्‍	-11887
ମ୍ଳ	-11888
eler	-11889
▁अलं	-11890
▁मशीन	-11891
▁सीधे	-11892
▁solid	-11893
▁views	-11894
▁मौर्य	-11895
▁आकर्षण	-11896
▁unknown	-11897
▁domestic	-11898
OL	-11899
acher	-11900
ening	-11901
ारायण	-11902
▁स्नान	-11903
▁ଟଙ୍କା	-11904
▁demand	-11905
▁orders	-11906
▁Atlanta	-11907
▁peoples	-11908
▁खूबसूरत	-11909
▁District	-11910
iterranean	-11911
▁manufactur	-11912
▁application	-11913
ଜଗ	-11914
▁ଅଭୟ	-11915
ार्थी	-11916
▁निवेश	-11917
କ୍ଷେତ୍ର	-11918
▁द्रव्य	-11919
▁Program	-11920
▁student	-11921
▁मानचित्र	-11922
▁ଦିଆଯାଇଥିଲା	-11923
▁specifically	-11924
▁गंग	-11925
▁भीम	-11926
▁मेघ	-11927
▁purs	-11928
▁पेड़	-11929
▁संगम	-11930
▁साथी	-11931
▁चाहता	-11932
▁भारती	-11933
▁ପ୍ରଣାଳୀ	-11934
▁advantage	-11935
imb	-11936
non	-11937
uty	-11938
ଜୁନ	-11939
ବିକ	-11940
▁6.	-11941
▁fr	-11942
uses	-11943
▁bip	-11944
▁pra	-11945
▁ପଶୁ	-11946
▁अमृत	-11947
▁इटली	-11948
▁ନଦୀର	-11949
▁ବଢ଼ି	-11950
arents	-11951
ellect	-11952
▁granted	-11953
▁invasion	-11954
▁दृष्टिकोण	-11955
वट	-11956
▁रचित	-11957
▁लाइन	-11958
▁କୁକୁ	-11959
▁ମଞ୍ଚ	-11960
▁sides	-11961
▁ବିଦ୍ୟା	-11962
▁सितम्बर	-11963
▁प्राथमिक	-11964
▁conducted	-11965
▁widespread	-11966
▁influential	-11967
-7	-11968
ଯାନ	-11969
wing	-11970
▁तुर	-11971
▁आपको	-11972
▁ଗଙ୍ଗ	-11973
▁ପ୍ଲା	-11974
▁रसायन	-11975
▁विजेता	-11976
▁ଉନ୍ନତି	-11977
▁background	-11978
▁components	-11979
▁पश	-11980
▁ଭର	-11981
uate	-11982
▁pet	-11983
▁bass	-11984
▁दावा	-11985
▁निगम	-11986
ections	-11987
▁पारंपरिक	-11988
▁administrative	-11989
େଜ	-11990
▁ଗୀ	-11991
▁आज़	-11992
▁पाद	-11993
▁फसल	-11994
▁ପୀଠ	-11995
ockey	-11996
▁cosm	-11997
▁oxid	-11998
▁अनुप	-11999
▁टाटा	-12000
▁ଭଦ୍ର	-12001
▁carry	-12002
▁shape	-12003
▁ନାମିତ	-12004
▁factor	-12005
▁लक्ष्मण	-12006
ographical	-12007
▁Republican	-12008
▁temperatures	-12009
iac	-12010
vis	-12011
yan	-12012
rees	-12013
ିତ୍ତ	-12014
iants	-12015
umber	-12016
▁Balk	-12017
▁उम्म	-12018
▁ହ୍ରଦ	-12019
▁negot	-12020
▁जिम्म	-12021
▁ସହଯୋଗ	-12022
ologies	-12023
▁Valley	-12024
▁गिरफ्त	-12025
▁advanced	-12026
▁संस्थापक	-12027
▁providing	-12028
▁manuscript	-12029
▁ପ୍ରାରମ୍ଭିକ	-12030
्टर	-12031
dess	-12032
ାଧିକ	-12033
▁कलक	-12034
▁लेना	-12035
ienced	-12036
ार्थना	-12037
otswana	-12038
▁कि॰मी॰	-12039
▁समृद्ध	-12040
▁village	-12041
▁आकर्षित	-12042
itionally	-12043
▁engineer	-12044
▁पर्यटकों	-12045
▁ଆକ୍ରାନ୍ତ	-12046
▁କରାଯାଇଥିବା	-12047
▁ष	-12048
▁धो	-12049
▁ଅଜ	-12050
▁ତୀ	-12051
emic	-12052
ିକ୍ସ	-12053
▁Gre	-12054
▁job	-12055
▁रावण	-12056
▁व्रत	-12057
▁Maced	-12058
▁crick	-12059
▁glass	-12060
▁ଦୃଶ୍ୟ	-12061
▁तकनीकी	-12062
▁density	-12063
▁संपूर्ण	-12064
▁संभावना	-12065
ora	-12066
ब्ल	-12067
ସନ୍ଦ	-12068
▁Sel	-12069
▁bul	-12070
chest	-12071
rayer	-12072
▁अभाव	-12073
▁यादव	-12074
▁निवासी	-12075
▁ହେବାକୁ	-12076
▁theorem	-12077
▁ଗୀତିକାର	-12078
▁Buddhist	-12079
▁relation	-12080
▁ପାଖାପାଖି	-12081
▁practices	-12082
ବିଜ	-12083
▁नज	-12084
ପଡ଼ା	-12085
୍ରାଟ	-12086
▁ଧଳା	-12087
େରାପି	-12088
▁गायक	-12089
▁ଉଚିତ	-12090
▁ମାଟି	-12091
▁2010,	-12092
▁chart	-12093
▁ଲମ୍ବା	-12094
▁Forces	-12095
▁Office	-12096
▁courts	-12097
▁visited	-12098
▁creating	-12099
▁municipal	-12100
ଏଚ	-12101
भेद	-12102
▁Cat	-12103
ading	-12104
▁enemy	-12105
ବିଜ୍ଞାନ	-12106
▁strateg	-12107
▁ଆଦିବାସୀ	-12108
▁Independ	-12109
▁Internet	-12110
▁neighbor	-12111
ाजा	-12112
rics	-12113
▁जगत	-12114
ଘାତିକ	-12115
▁1000	-12116
▁Flor	-12117
▁Inst	-12118
▁लंबे	-12119
▁प्रया	-12120
▁ଆବିଷ୍	-12121
▁reports	-12122
▁संग्राम	-12123
▁ସର୍ବୋଚ୍ଚ	-12124
▁developing	-12125
▁revolution	-12126
२०	-12127
raq	-12128
▁75	-12129
ହିନୀ	-12130
▁Lad	-12131
▁enj	-12132
▁hap	-12133
▁आवि	-12134
च्छेद	-12135
▁ସମେତ	-12136
▁alone	-12137
▁बनाकर	-12138
uration	-12139
▁छत्तीस	-12140
▁ବର୍ଷରୁ	-12141
▁Francisc	-12142
▁ଯେଉଁଠାରେ	-12143
▁अर्थशास्त्र	-12144
▁प्रतिक्रिया	-12145
ଚୁ	-12146
ପଦ	-12147
▁ଗି	-12148
ugby	-12149
unct	-12150
▁ଫ୍ର	-12151
etary	-12152
▁Hell	-12153
▁୧୯୬୭	-12154
▁Three	-12155
▁rival	-12156
▁ଶ୍ୱାସ	-12157
▁ଉଦାହରଣ	-12158
▁occasion	-12159
7),	-12160
oke	-12161
सैन	-12162
racy	-12163
▁ମୋର	-12164
▁Stat	-12165
▁खरीद	-12166
▁बाबू	-12167
▁2014,	-12168
▁2019,	-12169
▁dance	-12170
▁scene	-12171
▁दरबार	-12172
▁ପରିଷଦ	-12173
utation	-12174
▁ଅପରେଶନ	-12175
▁scholar	-12176
▁medieval	-12177
▁obtained	-12178
▁सर्वेक्षण	-12179
▁Mediterranean	-12180
झा	-12181
णे	-12182
ava	-12183
gal	-12184
neg	-12185
ଭାଇ	-12186
▁39	-12187
▁बढ	-12188
iana	-12189
वाना	-12190
ଙ୍ଗର	-12191
▁वें	-12192
▁ବଢ଼	-12193
▁ସଭାର	-12194
itness	-12195
vation	-12196
▁ନିଶ୍ଚ	-12197
osaurus	-12198
▁inhabitants	-12199
-0	-12200
FA	-12201
▁Gh	-12202
▁यो	-12203
▁आंत	-12204
▁कोय	-12205
▁ସୁବ	-12206
सायिक	-12207
▁शायद	-12208
▁shoot	-12209
▁प्रश्न	-12210
▁शारीरिक	-12211
▁communic	-12212
▁entirely	-12213
▁algorithm	-12214
▁astronaut	-12215
▁ରକ୍ତସ୍ରାବ	-12216
▁ପ୍ରଧାନମନ୍ତ୍ରୀ	-12217
▁ତଳ	-12218
▁Even	-12219
▁जनरल	-12220
▁बालक	-12221
▁chain	-12222
▁ଛାଡ଼ି	-12223
▁ରଖିବା	-12224
▁Basque	-12225
▁Philos	-12226
▁metals	-12227
▁Clinton	-12228
▁Federal	-12229
▁nations	-12230
▁depending	-12231
▁instrument	-12232
ूस	-12233
eda	-12234
▁ସଚ	-12235
▁୬୦	-12236
धीरे	-12237
▁ion	-12238
▁संह	-12239
works	-12240
କମାନେ	-12241
▁frag	-12242
stream	-12243
▁हस्ता	-12244
▁defense	-12245
▁उपयुक्त	-12246
▁existing	-12247
ାବଣ	-12248
▁(;	-12249
▁औष	-12250
▁पल	-12251
itis	-12252
▁dog	-12253
olute	-12254
▁1958	-12255
▁बारह	-12256
▁मेरी	-12257
▁କୋଟି	-12258
▁census	-12259
▁मिलाकर	-12260
▁ଅଭିନୀତ	-12261
▁Mexican	-12262
▁रिपोर्ट	-12263
▁ଯାଇଥିଲା	-12264
44	-12265
बाजी	-12266
▁170	-12267
▁कित	-12268
▁हित	-12269
rence	-12270
कृष्ट	-12271
▁calc	-12272
▁चलने	-12273
ounder	-12274
▁लगाने	-12275
▁listed	-12276
▁घटनाओं	-12277
▁ଅଧୀନରେ	-12278
▁digital	-12279
▁Assembly	-12280
▁employed	-12281
▁सर्वप्रथम	-12282
ba	-12283
mit	-12284
▁खत	-12285
▁मग	-12286
▁ଆଠ	-12287
inks	-12288
▁NASA	-12289
▁Wind	-12290
▁pure	-12291
▁minim	-12292
▁ବୃକ୍କ	-12293
▁reasons	-12294
▁Governor	-12295
▁concrete	-12296
▁operated	-12297
IT	-12298
eed	-12299
▁gr	-12300
▁ଶେ	-12301
इयों	-12302
▁aer	-12303
▁कबी	-12304
▁नयी	-12305
▁तोड़	-12306
▁वाक्य	-12307
▁ଭିତ୍ତ	-12308
▁ଇଲେକ୍ଟ	-12309
▁correct	-12310
▁quantum	-12311
▁ଅତ୍ୟନ୍ତ	-12312
▁କମ୍ପ୍ୟୁଟର	-12313
▁गर	-12314
▁phr	-12315
▁Sund	-12316
▁अब्द	-12317
▁बजाय	-12318
▁decay	-12319
▁leave	-12320
related	-12321
▁tribes	-12322
▁उपस्थिति	-12323
▁contained	-12324
88	-12325
PS	-12326
eta	-12327
ଡ୍ର	-12328
down	-12329
्यूट	-12330
▁ABC	-12331
▁Luc	-12332
▁ସମା	-12333
▁कहता	-12334
▁exped	-12335
▁जिलों	-12336
▁शिकार	-12337
▁maximum	-12338
▁officer	-12339
▁investig	-12340
▁rejected	-12341
▁electrons	-12342
▁residents	-12343
यह	-12344
▁Uk	-12345
▁ଘୋ	-12346
from	-12347
िल्प	-12348
ropri	-12349
▁Tour	-12350
▁skin	-12351
▁जमीन	-12352
▁ରତ୍ନ	-12353
▁ସୀମା	-12354
▁2016,	-12355
▁Argent	-12356
▁ଗ୍ରନ୍ଥ	-12357
▁पार्वती	-12358
▁Franklin	-12359
▁ଆମେରିକାର	-12360
वण	-12361
▁33	-12362
▁65	-12363
ques	-12364
ेडकर	-12365
▁नये	-12366
▁समी	-12367
▁1942	-12368
▁arts	-12369
▁tell	-12370
▁2018,	-12371
▁Costa	-12372
▁linear	-12373
▁agriculture	-12374
bi	-12375
vi	-12376
aka	-12377
uff	-12378
▁Mir	-12379
▁ढंग	-12380
▁पाण्ड	-12381
▁height	-12382
▁पुत्री	-12383
▁ବାନ୍ତି	-12384
▁Botswana	-12385
▁dominant	-12386
▁Brazilian	-12387
▁प्रशिक्षण	-12388
▁ପ୍ରତିଷ୍ଠିତ	-12389
ati	-12390
ymn	-12391
ल्ला	-12392
ଦେଲେ	-12393
ାଇନ୍	-12394
▁Abu	-12395
▁Bus	-12396
▁Cay	-12397
▁sun	-12398
▁चोप	-12399
▁କ୍ୟ	-12400
▁୧୮୯	-12401
▁ସମୟର	-12402
▁शत्रु	-12403
▁Committee	-12404
▁प्रार्थना	-12405
▁scientists	-12406
▁agricultural	-12407
da	-12408
III	-12409
ोटे	-12410
onom	-12411
क्षम	-12412
्यास	-12413
▁मात	-12414
▁ହାରା	-12415
▁partn	-12416
▁परिचय	-12417
▁Arthur	-12418
▁तुर्की	-12419
▁Journal	-12420
▁episode	-12421
▁portion	-12422
▁Colorado	-12423
▁ପ୍ରକ୍ରିୟା	-12424
CS	-12425
्तन	-12426
▁କୂ	-12427
▁ମୟ	-12428
▁hop	-12429
▁सती	-12430
▁felt	-12431
▁मंडल	-12432
चन्द्र	-12433
▁2015,	-12434
▁simpl	-12435
▁अनुया	-12436
▁ଶ୍ରୀଲ	-12437
▁ଶ୍ରେଣୀର	-12438
▁Microsoft	-12439
ait	-12440
▁ପଠ	-12441
ुस्त	-12442
ାଦାନ	-12443
▁san	-12444
▁କାନ	-12445
inger	-12446
ronic	-12447
▁cars	-12448
▁रखना	-12449
▁ଔଷଧର	-12450
ishops	-12451
▁राहुल	-12452
▁ପାଇବା	-12453
▁ବସନ୍ତ	-12454
▁परिवहन	-12455
"।	-12456
ibl	-12457
▁7.	-12458
जैसे	-12459
▁ନଗର	-12460
organ	-12461
ାନ୍ଧି	-12462
▁Prof	-12463
▁inhib	-12464
▁mouth	-12465
त्रियों	-12466
▁chosen	-12467
▁railway	-12468
▁politics	-12469
ङ्	-12470
ୋମ	-12471
▁मोर	-12472
poses	-12473
▁1919	-12474
▁Wars	-12475
▁इंजन	-12476
▁तरंग	-12477
▁सिटी	-12478
▁ଚିହ୍ନଟ	-12479
▁Festival	-12480
▁officers	-12481
▁expression	-12482
▁constructed	-12483
ଏମ	-12484
ोरा	-12485
ोवर	-12486
ଂସା	-12487
▁ଅହ	-12488
lers	-12489
ମ୍ବଦ	-12490
▁Sem	-12491
ancing	-12492
▁polic	-12493
▁तीसरी	-12494
▁regist	-12495
▁रास्ते	-12496
▁ପାଉଣ୍ଡ	-12497
▁college	-12498
▁emerged	-12499
▁ବାର୍ଷିକ	-12500
▁accounts	-12501
▁speakers	-12502
▁ସାହିତ୍ୟିକ	-12503
ଝି	-12504
▁ବ୍	-12505
▁नील	-12506
▁ସାବ	-12507
स्फोट	-12508
▁Gall	-12509
▁feel	-12510
▁अर्ध	-12511
▁खाने	-12512
▁ଭୂମି	-12513
ceived	-12514
ussels	-12515
▁निभाई	-12516
▁पहाड़	-12517
▁यंत्र	-12518
▁medium	-12519
▁विलियम	-12520
▁suffered	-12521
▁radiation	-12522
▁ଏଇ	-12523
ipher	-12524
rator	-12525
▁1955	-12526
▁Penn	-12527
▁दबाव	-12528
▁2021,	-12529
▁plate	-12530
▁पुरात	-12531
▁conson	-12532
▁पैमाने	-12533
-9	-12534
लब	-12535
ହେବ	-12536
▁जौ	-12537
वासी	-12538
▁ଶିଖ	-12539
ान्तर	-12540
▁1961	-12541
▁ବଜାର	-12542
▁goods	-12543
▁ପ୍ରାଣ	-12544
▁ଥିବାରୁ	-12545
▁testing	-12546
▁thousand	-12547
▁principal	-12548
▁biological	-12549
▁philosopher	-12550
▁populations	-12551
ଷେ	-12552
ture	-12553
ର୍ବଳ	-12554
▁160	-12555
▁वास	-12556
▁ଏସି	-12557
▁acts	-12558
▁walk	-12559
▁ସମୂହ	-12560
▁Babyl	-12561
▁Feder	-12562
▁drive	-12563
▁ଆଣ୍ଟି	-12564
▁ଆଧାରିତ	-12565
▁पदार्थों	-12566
▁ଭୟ	-12567
opol	-12568
class	-12569
पुत्र	-12570
▁mort	-12571
▁ऋग्व	-12572
▁लेती	-12573
ibbean	-12574
▁disput	-12575
▁इंजीनियर	-12576
ଲାଲ	-12577
रांत	-12578
लिये	-12579
▁aid	-12580
▁1944	-12581
▁Kenn	-12582
▁Orig	-12583
▁लंबी	-12584
▁हाथी	-12585
▁owned	-12586
▁बढ़ती	-12587
▁संचार	-12588
▁ନିଜକୁ	-12589
▁bridge	-12590
▁ପାର୍ଟି	-12591
▁assault	-12592
▁portray	-12593
▁वाणिज्य	-12594
▁शासनकाल	-12595
▁requires	-12596
दल	-12597
rec	-12598
चरण	-12599
ेंज	-12600
ସଫୁ	-12601
oses	-12602
ଚ୍ୟୁ	-12603
▁1952	-12604
▁Cape	-12605
▁Publ	-12606
▁परेश	-12607
ानुसार	-12608
▁going	-12609
▁stone	-12610
▁usage	-12611
▁अवशेष	-12612
inction	-12613
▁houses	-12614
▁aspects	-12615
▁Baseball	-12616
▁क्रांतिक	-12617
▁comparison	-12618
डि	-12619
ହ୍ୟ	-12620
▁Due	-12621
▁bow	-12622
▁जुड़	-12623
▁2005,	-12624
▁Fried	-12625
▁movie	-12626
▁ଆହୁରି	-12627
▁ଉପଯୋଗ	-12628
▁Native	-12629
▁ପାଟିରେ	-12630
▁मोहम्मद	-12631
▁traditions	-12632
ür	-12633
▁Rh	-12634
▁अट	-12635
▁Bav	-12636
▁रिश	-12637
▁ଅବର	-12638
point	-12639
▁बनता	-12640
▁newly	-12641
▁train	-12642
▁उत्सव	-12643
▁परिसर	-12644
▁ମୂଖ୍ୟ	-12645
▁headqu	-12646
▁स्मृति	-12647
▁ଉଚ୍ଚତା	-12648
▁Through	-12649
▁conduct	-12650
▁typical	-12651
▁literary	-12652
CC	-12653
isd	-12654
wer	-12655
ाउन	-12656
୍ଲୁ	-12657
ନ୍ଦା	-12658
▁खनि	-12659
द्वार	-12660
▁Wood	-12661
▁भट्ट	-12662
▁ଗାୟକ	-12663
▁cards	-12664
▁seems	-12665
▁बिंदु	-12666
▁physic	-12667
▁परिवर्तित	-12668
▁सॉफ्टवेयर	-12669
गीर	-12670
heim	-12671
–200	-12672
▁lat	-12673
पेक्ष	-12674
राणिक	-12675
ିକାରେ	-12676
▁Ages	-12677
▁zero	-12678
▁सप्त	-12679
▁extra	-12680
▁honor	-12681
▁route	-12682
▁voice	-12683
▁तकनीक	-12684
▁पड़ती	-12685
▁बोर्ड	-12686
issance	-12687
ropical	-12688
▁waters	-12689
▁ପ୍ରଦେଶ	-12690
▁ବିକଶିତ	-12691
▁ବିକ୍ରୟ	-12692
▁ପୂର୍ବତନ	-12693
▁finished	-12694
▁प्रक्षेप	-12695
▁concluded	-12696
iny	-12697
परी	-12698
▁एच	-12699
riot	-12700
▁ସାନ	-12701
▁खाड़ी	-12702
▁दुर्गा	-12703
▁बहादुर	-12704
▁extreme	-12705
▁genetic	-12706
▁नक्षत्र	-12707
▁platform	-12708
▁writings	-12709
63	-12710
ko	-12711
୍ପି	-12712
bell	-12713
▁cho	-12714
▁हटा	-12715
▁प्री	-12716
▁Books	-12717
▁Bruce	-12718
▁advoc	-12719
▁veget	-12720
▁ସଫଳତା	-12721
▁Bengal	-12722
▁ranked	-12723
▁सैनिकों	-12724
▁ଆସିଥିଲେ	-12725
▁Armenian	-12726
IS	-12727
जीवन	-12728
ियाई	-12729
▁175	-12730
▁अके	-12731
▁ବାଦ	-12732
stood	-12733
▁1949	-12734
▁guns	-12735
▁जांच	-12736
▁वैसे	-12737
inding	-12738
▁ratio	-12739
▁दैनिक	-12740
▁मजबूत	-12741
ophical	-12742
▁Cameroon	-12743
▁विधानसभा	-12744
▁ତତ୍କାଳୀନ	-12745
▁ହାରାହାରି	-12746
▁Constantin	-12747
▁व्यावसायिक	-12748
100	-12749
ानि	-12750
▁Bh	-12751
inth	-12752
କ୍ସି	-12753
ସାରେ	-12754
▁ଦୁଃ	-12755
▁crop	-12756
▁ଜନିତ	-12757
▁ଉତ୍ତମ	-12758
▁ନେପାଳ	-12759
▁cancer	-12760
▁ପ୍ରକୃତ	-12761
▁ଶିକ୍ଷକ	-12762
▁Belgium	-12763
▁challeng	-12764
▁occupied	-12765
▁regarding	-12766
▁sufficient	-12767
▁आध्यात्मिक	-12768
▁screenwriter	-12769
wan	-12770
दीय	-12771
बाल	-12772
ावर	-12773
ଡ଼େ	-12774
ଥିକ	-12775
eing	-12776
▁Gal	-12777
▁vast	-12778
▁आदिव	-12779
▁चलती	-12780
▁ଲୋକେ	-12781
▁users	-12782
▁yield	-12783
▁कब्जा	-12784
▁भाषाएँ	-12785
▁साक्षर	-12786
▁Similar	-12787
▁advance	-12788
▁commander	-12789
▁सम्बन्धित	-12790
ଢି	-12791
▁डर	-12792
king	-12793
ନ୍ଧି	-12794
▁इंट	-12795
▁1959	-12796
▁dang	-12797
▁flag	-12798
▁ଏକାଦ	-12799
▁fifth	-12800
▁price	-12801
▁freedom	-12802
▁विख्यात	-12803
▁ପିତାଙ୍କ	-12804
▁hardware	-12805
▁ज्यादातर	-12806
▁ପ୍ରଶିକ୍ଷ	-12807
▁Augustine	-12808
▁thousands	-12809
और	-12810
yles	-12811
▁Alb	-12812
▁वाद	-12813
▁हेम	-12814
▁Road	-12815
▁gram	-12816
▁pian	-12817
▁घिरा	-12818
▁लगती	-12819
▁bears	-12820
▁ଗଜପତି	-12821
▁ବିବାଦ	-12822
ॉय	-12823
१०	-12824
era	-12825
ura	-12826
सरे	-12827
▁Jon	-12828
▁Mov	-12829
▁डाय	-12830
▁ରବି	-12831
phone	-12832
▁arms	-12833
called	-12834
କୋତ୍ତର	-12835
▁coord	-12836
▁towns	-12837
▁ଚନ୍ଦନ	-12838
▁alumin	-12839
▁ଚତୁର୍ଥ	-12840
▁respond	-12841
▁बंदरगाह	-12842
▁ହୋଇଛନ୍ତି	-12843
43	-12844
gu	-12845
लीप	-12846
ିଆନ	-12847
▁ce	-12848
▁खी	-12849
aved	-12850
eign	-12851
vant	-12852
▁शिल	-12853
▁Cross	-12854
▁somew	-12855
▁जॉर्ज	-12856
▁ପଣ୍ଡିତ	-12857
cription	-12858
▁Alberta	-12859
▁Computer	-12860
दृ	-12861
ୟିକ	-12862
▁37	-12863
▁प्रि	-12864
▁बुला	-12865
▁ପ୍ରେସ	-12866
▁ମାଙ୍କ	-12867
▁प्रतीत	-12868
▁ବେହେରା	-12869
▁सन्दर्भ	-12870
▁frequency	-12871
▁experienced	-12872
62	-12873
300	-12874
kes	-12875
▁Od	-12876
udes	-12877
▁120	-12878
▁Bod	-12879
▁धूम	-12880
lades	-12881
▁Iraq	-12882
▁ନେବା	-12883
▁मौलिक	-12884
▁କିଶୋର	-12885
▁defend	-12886
▁rivers	-12887
▁संहिता	-12888
inations	-12889
▁ଅନୁମୋଦିତ	-12890
▁converted	-12891
▁attributed	-12892
ré	-12893
▁−	-12894
ୟୋଟ	-12895
▁ly	-12896
ंख्य	-12897
▁ड्र	-12898
▁नंद	-12899
▁ଚାଳ	-12900
▁ACLU	-12901
▁feat	-12902
▁आवास	-12903
▁डिजा	-12904
▁sympt	-12905
▁अड्डा	-12906
▁विज्ञ	-12907
▁ଇଂରେଜ	-12908
▁Daniel	-12909
▁Danish	-12910
▁attend	-12911
▁तत्वों	-12912
▁ଶାନ୍ତି	-12913
▁Russell	-12914
▁goddess	-12915
▁parents	-12916
▁Aberdeen	-12917
▁artillery	-12918
▁connection	-12919
ଏନ	-12920
ନାମ	-12921
ସାଇ	-12922
▁AN	-12923
▁तय	-12924
वानी	-12925
▁ଡିଜ	-12926
▁आयोग	-12927
▁schem	-12928
▁हुसैन	-12929
▁column	-12930
▁उपग्रह	-12931
▁संचालन	-12932
▁ଅନୁମାନ	-12933
▁ଇନ୍ଦ୍ର	-12934
▁Between	-12935
▁Stephen	-12936
▁कलकत्ता	-12937
▁पौराणिक	-12938
roduction	-12939
ଇଁ	-12940
▁du	-12941
▁ଏମ	-12942
▁मणि	-12943
▁सीट	-12944
house	-12945
▁Writ	-12946
▁पत्त	-12947
▁ଦଳରେ	-12948
▁୨୦୦୨	-12949
ାର୍ମିକ	-12950
▁चिह्न	-12951
▁taught	-12952
▁चोपड़ा	-12953
▁सिस्टम	-12954
▁ସ୍ପଷ୍ଟ	-12955
▁Special	-12956
▁fiction	-12957
▁setting	-12958
▁Football	-12959
▁organized	-12960
▁environmental	-12961
ହ୍	-12962
▁ଚୌଧ	-12963
▁rich	-12964
▁୨୦୨୨	-12965
▁Charl	-12966
▁quite	-12967
▁valid	-12968
▁ज़्या	-12969
▁वायुम	-12970
▁ଅବରୋଧ	-12971
▁ତରଙ୍ଗ	-12972
▁liquid	-12973
▁ମନୁଷ୍ୟ	-12974
▁Aristotle	-12975
▁Caribbean	-12976
▁succeeded	-12977
▁consisting	-12978
▁generation	-12979
▁concentration	-12980
61	-12981
▁BM	-12982
ovak	-12983
rons	-12984
ୀକରଣ	-12985
▁Ray	-12986
▁sup	-12987
▁दुब	-12988
▁fair	-12989
▁Hindu	-12990
▁holds	-12991
▁ବର୍ଷର	-12992
▁Territ	-12993
▁studio	-12994
▁चाहिये	-12995
▁ପୁରୁଣା	-12996
▁forward	-12997
▁ପ୍ରଚଳିତ	-12998
▁ବିଭାଗରେ	-12999
▁ଯୋଗ୍ୟତା	-13000
▁ଶ୍ରୀରାମ	-13001
▁ଇଞ୍ଜେକସନ	-13002
▁authorities	-13003
iate	-13004
स्कर	-13005
▁Gar	-13006
▁bad	-13007
▁गईं	-13008
▁बजे	-13009
▁सोन	-13010
▁ହିମ	-13011
illes	-13012
▁1946	-13013
▁क्लब	-13014
▁घंटे	-13015
▁ब्रज	-13016
▁stock	-13017
▁ଫୁସଫୁ	-13018
▁ସହରରେ	-13019
▁Little	-13020
▁throne	-13021
▁संपर्क	-13022
▁projects	-13023
▁ସମ୍ବିଧାନ	-13024
▁producing	-13025
cus	-13026
ेंड	-13027
▁Tw	-13028
▁थो	-13029
▁जैव	-13030
▁ତୁଳ	-13031
inson	-13032
▁Arts	-13033
▁sons	-13034
▁tiss	-13035
▁ବ୍ରତ	-13036
ounger	-13037
▁ମୌଳିକ	-13038
▁ଯିଏକି	-13039
ଜଗନ୍ନାଥ	-13040
▁Poland	-13041
▁Artemis	-13042
▁विस्फोट	-13043
▁statement	-13044
▁ସାମ୍ରାଜ୍ୟ	-13045
▁ବ୍ୟକ୍ତିଙ୍କ	-13046
AP	-13047
ଚକ	-13048
aly	-13049
▁आंक	-13050
▁कदम	-13051
प्रति	-13052
ମ୍ବାର	-13053
▁paid	-13054
▁सांस	-13055
ashion	-13056
▁Today	-13057
▁इंद्र	-13058
▁nearby	-13059
▁ଉପସ୍ଥା	-13060
▁protein	-13061
▁traffic	-13062
▁ମିଳିଥାଏ	-13063
▁मुसलमानों	-13064
▁ultimately	-13065
AD	-13066
पथ	-13067
ाजन	-13068
▁छि	-13069
andy	-13070
seud	-13071
स्पर	-13072
▁आयर	-13073
▁कोट	-13074
▁सोल	-13075
▁ଯୁବ	-13076
▁ସ୍ୱୟ	-13077
▁୨୦୦୩	-13078
contin	-13079
▁kings	-13080
▁स्कॉट	-13081
▁colony	-13082
▁exists	-13083
▁ପ୍ରଦର୍ଶ	-13084
▁dialects	-13085
▁छत्तीसगढ़	-13086
▁publication	-13087
42	-13088
एच	-13089
▁Fe	-13090
पादन	-13091
▁ମଡେ	-13092
୍ୟନ୍ତ	-13093
▁जल्द	-13094
▁हुये	-13095
▁ବ୍ଲକ	-13096
▁visit	-13097
▁तालाब	-13098
▁Awards	-13099
▁स्थायी	-13100
▁ରାମାୟଣ	-13101
▁parallel	-13102
▁आयुर्वेद	-13103
ेब	-13104
▁38	-13105
▁बत	-13106
▁bin	-13107
▁कैथ	-13108
▁ଚାର	-13109
▁ଧ୍ୱ	-13110
▁Educ	-13111
▁ଉପାୟ	-13112
▁revol	-13113
▁अंततः	-13114
▁ଏପ୍ରି	-13115
ପାରନ୍ତି	-13116
▁Napole	-13117
▁ପ୍ରଜାତିର	-13118
▁ସାଂଘାତିକ	-13119
▁technique	-13120
▁historians	-13121
▁composition	-13122
▁mathematical	-13123
▁ବିଶ୍ୱବିଦ୍ୟାଳୟରୁ	-13124
inf	-13125
▁:-	-13126
fare	-13127
▁Gen	-13128
▁Web	-13129
▁मंच	-13130
तियाँ	-13131
▁elim	-13132
▁इतनी	-13133
▁मानक	-13134
▁ମାସର	-13135
illing	-13136
insula	-13137
▁करेगा	-13138
▁किशोर	-13139
▁जयपुर	-13140
▁वेस्ट	-13141
▁ପସନ୍ଦ	-13142
▁extent	-13143
▁pieces	-13144
▁पुरुषों	-13145
▁संचालित	-13146
▁ପତ୍ରିକା	-13147
▁Technology	-13148
▁प्रधानमन्त्री	-13149
ीव	-13150
दों	-13151
ipel	-13152
କ୍କା	-13153
▁Ram	-13154
▁यौग	-13155
▁1954	-13156
▁Norm	-13157
▁susp	-13158
▁चार्	-13159
▁हिमा	-13160
▁angle	-13161
▁actual	-13162
▁Vietnam	-13163
▁worship	-13164
▁guitarist	-13165
आन	-13166
िथ	-13167
mod	-13168
sch	-13169
्रेड	-13170
achus	-13171
▁गद्य	-13172
▁पटेल	-13173
▁ଅନ୍ଧ	-13174
▁enjoy	-13175
▁जिनकी	-13176
▁प्रेरणा	-13177
▁नियंत्रित	-13178
▁ସମ୍ପର୍କରେ	-13179
▁Corporation	-13180
ER	-13181
रद	-13182
urt	-13183
କଳା	-13184
ଥାଇ	-13185
▁anx	-13186
▁रुक	-13187
▁room	-13188
▁zone	-13189
▁ସନ୍ଦ	-13190
▁पारित	-13191
▁लड़की	-13192
▁लिखित	-13193
theless	-13194
▁Engine	-13195
▁सांख्य	-13196
▁Philipp	-13197
▁capture	-13198
▁roughly	-13199
▁ଧାର୍ମିକ	-13200
▁external	-13201
▁traditionally	-13202
ौती	-13203
asts	-13204
izon	-13205
mond	-13206
▁कुश	-13207
▁ଦାନ	-13208
ivals	-13209
▁मुला	-13210
▁ବାଣି	-13211
▁catal	-13212
▁cycle	-13213
▁walls	-13214
▁फ्रां	-13215
▁images	-13216
▁जनजाति	-13217
▁नियमों	-13218
▁ତତ୍ତ୍ୱ	-13219
▁designs	-13220
▁modified	-13221
▁Community	-13222
▁ଆଖ	-13223
larg	-13224
▁जोर	-13225
वर्धन	-13226
▁Jeff	-13227
▁जटिल	-13228
ession	-13229
▁ମହାକାଶ	-13230
▁explain	-13231
▁maintained	-13232
opl	-13233
କୀୟ	-13234
▁मठ	-13235
देवी	-13236
▁dim	-13237
▁अंध	-13238
▁भील	-13239
▁ଆଜି	-13240
amaic	-13241
▁श्वे	-13242
ocracy	-13243
▁Alger	-13244
▁साबित	-13245
▁ଉଦ୍ଭି	-13246
▁ଦେବତା	-13247
तो	-13248
ାବଳୀ	-13249
▁राग	-13250
▁भव्य	-13251
▁୧୯୯୮	-13252
▁alleg	-13253
▁score	-13254
▁आसानी	-13255
▁ବୃକ୍ଷ	-13256
▁ସମାଲୋ	-13257
▁severe	-13258
▁sister	-13259
▁यात्री	-13260
▁ଆକର୍ଷଣ	-13261
▁ଉଦ୍ୟାନ	-13262
▁ସ୍ତନ୍ୟ	-13263
▁ହୃତ୍ପି	-13264
▁ସ୍ଥାପିତ	-13265
▁purposes	-13266
▁Banglades	-13267
▁alongside	-13268
▁officials	-13269
ଗମ	-13270
कोट	-13271
बाई	-13272
ୋଧନ	-13273
▁ଅଦ	-13274
▁कना	-13275
aming	-13276
arden	-13277
under	-13278
भाषित	-13279
କ୍ଷ୍ମ	-13280
▁Stan	-13281
▁मीना	-13282
▁सचिव	-13283
▁सुबह	-13284
▁input	-13285
▁think	-13286
▁slaves	-13287
▁କିମ୍ବଦ	-13288
▁ପାହାଡ଼	-13289
▁ରଖିଥିଲେ	-13290
▁Brussels	-13291
▁affected	-13292
उट	-13293
▁ପତି	-13294
बंधित	-13295
▁core	-13296
▁roll	-13297
▁semi	-13298
▁किरण	-13299
▁ଭଞ୍ଜ	-13300
▁2013,	-13301
▁milit	-13302
▁ବିଜୟୀ	-13303
▁Sweden	-13304
▁Aramaic	-13305
▁confirmed	-13306
▁indigenous	-13307
▁ସ୍ନାତକୋତ୍ତର	-13308
▁Constantinople	-13309
ୱେ	-13310
कथा	-13311
▁उत	-13312
grad	-13313
text	-13314
वेदन	-13315
ନ୍ସି	-13316
▁Hor	-13317
▁vel	-13318
▁ନିଉ	-13319
ध्याय	-13320
▁Phys	-13321
▁seat	-13322
▁साहि	-13323
▁ज्वाल	-13324
▁बिजली	-13325
▁रूपों	-13326
▁पार्श्व	-13327
▁extremely	-13328
▁श्रीकृष्ण	-13329
▁transition	-13330
77	-13331
:1	-13332
शे	-13333
izz	-13334
राह	-13335
सूस	-13336
▁କୈ	-13337
▁ନୋ	-13338
▁axi	-13339
▁ହନୁ	-13340
rising	-13341
▁Water	-13342
▁बनाना	-13343
▁ନାଟ୍ୟ	-13344
▁jurisd	-13345
▁preced	-13346
▁stress	-13347
▁नेटवर्	-13348
▁ବିଗ୍ରହ	-13349
▁इस्लामी	-13350
▁collabor	-13351
▁champions	-13352
sk	-13353
aux	-13354
ଷେଧ	-13355
▁ऋष	-13356
etts	-13357
▁Non	-13358
▁जंगल	-13359
▁पठार	-13360
▁କେବେ	-13361
▁ପ୍ରି	-13362
▁तुलसी	-13363
▁तृतीय	-13364
▁କ୍ରମେ	-13365
ଦେଇଥିଲେ	-13366
▁begins	-13367
▁prepar	-13368
▁तत्त्व	-13369
▁Foreign	-13370
▁chemistry	-13371
▁increases	-13372
asi	-13373
abil	-13374
वाणी	-13375
▁Bon	-13376
▁ମାଗ	-13377
▁1939	-13378
▁fear	-13379
▁flat	-13380
▁शाही	-13381
▁ଜଣାପ	-13382
▁ସକାଳ	-13383
ପ୍ରଦାୟ	-13384
▁seats	-13385
▁नोबेल	-13386
jection	-13387
▁Colomb	-13388
▁assass	-13389
▁मानसिक	-13390
▁ବିଶ୍ୱକ	-13391
▁ସ୍ମୃତି	-13392
ାମାନଙ୍କୁ	-13393
▁alleged	-13394
▁बॉलीवुड	-13395
▁Francisco	-13396
▁businessman	-13397
vin	-13398
କାନ୍ତ	-13399
କ୍ଷେପ	-13400
▁1957	-13401
▁cool	-13402
▁user	-13403
▁बहती	-13404
▁सिंग	-13405
▁ମିଳୁ	-13406
▁नाट्य	-13407
▁ଗୋପାଳ	-13408
▁ଜୀବନର	-13409
▁ऋग्वेद	-13410
▁रचनाओं	-13411
▁ଦୁର୍ବଳ	-13412
▁ମିଶ୍ରଣ	-13413
overeign	-13414
▁पुराणों	-13415
▁प्रसन्न	-13416
98	-13417
ja	-13418
ॉप	-13419
ira	-13420
low	-13421
ାଧି	-13422
▁Mes	-13423
▁voc	-13424
प्रेस	-13425
▁chap	-13426
▁रहस्य	-13427
▁coming	-13428
▁deploy	-13429
▁अनिवार	-13430
▁स्थलों	-13431
▁perhaps	-13432
▁principles	-13433
▁mathematics	-13434
tar	-13435
तया	-13436
िरण	-13437
ମଣି	-13438
▁वस	-13439
▁गेट	-13440
▁କୋଷ	-13441
avery	-13442
▁मतलब	-13443
▁abort	-13444
▁लिखने	-13445
hemical	-13446
ଯାଉଥିଲା	-13447
▁उम्मीद	-13448
▁दिखाया	-13449
▁decline	-13450
▁alphabet	-13451
▁improved	-13452
▁ବାରମ୍ବାର	-13453
As	-13454
୬୦	-13455
▁ओम	-13456
▁End	-13457
▁ran	-13458
▁ସଂପ	-13459
ଦ୍ରୋହ	-13460
▁Alab	-13461
▁Anat	-13462
▁snow	-13463
▁टेली	-13464
▁तारा	-13465
▁ମ୍ୟୁ	-13466
୍ତ୍ତିକ	-13467
western	-13468
▁हजारों	-13469
▁ଅଲିମ୍ପ	-13470
▁चिकित्स	-13471
▁exception	-13472
▁Protestant	-13473
▁classified	-13474
sal	-13475
▁aw	-13476
▁हाई	-13477
ସ୍ଥାର	-13478
▁adap	-13479
▁पांड	-13480
resents	-13481
▁Senate	-13482
▁visual	-13483
▁recording	-13484
Am	-13485
यो	-13486
ज़न	-13487
ायत	-13488
▁एव	-13489
▁Dev	-13490
▁Tro	-13491
▁map	-13492
▁ମାଳ	-13493
state	-13494
ନ୍ଧ୍ର	-13495
▁गूगल	-13496
▁सुपर	-13497
▁ଅମ୍ଳ	-13498
▁୧୯୫୭	-13499
▁गुणों	-13500
▁पाठ्य	-13501
▁master	-13502
▁dialect	-13503
▁therapy	-13504
▁teaching	-13505
▁ପ୍ରବାହିତ	-13506
ମୟ	-13507
opt	-13508
मैन	-13509
▁Att	-13510
▁मुश	-13511
ड़िया	-13512
▁(190	-13513
▁Herz	-13514
▁अम्ल	-13515
▁कप्त	-13516
▁माया	-13517
▁pilot	-13518
▁लकड़ी	-13519
▁ଦିଲ୍ଲ	-13520
▁fought	-13521
▁ସମର୍ଥନ	-13522
▁प्रतिभा	-13523
▁संपत्ति	-13524
▁Virginia	-13525
ପଟ	-13526
ାଗତ	-13527
▁वध	-13528
ायें	-13529
ाहित	-13530
ର୍ଜି	-13531
▁Ill	-13532
▁Ret	-13533
▁ago	-13534
▁ign	-13535
▁ସାପ	-13536
gment	-13537
▁लाने	-13538
▁ଗଣେଶ	-13539
▁ବହୁଳ	-13540
▁୧୯୯୧	-13541
▁ପ୍ରତୀ	-13542
▁अफ़्री	-13543
▁शिक्षण	-13544
▁शिवाजी	-13545
▁descent	-13546
▁Alexandra	-13547
▁fundamental	-13548
azz	-13549
oes	-13550
लाइ	-13551
▁64	-13552
▁ऑन	-13553
▁ଆହ	-13554
tery	-13555
्लोक	-13556
▁कोड	-13557
▁जीन	-13558
▁ତାଳ	-13559
eless	-13560
inian	-13561
▁abst	-13562
▁synd	-13563
▁दर्ज	-13564
▁श्याम	-13565
▁Flight	-13566
▁concer	-13567
▁string	-13568
▁बादशाह	-13569
▁greatly	-13570
▁ପ୍ରଦେଶର	-13571
▁Victoria	-13572
AN	-13573
ଶେଷ	-13574
▁नो	-13575
र्मन	-13576
▁ରାଇ	-13577
▁सिंच	-13578
▁ନ୍ୟୁ	-13579
▁ମିଲି	-13580
▁dates	-13581
▁स्त्र	-13582
ଗୁଡ଼ିକୁ	-13583
▁आंतरिक	-13584
▁कवियों	-13585
▁स्मारक	-13586
▁descend	-13587
▁improve	-13588
▁quarter	-13589
▁discovery	-13590
▁otherwise	-13591
▁provinces	-13592
▁reactions	-13593
▁supporting	-13594
▁व्यक्तित्व	-13595
▁Information	-13596
bes	-13597
▁6,	-13598
elve	-13599
गरीय	-13600
ଭଦ୍ର	-13601
▁दें	-13602
hetic	-13603
▁Like	-13604
▁ଜେନା	-13605
gement	-13606
▁alter	-13607
▁बेहतर	-13608
▁इंडियन	-13609
▁ଚିତ୍ରନାଟ୍ୟ	-13610
ଥକ	-13611
leep	-13612
uten	-13613
େକ୍ଟ	-13614
▁छंद	-13615
▁ମାଧ	-13616
पुराण	-13617
संख्य	-13618
▁bone	-13619
▁बहुम	-13620
▁शिखर	-13621
▁तीसरा	-13622
▁सरदार	-13623
agement	-13624
स्तिष्क	-13625
▁spring	-13626
95	-13627
सो	-13628
दीप	-13629
धीन	-13630
▁ଅଳ	-13631
▁dry	-13632
▁फिल	-13633
andom	-13634
▁corn	-13635
▁sust	-13636
▁मिनट	-13637
▁यानी	-13638
▁वारा	-13639
क्सीजन	-13640
▁Women	-13641
▁ତୀର୍ଥ	-13642
▁ସମ୍ରାଟ	-13643
▁coastal	-13644
▁ନିକଟସ୍ଥ	-13645
▁ବ୍ରହ୍ମା	-13646
▁withdraw	-13647
ser	-13648
▁IBM	-13649
▁एक्	-13650
▁रघु	-13651
ricts	-13652
ର୍ଦ୍ଦ	-13653
▁1943	-13654
▁tons	-13655
▁उपाय	-13656
▁ଏହିପରି	-13657
▁इलाहाबाद	-13658
▁continues	-13659
▁Foundation	-13660
▁गतिविधियों	-13661
▁ମହାରାଷ୍ଟ୍ର	-13662
TV	-13663
टिन	-13664
ଢ଼ୀ	-13665
कर्म	-13666
न्नई	-13667
ाराम	-13668
▁गलत	-13669
▁गोप	-13670
▁पैर	-13671
amber	-13672
keley	-13673
▁Game	-13674
▁dism	-13675
▁नायक	-13676
▁शहरी	-13677
▁सत्र	-13678
▁ମନୋନ	-13679
हिन्दी	-13680
▁Swiss	-13681
▁banks	-13682
▁begin	-13683
▁narrow	-13684
▁कम्पनी	-13685
▁डिजाइन	-13686
▁managed	-13687
▁प्रयत्न	-13688
▁represents	-13689
0)	-13690
ंडे	-13691
बान	-13692
हूर	-13693
ासत	-13694
▁PC	-13695
apse	-13696
▁Cel	-13697
▁tox	-13698
▁ताज	-13699
▁ପଡି	-13700
abeth	-13701
▁tact	-13702
▁हैरी	-13703
▁Board	-13704
▁सक्षम	-13705
atically	-13706
▁Buffalo	-13707
▁soldier	-13708
▁समुद्री	-13709
▁Ministry	-13710
▁attacked	-13711
▁normally	-13712
▁understood	-13713
▁मनोविज्ञान	-13714
▁sn	-13715
▁ପଟ	-13716
िप्त	-13717
କଙ୍କ	-13718
▁cod	-13719
धारणा	-13720
▁तथ्य	-13721
▁innov	-13722
▁दीर्घ	-13723
▁लंबाई	-13724
▁ପରିସର	-13725
निर्माण	-13726
▁Columbus	-13727
▁violence	-13728
▁considerable	-13729
36	-13730
ota	-13731
गोर	-13732
लित	-13733
▁48	-13734
▁ତୃ	-13735
▁ଧୂ	-13736
oids	-13737
osph	-13738
ତାକୁ	-13739
▁Aph	-13740
▁ଟିକ	-13741
▁ଦେଓ	-13742
▁pros	-13743
▁tank	-13744
hedral	-13745
▁Bronx	-13746
▁broke	-13747
▁जिसमे	-13748
entions	-13749
▁survey	-13750
▁महर्षि	-13751
▁ଉଦ୍ଭିଦ	-13752
▁ସ୍ନାୟୁ	-13753
▁absolute	-13754
▁पुस्तकाल	-13755
▁synthesis	-13756
▁ପ୍ରତିଯୋଗିତ	-13757
▁contributed	-13758
पट	-13759
inu	-13760
ଗ୍ନ	-13761
ମହା	-13762
adel	-13763
त्तम	-13764
▁मैथ	-13765
▁ବେଦ	-13766
▁Greg	-13767
▁park	-13768
▁अमीर	-13769
▁गौरव	-13770
▁पड़े	-13771
▁plane	-13772
▁ମଙ୍ଗଳ	-13773
▁सप्ताह	-13774
▁ପ୍ରଶାସ	-13775
▁evolved	-13776
▁repeated	-13777
▁universities	-13778
no	-13779
कत	-13780
େୟ	-13781
iat	-13782
uer	-13783
ାଇଁ	-13784
ାମି	-13785
▁Aqu	-13786
▁Dig	-13787
▁Ori	-13788
▁Top	-13789
▁nav	-13790
▁swe	-13791
▁१९०	-13792
rogen	-13793
udget	-13794
ଙ୍ଗରେ	-13795
▁Matt	-13796
▁crim	-13797
▁औरंग	-13798
▁कठोर	-13799
▁धरती	-13800
▁ପରୁଷ	-13801
▁ଅନନ୍ତ	-13802
▁ଧ୍ୟାନ	-13803
▁corpor	-13804
▁silver	-13805
▁Hungary	-13806
▁संगीतकार	-13807
▁ଯୁକ୍ତରାଜ	-13808
▁newspaper	-13809
▁technical	-13810
))	-13811
୪୦	-13812
bar	-13813
क्य	-13814
घ्र	-13815
▁34	-13816
▁ମସ	-13817
ager	-13818
्रेट	-13819
କ୍ଟର	-13820
▁Far	-13821
▁Mic	-13822
▁tom	-13823
ovina	-13824
ପ୍ରତି	-13825
▁daily	-13826
▁ଝାଡ଼ା	-13827
▁capable	-13828
▁deliver	-13829
▁ପ୍ରଭୃତି	-13830
ictionary	-13831
▁समस्याओं	-13832
▁କରାଯାଉଛି	-13833
31	-13834
୪ରେ	-13835
▁कण	-13836
▁२५	-13837
▁ଦୌ	-13838
ବ୍ୟା	-13839
▁orb	-13840
▁दाम	-13841
ସ୍ୱତୀ	-13842
▁abol	-13843
▁bran	-13844
▁मांस	-13845
▁लाया	-13846
ମାତ୍ରା	-13847
▁बनाते	-13848
▁obtain	-13849
▁कार्बन	-13850
▁पहुंचा	-13851
▁ଅଭୟାରଣ	-13852
▁Arkansas	-13853
▁involves	-13854
▁ମାଂସପେଶୀ	-13855
▁Christmas	-13856
▁successor	-13857
NP	-13858
esh	-13859
gest	-13860
୍ରମଣ	-13861
▁Ald	-13862
▁Men	-13863
▁अकाल	-13864
▁जनपद	-13865
▁निभा	-13866
▁शिशु	-13867
▁होली	-13868
▁comic	-13869
▁राजेश	-13870
▁analog	-13871
▁बनवाया	-13872
▁ବ୍ୟକ୍ତ	-13873
▁forming	-13874
▁physics	-13875
▁मुखर्जी	-13876
▁particle	-13877
▁revealed	-13878
▁ମହିଳାଙ୍କ	-13879
ifications	-13880
▁intellect	-13881
▁ପାକିସ୍ତାନ	-13882
";	-13883
कूल	-13884
साम	-13885
ौली	-13886
ତ୍ସ	-13887
ଭାଷ	-13888
▁AL	-13889
▁झु	-13890
मोहन	-13891
वरों	-13892
िवर्	-13893
ଣ୍ଠି	-13894
▁Ger	-13895
▁Berm	-13896
▁माला	-13897
cyclop	-13898
▁cinem	-13899
▁naval	-13900
▁बनाता	-13901
▁ଆୟୋଜନ	-13902
▁କରିବେ	-13903
▁Alabama	-13904
▁classes	-13905
▁progress	-13906
▁गिरफ्तार	-13907
▁ज्वालामु	-13908
▁Organization	-13909
ेत	-13910
-17	-13911
oka	-13912
ଣାର	-13913
▁३०	-13914
know	-13915
▁Fam	-13916
▁You	-13917
▁mic	-13918
▁unp	-13919
iable	-13920
▁1922	-13921
▁Coll	-13922
▁ବଞ୍ଚ	-13923
▁उपदेश	-13924
▁यमुना	-13925
▁ସଂଳାପ	-13926
▁Indust	-13927
▁Spears	-13928
▁Though	-13929
▁lowest	-13930
▁holding	-13931
▁हिस्सों	-13932
▁Einstein	-13933
▁audience	-13934
▁description	-13935
मूल	-13936
▁ପତ	-13937
ଙ୍ଗୀ	-13938
ମ୍ମଦ	-13939
▁दीप	-13940
ambig	-13941
शास्त	-13942
▁ରାଉତ	-13943
नात्मक	-13944
▁Games	-13945
▁प्रेस	-13946
▁titles	-13947
▁यूनानी	-13948
▁Studies	-13949
▁attract	-13950
▁rapidly	-13951
▁ସଂସ୍କରଣ	-13952
▁approved	-13953
▁strongly	-13954
▁involving	-13955
▁separated	-13956
▁association	-13957
्ठ	-13958
ova	-13959
कुम	-13960
୯ରେ	-13961
▁ଝୁ	-13962
harm	-13963
ବାଣୀ	-13964
▁BAS	-13965
▁रोह	-13966
inals	-13967
िकाओं	-13968
▁Abra	-13969
▁कौशल	-13970
▁डॉलर	-13971
avalry	-13972
rating	-13973
▁blues	-13974
▁drugs	-13975
▁पौधों	-13976
म्बेडकर	-13977
▁crisis	-13978
▁satisf	-13979
▁unable	-13980
▁मीडिया	-13981
▁समूहों	-13982
▁हाइड्र	-13983
▁Portugal	-13984
▁interpre	-13985
ଲକ	-13986
ika	-13987
oys	-13988
ापन	-13989
▁बम	-13990
▁ରସ	-13991
rane	-13992
େକ୍ସ	-13993
▁hus	-13994
▁कौन	-13995
▁टूट	-13996
▁हिस	-13997
▁beer	-13998
▁नवाब	-13999
▁ଅସ୍ତ	-14000
▁Amiga	-14001
▁lives	-14002
▁teach	-14003
▁format	-14004
▁happen	-14005
▁परस्पर	-14006
▁हिमाचल	-14007
▁ପରିବେଷ	-14008
▁Berkeley	-14009
▁Mountains	-14010
पो	-14011
ଚୀ	-14012
ूदी	-14013
ପୀଠ	-14014
नीति	-14015
▁Cam	-14016
▁Jan	-14017
▁कमा	-14018
▁ଖୋଲା	-14019
ସାଧାରଣ	-14020
▁exerc	-14021
▁ପହଞ୍ଚ	-14022
▁संज्ञा	-14023
▁treated	-14024
▁learning	-14025
▁selected	-14026
▁शास्त्रीय	-14027
rix	-14028
▁('	-14029
▁शौ	-14030
ତ୍ମା	-14031
ଦଣ୍ଡ	-14032
akers	-14033
▁ଟିଭି	-14034
▁ସିନ୍ଧ	-14035
▁ହାତରେ	-14036
▁accord	-14037
'.	-14038
ेस	-14039
▁Hy	-14040
▁ପଥ	-14041
भूति	-14042
▁Sec	-14043
▁Town	-14044
▁Brand	-14045
▁cryst	-14046
▁ଗୁପ୍ତ	-14047
▁ସୈନ୍ୟ	-14048
▁Golden	-14049
▁बंगाली	-14050
▁critics	-14051
▁encoura	-14052
▁focused	-14053
▁वित्तीय	-14054
▁indicate	-14055
▁policies	-14056
१५	-14057
▁Gr	-14058
▁Var	-14059
▁निच	-14060
▁पतन	-14061
▁बेहद	-14062
▁ଅନୁର	-14063
▁ସଞ୍ଚ	-14064
िश्चित	-14065
କ୍ରମିତ	-14066
▁numer	-14067
▁hockey	-14068
▁styles	-14069
tainment	-14070
▁channel	-14071
▁କରିପାରେ	-14072
▁symptoms	-14073
▁variable	-14074
jo	-14075
roc	-14076
ଡ଼ୁ	-14077
▁ଛି	-14078
phal	-14079
ज़ार	-14080
ालेख	-14081
▁(15	-14082
▁Dam	-14083
▁Burg	-14084
▁Goth	-14085
▁crown	-14086
▁imperial	-14087
▁ପଦ୍ମଶ୍ରୀ	-14088
▁व्यापारिक	-14089
▁उत्तराधिकारी	-14090
law	-14091
चिक	-14092
▁शे	-14093
ାଇଲେ	-14094
ब्लिक	-14095
▁bron	-14096
▁चावल	-14097
▁साहिब	-14098
▁ବର୍ଷା	-14099
▁ଶବ୍ଦର	-14100
▁Centre	-14101
▁affect	-14102
▁copper	-14103
▁ending	-14104
▁कारणों	-14105
▁भूमध्य	-14106
▁Wallace	-14107
▁ଘଟିଥିଲା	-14108
▁infantry	-14109
▁proteins	-14110
▁restrict	-14111
▁फलस्वरूप	-14112
▁କାର୍ତ୍ତିକ	-14113
def	-14114
ेंच	-14115
ବିଧ	-14116
vard	-14117
▁Aff	-14118
ଠାକାର	-14119
▁onto	-14120
▁sort	-14121
କ୍ଷତ୍ର	-14122
▁संवाद	-14123
▁ଉନ୍ନତ	-14124
▁ସଂଗଠନ	-14125
▁ସ୍ଥିର	-14126
▁ଚୌଧୁରୀ	-14127
▁ତାଲିକା	-14128
▁Williams	-14129
▁historic	-14130
▁determine	-14131
▁successfully	-14132
ET	-14133
ga	-14134
िटी	-14135
umes	-14136
▁चाँ	-14137
▁cuis	-14138
▁grav	-14139
▁nick	-14140
▁उपनि	-14141
▁ଗଭୀର	-14142
▁ଷ୍ଟା	-14143
▁chess	-14144
▁neuro	-14145
▁श्लोक	-14146
▁Freder	-14147
▁अनुपात	-14148
▁अनिवार्य	-14149
▁ପୂର୍ଣ୍ଣିମା	-14150
▁characteristics	-14151
१७	-14152
Ind	-14153
साई	-14154
ହୋଇ	-14155
ାଗଜ	-14156
▁ଆଜ	-14157
▁ଚୈ	-14158
▁ଚୋ	-14159
▁ବୀ	-14160
ମାରେ	-14161
▁cab	-14162
▁hal	-14163
▁चयन	-14164
▁बचा	-14165
▁ଖାନ	-14166
rehen	-14167
▁रहना	-14168
▁Jones	-14169
▁aster	-14170
▁calls	-14171
ificial	-14172
▁ସଭାପତି	-14173
▁diverse	-14174
▁जातियों	-14175
▁मंत्रालय	-14176
▁corresponding	-14177
ila	-14178
iox	-14179
ग़ल	-14180
▁झा	-14181
oque	-14182
▁CPU	-14183
▁टुक	-14184
▁ठोस	-14185
▁मनु	-14186
▁ଋଷି	-14187
venth	-14188
▁poem	-14189
▁चुने	-14190
▁मेरा	-14191
▁ବାହୁ	-14192
▁Chief	-14193
▁अवश्य	-14194
▁Cayman	-14195
▁expect	-14196
▁क्रमशः	-14197
▁प्रवाह	-14198
▁उच्चारण	-14199
▁संक्रमण	-14200
वैज्ञानिक	-14201
▁concerns	-14202
▁equation	-14203
▁festival	-14204
▁documents	-14205
वित	-14206
ଏସ୍	-14207
▁ଉଠ	-14208
▁ସଠ	-14209
ସାଗର	-14210
▁Pot	-14211
▁ଆସେ	-14212
iency	-14213
▁Anth	-14214
▁ଜାରି	-14215
▁ଇଚ୍ଛା	-14216
istical	-14217
▁Forest	-14218
▁baptism	-14219
▁ଆଣ୍ଟିବା	-14220
▁Language	-14221
▁साक्षरता	-14222
rastructure	-14223
▁effectively	-14224
rac	-14225
बेर	-14226
याल	-14227
▁रथ	-14228
vest	-14229
▁Tre	-14230
▁debt	-14231
▁महाम	-14232
▁ଲାଗେ	-14233
▁check	-14234
▁clubs	-14235
▁ୟୁରୋପ	-14236
ସ୍କୃତିକ	-14237
▁safety	-14238
▁गवर्नर	-14239
▁ଆଫ୍ରିକ	-14240
▁accompan	-14241
▁ଉଲ୍ଲେଖନୀୟ	-14242
▁institution	-14243
asy	-14244
णसी	-14245
agle	-14246
▁Bad	-14247
▁Vis	-14248
नागरी	-14249
▁Plan	-14250
▁phon	-14251
▁गिरा	-14252
▁गोरख	-14253
▁ଶାରୀ	-14254
▁2022,	-14255
▁trial	-14256
▁एकत्र	-14257
▁ପଦ୍ଧତି	-14258
▁ଭୁତାଣୁ	-14259
▁Records	-14260
▁ପ୍ରଦତ୍ତ	-14261
▁bacteria	-14262
▁राज्यपाल	-14263
▁substance	-14264
୨୫	-14265
भ्र	-14266
ତରେ	-14267
▁LM	-14268
▁ଆପ	-14269
क्कर	-14270
▁Bed	-14271
▁Hon	-14272
▁Gulf	-14273
▁stre	-14274
▁tail	-14275
▁फ़्र	-14276
▁बाँध	-14277
▁बाज़	-14278
▁रत्न	-14279
▁Samuel	-14280
▁ଏକମାତ୍ର	-14281
▁ବିଦ୍ରୋହ	-14282
▁Standard	-14283
▁component	-14284
▁gradually	-14285
▁molecules	-14286
▁movements	-14287
▁କିମ୍ବଦନ୍ତୀ	-14288
िद	-14289
▁―	-14290
▁Les	-14291
endar	-14292
riers	-14293
▁आगमन	-14294
▁କ୍ରମ	-14295
▁ଗ୍ରା	-14296
elaide	-14297
▁2001,	-14298
▁2004,	-14299
▁needs	-14300
▁इंटेल	-14301
▁मशहूर	-14302
ଯାଇଥିଲେ	-14303
▁Miller	-14304
▁export	-14305
▁surren	-14306
di	-14307
ଉନ	-14308
ରବ	-14309
har	-14310
una	-14311
ରାଲ	-14312
▁୮୦	-14313
▁Beg	-14314
ighth	-14315
raeli	-14316
▁ବିଶାଳ	-14317
▁discip	-14318
▁अन्तिम	-14319
▁ରାସ୍ତା	-14320
ructions	-14321
▁अवधारणा	-14322
ाता	-14323
▁खर	-14324
▁पथ	-14325
ruit	-14326
ules	-14327
धारी	-14328
▁Bahá	-14329
▁Eliz	-14330
▁fram	-14331
▁lies	-14332
▁उसको	-14333
▁संकट	-14334
▁संजय	-14335
▁उत्तम	-14336
▁मालिक	-14337
clusion	-14338
egovina	-14339
▁अधिकतम	-14340
▁ଏପ୍ରିଲ	-14341
▁library	-14342
achusetts	-14343
▁ଅନୁସନ୍ଧାନ	-14344
▁ରାମଚନ୍ଦ୍ର	-14345
▁ବିଶ୍ୱବିଦ୍ୟାଳୟରେ	-14346
ste	-14347
साह	-14348
ଦୀପ	-14349
wall	-14350
▁gar	-14351
enses	-14352
fully	-14353
▁1951	-14354
▁firm	-14355
▁वक्त	-14356
ନ୍ଦ୍ରା	-14357
▁deriv	-14358
▁fresh	-14359
▁twice	-14360
▁ईस्वी	-14361
▁ଗ୍ରନ୍	-14362
▁Aphrod	-14363
▁buried	-14364
▁driver	-14365
▁झारखंड	-14366
▁औपचारिक	-14367
▁ବ୍ୟାଙ୍କ	-14368
▁cultures	-14369
unications	-14370
▁ପ୍ରତିନିଧି	-14371
हाल	-14372
▁Ly	-14373
हराद	-14374
ନ୍ନା	-14375
▁Ele	-14376
▁सका	-14377
inite	-14378
osure	-14379
▁कुशल	-14380
▁चाहे	-14381
▁नारी	-14382
▁କୃଷି	-14383
▁ନେତା	-14384
प्रकाश	-14385
▁Produ	-14386
▁apart	-14387
▁multi	-14388
▁Baltic	-14389
▁murder	-14390
▁सेवाओं	-14391
▁ଭାଙ୍ଗି	-14392
ାମାନଙ୍କର	-14393
▁momentum	-14394
▁ଆଣ୍ଟିବାୟୋଟ	-14395
୮୦	-14396
agu	-14397
▁Ba	-14398
▁Es	-14399
▁ऋण	-14400
▁୩୧	-14401
long	-14402
ର୍ବା	-14403
ଲ୍ଲୀ	-14404
୍ରୋପ	-14405
▁धाम	-14406
▁मैन	-14407
▁मेले	-14408
▁सफेद	-14409
▁antip	-14410
▁bands	-14411
▁नैतिक	-14412
▁रोगों	-14413
▁इसलिये	-14414
▁निकाला	-14415
▁मुम्बई	-14416
▁ଆର୍ଥିକ	-14417
▁ସଂକ୍ରମିତ	-14418
▁personnel	-14419
▁facilities	-14420
▁incorporated	-14421
ଉଳ	-14422
sey	-14423
uet	-14424
बरा	-14425
िसी	-14426
ଫାଇ	-14427
▁आल	-14428
▁ଘୁ	-14429
iege	-14430
oric	-14431
संस्	-14432
ାଳୟର	-14433
▁(10	-14434
jamin	-14435
ोग्रा	-14436
ାବେଳେ	-14437
▁माँग	-14438
▁सोने	-14439
itting	-14440
▁Child	-14441
▁explo	-14442
▁वैष्ण	-14443
▁Palest	-14444
▁explan	-14445
▁leaves	-14446
▁Secretary	-14447
▁ସମ୍ବନ୍ଧୀୟ	-14448
▁investment	-14449
▁साहित्यकार	-14450
ଠିନ	-14451
▁भय	-14452
▁୨ୟ	-14453
cock	-14454
भूषण	-14455
सिटी	-14456
▁जवा	-14457
▁बरो	-14458
while	-14459
ाइयों	-14460
▁foss	-14461
▁असफल	-14462
▁कालि	-14463
▁ପୁଷ୍	-14464
▁aspir	-14465
▁कराने	-14466
▁दीवार	-14467
▁मक्का	-14468
▁ଅପରାଧ	-14469
aration	-14470
▁Chican	-14471
▁पराजित	-14472
▁ଗ୍ରାମର	-14473
▁formally	-14474
▁पुस्तकों	-14475
▁permanent	-14476
▁हस्ताक्षर	-14477
▁processing	-14478
▁establishment	-14479
ez	-14480
ଶ୍	-14481
ibn	-14482
ଟିଭ	-14483
▁ଗତ	-14484
▁ଛୁ	-14485
ador	-14486
ୀବ୍ର	-14487
େଶ୍ୱ	-14488
▁अधि	-14489
▁ପତନ	-14490
▁ବାଳ	-14491
▁Main	-14492
▁गुरू	-14493
▁सन्त	-14494
▁Power	-14495
▁दर्शा	-14496
▁फुटबॉल	-14497
▁fashion	-14498
▁missile	-14499
▁ହୋଇପାରି	-14500
ूक	-14501
्रय	-14502
olia	-14503
िकीय	-14504
ମ୍ବୋ	-14505
▁निश	-14506
etime	-14507
▁opin	-14508
▁ଶିରା	-14509
▁Field	-14510
▁leads	-14511
▁କ୍ଷୀର	-14512
▁consec	-14513
▁वास्तु	-14514
ti	-14515
cap	-14516
ima	-14517
्यौ	-14518
ଲିନ	-14519
ार्ट	-14520
▁Lew	-14521
▁Sym	-14522
▁ଆଡ଼	-14523
▁Work	-14524
▁cogn	-14525
▁इसको	-14526
▁ईस्ट	-14527
▁ଅଙ୍କ	-14528
▁ଜାହା	-14529
▁piece	-14530
▁debate	-14531
▁stream	-14532
▁सिन्हा	-14533
▁balance	-14534
▁Additionally	-14535
▁mathematician	-14536
ौज	-14537
बरी	-14538
ଖାନ	-14539
ସାମ	-14540
ସେଲ	-14541
▁୩୫	-14542
town	-14543
▁Cas	-14544
▁ଜାତ	-14545
▁Such	-14546
▁ଆଫ୍ର	-14547
हरादून	-14548
ଭାରତୀୟ	-14549
▁Corps	-14550
▁rugby	-14551
▁select	-14552
▁बीमारी	-14553
▁लेखकों	-14554
▁ଅନୁମତି	-14555
▁ହେଇଥାଏ	-14556
▁Belgian	-14557
▁somewhat	-14558
▁featuring	-14559
▁विचारधारा	-14560
▁Massachusetts	-14561
▁characterized	-14562
79	-14563
फ्	-14564
rep	-14565
ଏହା	-14566
▁मध	-14567
बंधन	-14568
▁Bow	-14569
▁ଡାଇ	-14570
मित्र	-14571
वाहित	-14572
शक्ति	-14573
▁करनी	-14574
▁हाउस	-14575
▁pitch	-14576
▁ईरानी	-14577
▁नौकरी	-14578
▁मध्यम	-14579
क्षिप्त	-14580
▁Johann	-14581
▁Albania	-14582
▁reading	-14583
▁ଅଧ୍ୟକ୍ଷ	-14584
▁experiments	-14585
▁ଚଳଚ୍ଚିତ୍ରଟି	-14586
hew	-14587
सूर	-14588
सेल	-14589
▁ई॰	-14590
▁बू	-14591
▁ଛେ	-14592
ader	-14593
apes	-14594
िताभ	-14595
▁Ext	-14596
▁row	-14597
▁मेड	-14598
▁ଦାଶ	-14599
antly	-14600
तायात	-14601
▁ille	-14602
▁root	-14603
▁habit	-14604
▁पढ़ाई	-14605
▁महसूस	-14606
▁acting	-14607
▁rebell	-14608
▁सृष्टि	-14609
▁समकालीन	-14610
▁ଶାରୀରିକ	-14611
▁ପ୍ରସାରିତ	-14612
▁abandoned	-14613
▁प्रतिनिधि	-14614
▁ଶାସ୍ତ୍ରୀୟ	-14615
▁ସାଂସ୍କୃତିକ	-14616
▁ଶ୍ରୀଜଗନ୍ନାଥ	-14617
▁interpretation	-14618
IP	-14619
जान	-14620
जोर	-14621
▁Sa	-14622
▁मथ	-14623
▁ଫୋ	-14624
घटना	-14625
▁खुल	-14626
ylvan	-14627
▁ISBN	-14628
▁exam	-14629
▁nort	-14630
▁कारख	-14631
omical	-14632
▁ammon	-14633
▁मारने	-14634
▁लाहौर	-14635
▁विक्ट	-14636
claimed	-14637
▁colour	-14638
▁ଆନ୍ଧ୍ର	-14639
▁ମହାଭାରତ	-14640
▁ପର୍ଯ୍ୟଟକ	-14641
uz	-14642
▁{	-14643
Man	-14644
मेल	-14645
ପୁରର	-14646
▁बेस	-14647
aints	-14648
erted	-14649
ବନ୍ଧୁ	-14650
ିବାରେ	-14651
▁wars	-14652
▁लगते	-14653
overty	-14654
ांतरित	-14655
▁arsen	-14656
राष्ट्र	-14657
▁Knight	-14658
▁ଗୋବିନ୍ଦ	-14659
▁Adelaide	-14660
▁कहानियों	-14661
▁शास्त्री	-14662
▁dominated	-14663
▁household	-14664
▁ଉଦ୍ଦେଶ୍ୟରେ	-14665
▁କରାଯାଉଥିଲା	-14666
ić	-14667
▁ॐ	-14668
eld	-14669
घात	-14670
धीश	-14671
िने	-14672
ଂଗ୍	-14673
ହିର	-14674
माला	-14675
ନାଲ୍	-14676
▁tim	-14677
▁fans	-14678
▁ଆଗରୁ	-14679
▁ବ୍ରା	-14680
स्वामी	-14681
▁Death	-14682
▁ideal	-14683
▁साधना	-14684
▁Georgia	-14685
▁Liberal	-14686
▁periods	-14687
▁ସଂରକ୍ଷଣ	-14688
▁उत्कृष्ट	-14689
▁राजकुमार	-14690
▁spacecraft	-14691
ାଧର	-14692
hist	-14693
ीराज	-14694
ମଧ୍ୟ	-14695
▁କେର	-14696
▁ରଘୁ	-14697
athan	-14698
▁Crit	-14699
▁page	-14700
▁ଅଶୋକ	-14701
▁Maria	-14702
▁tourn	-14703
▁चौहान	-14704
▁मुताब	-14705
िस्तानी	-14706
▁bottom	-14707
▁तपस्या	-14708
▁Justice	-14709
▁degrees	-14710
▁persons	-14711
▁ଉପଯୁକ୍ତ	-14712
▁वर्गीकरण	-14713
%,	-14714
obi	-14715
जित	-14716
ାସା	-14717
▁Ae	-14718
▁Ec	-14719
▁Alg	-14720
ategy	-14721
rance	-14722
ଉଥିବା	-14723
▁cook	-14724
▁vent	-14725
▁काले	-14726
▁କେଉଁ	-14727
cribed	-14728
▁1,000	-14729
▁treaty	-14730
▁समीकरण	-14731
▁symbols	-14732
▁ପ୍ରବନ୍ଧ	-14733
▁ସରସ୍ୱତୀ	-14734
▁identify	-14735
▁strategy	-14736
▁mountains	-14737
34	-14738
ଏହି	-14739
जियम	-14740
▁tru	-14741
▁unc	-14742
▁असर	-14743
▁यथा	-14744
owned	-14745
▁आजकल	-14746
▁ସଞ୍ଜ	-14747
पूर्ति	-14748
ାଇଟିସ୍	-14749
▁slave	-14750
▁काफ़ी	-14751
▁ସଂକ୍ର	-14752
ମସିହାରେ	-14753
▁Barcel	-14754
▁charged	-14755
▁ସମ୍ପାଦକ	-14756
▁इक	-14757
ପାଠୀ	-14758
▁परा	-14759
▁रखे	-14760
ोध्या	-14761
▁Ajax	-14762
▁अष्ट	-14763
▁पुणे	-14764
▁inner	-14765
▁प्रभु	-14766
▁ତୀବ୍ର	-14767
▁ମିଶାଇ	-14768
▁Amazon	-14769
▁decade	-14770
▁franch	-14771
▁पंजाबी	-14772
▁ନାଗରିକ	-14773
▁Theatre	-14774
▁origins	-14775
▁प्रोत्स	-14776
▁मुताबिक	-14777
▁ନକ୍ଷତ୍ର	-14778
abilities	-14779
▁Herzegovina	-14780
▁representation	-14781
▁अन्तर्राष्ट्रीय	-14782
ES	-14783
FC	-14784
ैम	-14785
▁ସବ	-14786
atab	-14787
igan	-14788
ପାରୁ	-14789
▁rub	-14790
▁ମନେ	-14791
▁ସୋମ	-14792
ଥେଷ୍ଟ	-14793
▁Pass	-14794
▁sole	-14795
▁୧୯୭୦	-14796
bishop	-14797
ଗୁଡ଼ିକର	-14798
▁अनुकूल	-14799
▁साक्षा	-14800
कारात्मक	-14801
▁यातायात	-14802
चु	-14803
ୟମ୍	-14804
▁mm	-14805
otes	-14806
rium	-14807
stan	-14808
देशक	-14809
▁10,	-14810
▁Hun	-14811
▁lie	-14812
power	-14813
trans	-14814
▁Adam	-14815
▁शेयर	-14816
omorph	-14817
▁पुनर्	-14818
▁होंगे	-14819
▁Luther	-14820
▁showing	-14821
▁appropri	-14822
▁sovereign	-14823
▁କେନ୍ଦ୍ରୀୟ	-14824
but	-14825
ସ୍କୁ	-14826
ୋଗ୍ୟ	-14827
▁nut	-14828
▁उपभ	-14829
▁कोर	-14830
▁शरण	-14831
ushed	-14832
▁Crow	-14833
▁mist	-14834
iotics	-14835
▁brown	-14836
▁भूकंप	-14837
▁निरंतर	-14838
▁ସହାୟତା	-14839
▁tourism	-14840
▁straight	-14841
▁designated	-14842
▁अपेक्षाकृत	-14843
कम	-14844
ଳୀର	-14845
▁7,	-14846
▁Nep	-14847
▁जाम	-14848
▁मंड	-14849
angel	-14850
▁Only	-14851
▁ଏଣ୍ଡ	-14852
ynamic	-14853
▁Aster	-14854
▁कोर्ट	-14855
▁Archae	-14856
▁detect	-14857
▁inform	-14858
▁cavalry	-14859
▁renamed	-14860
▁नेटवर्क	-14861
▁directors	-14862
▁explained	-14863
▁advertising	-14864
▁କଣ୍ଠଶିଳ୍ପୀମାନେ	-14865
asm	-14866
वत्	-14867
▁ଡୋଜ	-14868
going	-14869
निस्ट	-14870
▁ବିଧି	-14871
▁यहूदी	-14872
▁expand	-14873
▁twenty	-14874
▁उपयोगी	-14875
▁मिश्रण	-14876
▁ସ୍ତମ୍ଭ	-14877
▁Alfonso	-14878
▁Chaplin	-14879
▁nothing	-14880
▁ବାଣିଜ୍ୟ	-14881
▁measures	-14882
▁patients	-14883
▁55	-14884
शायर	-14885
सरों	-14886
ପୁରୀ	-14887
▁Aal	-14888
▁mor	-14889
▁बिक	-14890
▁ଇନ୍	-14891
▁Barn	-14892
▁पीटर	-14893
▁मिशन	-14894
▁roles	-14895
▁इंस्ट	-14896
▁दर्जा	-14897
▁Temple	-14898
▁adding	-14899
speaking	-14900
▁Cambodia	-14901
▁missions	-14902
Ab	-14903
ମ୍ର	-14904
▁Ha	-14905
▁इम	-14906
icks	-14907
▁Hay	-14908
▁sed	-14909
▁कोण	-14910
rises	-14911
ଦ୍ୱାର	-14912
▁Alan	-14913
▁ବିଭା	-14914
ribute	-14915
▁Front	-14916
▁Muham	-14917
▁कालेज	-14918
▁ଉପକରଣ	-14919
ोनेशिया	-14920
▁legend	-14921
▁रियासत	-14922
▁स्वभाव	-14923
▁କଳିଙ୍ଗ	-14924
▁ଷ୍ଟେସନ	-14925
▁वनस्पति	-14926
▁Airlines	-14927
▁measured	-14928
▁ବିକାଶଶୀଳ	-14929
▁aluminium	-14930
बन	-14931
.),	-14932
oma	-14933
▁ଗେ	-14934
र्ती	-14935
▁asc	-14936
▁boy	-14937
▁got	-14938
▁ଆୟୁ	-14939
gency	-14940
▁1941	-14941
▁ସାମଲ	-14942
▁canon	-14943
▁moral	-14944
▁tools	-14945
▁ନଥିଲା	-14946
▁ରାଜପଥ	-14947
▁ସତ୍ତ୍ୱ	-14948
▁amounts	-14949
▁husband	-14950
▁formerly	-14951
▁Classical	-14952
▁Bangladesh	-14953
▁presidential	-14954
')	-14955
▁(8	-14956
िप्प	-14957
▁rob	-14958
▁why	-14959
▁भंड	-14960
ifies	-14961
odium	-14962
ंग्ला	-14963
ଉଥିଲେ	-14964
▁Good	-14965
▁Pier	-14966
▁Song	-14967
▁anch	-14968
▁देखे	-14969
▁पाता	-14970
▁ବାଲି	-14971
inners	-14972
▁youth	-14973
▁वेदों	-14974
▁सुनील	-14975
ishment	-14976
▁tennis	-14977
▁कृष्णा	-14978
▁शृंखला	-14979
▁ନାମକରଣ	-14980
▁ମନୋନୀତ	-14981
▁ଯଥେଷ୍ଟ	-14982
▁Bernard	-14983
▁seasons	-14984
▁प्रभावी	-14985
▁prepared	-14986
▁succession	-14987
raf	-14988
run	-14989
ଟିଂ	-14990
▁AB	-14991
▁Lyn	-14992
▁शंक	-14993
▁शान	-14994
▁ମରା	-14995
▁mode	-14996
▁subt	-14997
▁राणा	-14998
▁ଏସୀୟ	-14999
▁drawn	-15000
▁pione	-15001
▁polar	-15002
▁बीमार	-15003
iblical	-15004
▁Scient	-15005
▁spaces	-15006
▁ମାତ୍ରା	-15007
▁Denmark	-15008
▁operate	-15009
▁younger	-15010
▁निर्यात	-15011
ropolitan	-15012
▁Benjamin	-15013
▁branches	-15014
▁କର୍ମଚାରୀ	-15015
▁ଲଢ଼ିଥିଲେ	-15016
▁celebrated	-15017
▁अधिकारियों	-15018
▁ଗୁରୁତ୍ୱପୂର୍ଣ୍ଣ	-15019
ଠୁ	-15020
ंकन	-15021
वेल	-15022
▁Vi	-15023
▁ई०	-15024
▁କୀ	-15025
mers	-15026
नाडु	-15027
ଲ୍ଲା	-15028
▁Amb	-15029
▁गोद	-15030
▁पहन	-15031
▁बैं	-15032
▁ଗଞ୍ଜ	-15033
▁ଧରଣର	-15034
ophers	-15035
▁Brian	-15036
▁ଶରୀରର	-15037
▁भौतिकी	-15038
▁governments	-15039
मिट	-15040
appe	-15041
come	-15042
ड्डी	-15043
साइट	-15044
ूर्ण	-15045
▁AMD	-15046
▁ज्व	-15047
▁लेन	-15048
▁शुभ	-15049
▁କୋଇ	-15050
abled	-15051
श्विक	-15052
▁Anne	-15053
▁Mach	-15054
▁इतने	-15055
▁मछली	-15056
▁Antar	-15057
▁adopt	-15058
▁शिष्य	-15059
▁ଶଙ୍କର	-15060
▁comedy	-15061
▁चेन्नई	-15062
▁ପ୍ରତୀକ	-15063
▁ଫୁସଫୁସ	-15064
▁Univers	-15065
▁conspir	-15066
▁Imperial	-15067
▁declined	-15068
▁doctrine	-15069
▁predomin	-15070
▁आविष्कार	-15071
▁परिभाषित	-15072
▁consciousness	-15073
न्ड	-15074
▁8,	-15075
▁ଅଇ	-15076
▁ରମ	-15077
▁ରହ	-15078
gian	-15079
–201	-15080
▁vac	-15081
▁डाक	-15082
atics	-15083
▁Boys	-15084
▁Marg	-15085
▁cold	-15086
▁साहब	-15087
▁କଳ୍ପ	-15088
▁ହୃଦ୍	-15089
▁label	-15090
▁जेम्स	-15091
▁वृत्त	-15092
ylvania	-15093
▁फ़रवरी	-15094
▁ସିନେମା	-15095
▁cuisine	-15096
▁argument	-15097
▁ପ୍ରେସକ୍ରି	-15098
▁classification	-15099
oa	-15100
ँव	-15101
१४	-15102
कील	-15103
्टन	-15104
ଣିତ	-15105
ାତ୍	-15106
ାମେ	-15107
elsh	-15108
rust	-15109
स्तु	-15110
दाबाद	-15111
ସ୍ଥଳୀ	-15112
▁1953	-15113
▁feed	-15114
▁ऑफिस	-15115
▁होटल	-15116
ridges	-15117
ଣ୍ଡିରା	-15118
▁Niger	-15119
▁Trade	-15120
▁अभिले	-15121
▁चेतना	-15122
▁ଖାଇବା	-15123
▁ଦେହରେ	-15124
▁dating	-15125
▁mobile	-15126
▁जापानी	-15127
▁constell	-15128
▁Historical	-15129
SR	-15130
lan	-15131
yst	-15132
पों	-15133
शिव	-15134
ाले	-15135
▁ୱା	-15136
ରାଣୀ	-15137
▁Ali	-15138
▁खोल	-15139
▁मदन	-15140
▁କୋଣ	-15141
▁ମାଈ	-15142
▁rear	-15143
▁बेटा	-15144
itudes	-15145
▁overl	-15146
▁rural	-15147
▁रुपये	-15148
▁କଣିକା	-15149
▁ସମ୍ମି	-15150
▁priest	-15151
▁एशियाई	-15152
▁forests	-15153
▁weather	-15154
▁शिलालेख	-15155
▁ବିଚାରପତି	-15156
▁organisms	-15157
▁ପାର୍ଶ୍ୱରେ	-15158
ମାନଙ୍କଦ୍ୱାରା	-15159
▁recognition	-15160
▁transferred	-15161
▁constitutional	-15162
]]	-15163
कश	-15164
abs	-15165
विधि	-15166
▁सक्	-15167
burgh	-15168
▁Line	-15169
▁Trad	-15170
▁disk	-15171
▁ऊपरी	-15172
▁खेला	-15173
▁ଖରାପ	-15174
▁vowel	-15175
▁अक्षर	-15176
▁Global	-15177
▁Sunday	-15178
▁armies	-15179
▁linked	-15180
▁vector	-15181
▁carrier	-15182
▁details	-15183
▁category	-15184
▁यूनाइटेड	-15185
▁ଶ୍ରୀକୃଷ୍ଣ	-15186
▁headquarters	-15187
8),	-15188
इया	-15189
मां	-15190
ripp	-15191
ନ୍ତା	-15192
▁Fle	-15193
▁ଖୁବ	-15194
▁ଦୀପ	-15195
▁ପରମ	-15196
▁ମେଟ	-15197
ourse	-15198
निक्स	-15199
▁Rica	-15200
▁किशन	-15201
▁जानी	-15202
▁2002,	-15203
▁जवाहर	-15204
▁ବିଜ୍ଞ	-15205
▁Rights	-15206
▁assemb	-15207
▁titled	-15208
▁slavery	-15209
▁कोशिकाओं	-15210
▁ଅର୍ଥନୀତି	-15211
▁Elizabeth	-15212
gr	-15213
िड	-15214
नायक	-15215
▁Der	-15216
▁कही	-15217
▁जनक	-15218
▁happ	-15219
▁swim	-15220
▁गाने	-15221
▁गौतम	-15222
▁ଏୟାର	-15223
▁Colon	-15224
▁agent	-15225
▁कपड़े	-15226
▁किसान	-15227
▁पृथ्व	-15228
▁ସଂଯୋଗ	-15229
English	-15230
▁bronze	-15231
▁minist	-15232
▁sacrif	-15233
▁नदियाँ	-15234
▁विरासत	-15235
▁dropped	-15236
▁candidate	-15237
▁electronic	-15238
▁destruction	-15239
oen	-15240
unc	-15241
स्र	-15242
▁Jr	-15243
▁ଲୀ	-15244
lets	-15245
ुत्व	-15246
କାରେ	-15247
ବେଦନ	-15248
▁unf	-15249
▁नीत	-15250
icide	-15251
▁soil	-15252
▁त्यो	-15253
▁भूषण	-15254
▁ଉଦ୍ଧ	-15255
wright	-15256
େଶ୍ୱରୀ	-15257
▁bases	-15258
▁बढ़ने	-15259
▁स्तंभ	-15260
▁prohib	-15261
▁୨୦୧୩ରେ	-15262
▁anxiety	-15263
▁प्रोटीन	-15264
▁वाराणसी	-15265
▁Muhammad	-15266
▁articles	-15267
▁diseases	-15268
▁Testament	-15269
▁inflation	-15270
गुण	-15271
▁ଅର	-15272
enge	-15273
कारा	-15274
ନଙ୍କ	-15275
▁(2)	-15276
▁165	-15277
▁mil	-15278
▁ଆଲବ	-15279
▁ପାଲ	-15280
▁clin	-15281
▁ଛାଡି	-15282
▁ବାହା	-15283
▁୧୯୯୭	-15284
▁Third	-15285
▁Palace	-15286
▁इन्हीं	-15287
▁ଦେବୀଙ୍କ	-15288
▁ରାଜ୍ୟରେ	-15289
▁assembly	-15290
▁देहरादून	-15291
▁Education	-15292
▁electrical	-15293
▁ମୁଖ୍ୟମନ୍ତ୍ରୀ	-15294
▁ଯୁକ୍ତରାଜ୍ୟରେ	-15295
IN	-15296
।)	-15297
१२	-15298
600	-15299
iop	-15300
यें	-15301
हाई	-15302
୍ୟର	-15303
▁टन	-15304
राती	-15305
सवीं	-15306
▁().	-15307
▁182	-15308
▁Yan	-15309
▁Batt	-15310
▁sulf	-15311
▁Bened	-15312
▁Peace	-15313
▁merch	-15314
▁करियर	-15315
▁ଧର୍ମର	-15316
certain	-15317
▁intern	-15318
▁समानता	-15319
▁त्योहार	-15320
▁Napoleon	-15321
▁opposite	-15322
▁Hollywood	-15323
▁Transport	-15324
▁intelligence	-15325
gom	-15326
▁8.	-15327
emen	-15328
iful	-15329
म्बी	-15330
▁मगर	-15331
asure	-15332
ocity	-15333
ନୈତିକ	-15334
ିନିୟମ	-15335
▁drop	-15336
▁gods	-15337
▁sell	-15338
▁परिप	-15339
ampion	-15340
▁decor	-15341
▁ocean	-15342
▁solar	-15343
▁जन्मे	-15344
▁କାବ୍ୟ	-15345
▁ପରିମାଣର	-15346
▁controll	-15347
▁ପର୍ଯ୍ୟଟନ	-15348
▁districts	-15349
▁ସିଦ୍ଧାନ୍ତ	-15350
ambiguation	-15351
▁transportation	-15352
विल	-15353
ୀତି	-15354
▁44	-15355
▁Ky	-15356
▁Son	-15357
▁दशा	-15358
avian	-15359
त्स्य	-15360
ଣ୍ଡାର	-15361
▁hall	-15362
▁thir	-15363
▁जोशी	-15364
▁Brune	-15365
▁acknow	-15366
▁refuge	-15367
▁bishops	-15368
▁Albanian	-15369
▁reduction	-15370
▁पुस्तकालय	-15371
▁expedition	-15372
irl	-15373
oic	-15374
ंदे	-15375
ଲିଆ	-15376
gers	-15377
फेसर	-15378
ତ୍ରୀ	-15379
▁Hot	-15380
▁आंध	-15381
▁केश	-15382
▁ଗଲେ	-15383
vious	-15384
▁Fame	-15385
▁Hind	-15386
▁Home	-15387
▁drum	-15388
▁ख्या	-15389
▁टीका	-15390
▁ବାବୁ	-15391
▁ମୁସଲ	-15392
▁ହାତୀ	-15393
wealth	-15394
▁antim	-15395
▁कनाडा	-15396
▁ସମିତି	-15397
enhagen	-15398
▁recept	-15399
▁viewed	-15400
▁वस्तुत	-15401
▁Bermuda	-15402
▁Command	-15403
▁Florida	-15404
▁massive	-15405
▁ପ୍ରକୃତି	-15406
▁incident	-15407
▁produces	-15408
▁ମନ୍ଦିରକୁ	-15409
▁ସଂଗ୍ରାମୀ	-15410
▁protected	-15411
▁surviving	-15412
▁ହୃତ୍ପିଣ୍ଡ	-15413
5),	-15414
don	-15415
ଥିତ	-15416
ରେଇ	-15417
ୋଟା	-15418
anas	-15419
icas	-15420
umen	-15421
द्दी	-15422
▁(1)	-15423
▁सुझ	-15424
ବିଶେଷ	-15425
▁୧୯୫୦	-15426
▁जानते	-15427
▁ध्वनि	-15428
▁ବସବାସ	-15429
▁नेताओं	-15430
▁markets	-15431
▁ସତ୍ତ୍ୱେ	-15432
▁conquest	-15433
▁historically	-15434
89	-15435
ग्ध	-15436
୧୯୬	-15437
orus	-15438
ର୍ପଣ	-15439
▁ଜେଲ	-15440
▁ବରଣ	-15441
▁ସଂଯ	-15442
▁1937	-15443
▁soul	-15444
▁खड़ी	-15445
▁Roger	-15446
▁ruler	-15447
▁vocal	-15448
▁त्वचा	-15449
▁Newton	-15450
▁budget	-15451
▁hosted	-15452
▁ଅର୍ଜୁନ	-15453
▁ଆରୋଗ୍ୟ	-15454
▁୨୦୧୪ରେ	-15455
▁प्रतिरोध	-15456
▁understand	-15457
sm	-15458
cers	-15459
जहाँ	-15460
▁250	-15461
align	-15462
▁(194	-15463
▁imag	-15464
▁नर्म	-15465
▁सेवन	-15466
▁୧୯୫୨	-15467
▁Pruss	-15468
▁throw	-15469
▁श्रेय	-15470
▁appeal	-15471
▁କମିଯାଏ	-15472
▁ପକ୍ଷରୁ	-15473
▁acceler	-15474
▁adapted	-15475
▁serving	-15476
▁उपनिवेश	-15477
▁constitu	-15478
▁reaching	-15479
▁locations	-15480
▁practical	-15481
▁ପ୍ରତିଯୋଗିତା	-15482
zym	-15483
ृंग	-15484
्मा	-15485
▁एफ	-15486
न्तर	-15487
ुकला	-15488
ून्य	-15489
ଜ୍ଞା	-15490
▁ଡାକ	-15491
ithms	-15492
दर्शी	-15493
▁Caes	-15494
▁Shar	-15495
▁एकता	-15496
▁नजदी	-15497
▁हमले	-15498
▁ଗ୍ରହ	-15499
ୋଗ୍ରାମ	-15500
▁Brook	-15501
▁displ	-15502
▁बताते	-15503
▁बोलने	-15504
▁ବାଦ୍ୟ	-15505
develop	-15506
▁Schwar	-15507
▁retain	-15508
▁डॉक्टर	-15509
▁न्यूजी	-15510
▁କହନ୍ତି	-15511
▁ହୋଇଗଲା	-15512
operation	-15513
▁invented	-15514
▁ସ୍ଥାପତ୍ୟ	-15515
▁algebraic	-15516
▁preferred	-15517
▁universal	-15518
72	-15519
୭୦	-15520
ंकी	-15521
▁Li	-15522
auer	-15523
ाजपा	-15524
▁Det	-15525
▁कां	-15526
▁शैल	-15527
▁ଟେକ	-15528
after	-15529
▁Slav	-15530
▁mand	-15531
▁खाना	-15532
▁गोली	-15533
▁मधुब	-15534
▁chair	-15535
▁codes	-15536
▁सालों	-15537
▁स्ट्र	-15538
▁editor	-15539
▁रचनाएँ	-15540
▁सिंचाई	-15541
▁ରହନ୍ତି	-15542
▁accused	-15543
▁अक्षांश	-15544
▁reducing	-15545
▁ବ୍ୟକ୍ତିଗତ	-15546
▁astronauts	-15547
▁ज्वालामुखी	-15548
Bl	-15549
ikh	-15550
୍ରତ	-15551
▁२४	-15552
न्धी	-15553
्यूर	-15554
▁rit	-15555
▁काग	-15556
ପୋର୍ଟ	-15557
▁tren	-15558
▁गरीब	-15559
▁ଚମ୍ପ	-15560
rehens	-15561
▁2000,	-15562
▁stret	-15563
▁गार्ड	-15564
▁କୁକୁର	-15565
▁ଚାମ୍ପ	-15566
▁custom	-15567
▁Abraham	-15568
▁attended	-15569
▁explicit	-15570
▁Championship	-15571
Th	-15572
ुग	-15573
die	-15574
ୋନା	-15575
▁ଏଚ	-15576
▁ଶୃ	-15577
▁181	-15578
▁अद्	-15579
▁भूल	-15580
▁ମେଡ	-15581
agues	-15582
isers	-15583
▁syll	-15584
▁wing	-15585
▁उपास	-15586
ellite	-15587
▁Never	-15588
▁Short	-15589
▁roots	-15590
▁विहार	-15591
▁सम्भव	-15592
iveness	-15593
रेन्द्र	-15594
▁births	-15595
▁बढ़ाने	-15596
▁ଯାଇଥାଏ	-15597
▁अयोध्या	-15598
▁ଅଣ୍ଡିରା	-15599
▁ପରିବେଷଣ	-15600
▁ପ୍ରକାଶନ	-15601
▁ଲକ୍ଷ୍ମଣ	-15602
▁Administ	-15603
▁ହୋଇଥାନ୍ତି	-15604
▁प्रतिष्ठित	-15605
▁representing	-15606
?"	-15607
-20	-15608
ल्य	-15609
aver	-15610
riff	-15611
लपुर	-15612
ଡ଼ରେ	-15613
ଖ୍ୟାତ	-15614
▁खनिज	-15615
▁जुड़ी	-15616
▁नामों	-15617
issions	-15618
▁ଆଲର୍ଜି	-15619
▁କଲିକତା	-15620
▁achieve	-15621
▁proceed	-15622
▁ଦିଅନ୍ତି	-15623
▁Carolina	-15624
▁criticism	-15625
disambiguation	-15626
SI	-15627
ोनी	-15628
▁Lu	-15629
▁उभ	-15630
ଢ଼େଇ	-15631
ବିଜଦ	-15632
ମିତି	-15633
▁nom	-15634
▁बोस	-15635
▁ଆନି	-15636
itled	-15637
ମିତ୍ତ	-15638
icular	-15639
ଭ୍ୟନ୍ତ	-15640
▁items	-15641
▁चित्त	-15642
▁रुद्र	-15643
▁रोकने	-15644
▁शीघ्र	-15645
▁ଇସ୍ରା	-15646
▁agents	-15647
▁अमरीकी	-15648
▁existed	-15649
▁वैश्विक	-15650
▁Aphrodite	-15651
▁राजनीतिज्ञ	-15652
▁consumption	-15653
▁manufacturing	-15654
ns	-15655
bus	-15656
esc	-15657
osh	-15658
zep	-15659
आती	-15660
विड	-15661
साइ	-15662
ଭୂତ	-15663
▁सश	-15664
pass	-15665
roup	-15666
शाही	-15667
्यूब	-15668
▁Adv	-15669
▁Sax	-15670
▁die	-15671
▁मल्	-15672
▁ବିଲ	-15673
chang	-15674
ଷ୍ଠାନ	-15675
▁fled	-15676
▁अज्ञ	-15677
▁उज्ज	-15678
▁दोनो	-15679
▁पारि	-15680
▁Penns	-15681
▁entry	-15682
▁proof	-15683
▁घनत्व	-15684
▁संदेश	-15685
▁Athena	-15686
▁routes	-15687
▁strict	-15688
▁नाटकों	-15689
▁ଉତ୍ତରା	-15690
▁assumed	-15691
▁denomin	-15692
▁assigned	-15693
imensional	-15694
▁consisted	-15695
▁ତାପମାତ୍ରା	-15696
बिल	-15697
▁ST	-15698
ପୁରା	-15699
ଶାଳୀ	-15700
▁mir	-15701
▁सीख	-15702
▁ମୋଗ	-15703
ailed	-15704
फोर्ड	-15705
ेदारी	-15706
୍ୟୁନି	-15707
▁Ainu	-15708
▁theme	-15709
▁क्रोध	-15710
▁बताता	-15711
▁ଜେନେଟ	-15712
▁ପିତାମ	-15713
▁Ashoka	-15714
▁Warhol	-15715
▁बिहारी	-15716
▁founder	-15717
itzerland	-15718
▁Encyclop	-15719
▁मस्तिष्क	-15720
▁Convention	-15721
▁atmosphere	-15722
▁विक्टोरिया	-15723
▁conventional	-15724
92	-15725
sky	-15726
पार	-15727
ତାପ	-15728
▁od	-15729
▁झू	-15730
ାତିକ	-15731
▁fil	-15732
▁इंच	-15733
▁चैन	-15734
▁दरव	-15735
▁दाय	-15736
ateur	-15737
▁cann	-15738
enness	-15739
ालियों	-15740
▁2003,	-15741
▁About	-15742
▁Guard	-15743
▁ପରିଚୟ	-15744
▁ବର୍ଷରେ	-15745
▁ସାମନ୍ତ	-15746
▁angular	-15747
▁visible	-15748
▁अधिवर्ष	-15749
▁compound	-15750
▁credited	-15751
▁founding	-15752
▁प्रोफेसर	-15753
▁musicians	-15754
▁selection	-15755
▁एक्सप्रेस	-15756
लेट	-15757
ରଣା	-15758
▁9,	-15759
xual	-15760
▁1932	-15761
▁Brig	-15762
▁conj	-15763
▁task	-15764
▁इण्ड	-15765
▁इलाज	-15766
▁देखी	-15767
▁पड़ी	-15768
▁ୟୁରୋ	-15769
▁draft	-15770
▁encod	-15771
▁moder	-15772
▁इलाके	-15773
▁ତଥାପି	-15774
ulating	-15775
▁street	-15776
▁ମହାଦେବ	-15777
▁Muslims	-15778
▁Profess	-15779
▁organic	-15780
▁shortly	-15781
▁निर्वाचन	-15782
▁ତ୍ରିପାଠୀ	-15783
▁कम्प्यूटर	-15784
▁infrastructure	-15785
Ph	-15786
aga	-15787
ବରେ	-15788
▁आह	-15789
न्दन	-15790
शासन	-15791
ଙ୍ଗ୍	-15792
▁600	-15793
▁Mid	-15794
▁pig	-15795
▁ପେଶ	-15796
scale	-15797
▁buzz	-15798
▁inse	-15799
▁stim	-15800
▁छत्र	-15801
▁यानि	-15802
▁ଗ୍ୟା	-15803
▁ଶୁଣି	-15804
alysis	-15805
▁shall	-15806
▁ग्रीक	-15807
▁बदलाव	-15808
▁समझने	-15809
archers	-15810
▁copies	-15811
▁rarely	-15812
▁श्रीमती	-15813
▁depicted	-15814
▁promoted	-15815
▁वास्तुकला	-15816
▁କାର୍ଯ୍ୟକ୍ଷମ	-15817
ଟିଆ	-15818
▁नॉ	-15819
▁यथ	-15820
aman	-15821
foot	-15822
type	-15823
वारी	-15824
्रेस	-15825
ଗୁରୁ	-15826
▁Let	-15827
▁enh	-15828
▁एकल	-15829
▁गिल	-15830
▁सिं	-15831
▁हिट	-15832
▁हेन	-15833
ेडियम	-15834
▁1929	-15835
▁eyes	-15836
▁pref	-15837
▁करवा	-15838
▁कर्त	-15839
▁सारा	-15840
▁୧୯୯୬	-15841
▁roads	-15842
▁signs	-15843
▁ग्वाल	-15844
▁ଦରକାର	-15845
▁ସଂକଳନ	-15846
▁Walter	-15847
▁संसदीय	-15848
▁Indones	-15849
▁horizon	-15850
▁ପଞ୍ଜାବୀ	-15851
▁ପରୀକ୍ଷଣ	-15852
▁देवनागरी	-15853
▁इतिहासकार	-15854
▁अभिव्यक्ति	-15855
अल	-15856
​​	-15857
▁୤	-15858
ोटी	-15859
ମୃତ	-15860
ଖାନା	-15861
▁गेह	-15862
▁गों	-15863
▁तार	-15864
▁मगध	-15865
▁यान	-15866
▁ଜମା	-15867
▁ରାଓ	-15868
▁୧୮୮	-15869
icism	-15870
▁Audi	-15871
▁plot	-15872
▁trav	-15873
▁unus	-15874
▁वन्य	-15875
▁compl	-15876
vements	-15877
▁escape	-15878
▁बढ़ावा	-15879
▁ପ୍ରାୟତଃ	-15880
▁survived	-15881
▁conversion	-15882
▁percentage	-15883
नन	-15884
▁ତମ	-15885
▁बेच	-15886
adian	-15887
gence	-15888
▁edge	-15889
▁memb	-15890
▁अदाल	-15891
▁उद्य	-15892
▁error	-15893
▁राजीव	-15894
▁ଆସିବା	-15895
ossible	-15896
▁manner	-15897
▁संशोधन	-15898
▁ସ୍ଥିତି	-15899
▁Germans	-15900
▁printed	-15901
▁ज़्यादा	-15902
▁Augustus	-15903
▁machines	-15904
▁अधिकारों	-15905
▁ବର୍ଣ୍ଣିତ	-15906
▁ବିଦ୍ୟୁତ୍	-15907
▁paintings	-15908
▁राजेन्द्र	-15909
hu	-15910
ହାନ	-15911
▁व्	-15912
agre	-15913
rage	-15914
rary	-15915
सिंग	-15916
▁747	-15917
▁ଗାଇ	-15918
▁ରୋକ	-15919
raine	-15920
ବିଷ୍ୟ	-15921
gomery	-15922
icians	-15923
कुमारी	-15924
▁Theod	-15925
▁renew	-15926
▁इमारत	-15927
▁सुभाष	-15928
▁ଦୃଷ୍ଟ	-15929
ruption	-15930
ugoslav	-15931
वादियों	-15932
▁phrase	-15933
▁varies	-15934
▁किंगडम	-15935
▁चित्रण	-15936
▁Baptist	-15937
▁neither	-15938
▁छात्रों	-15939
▁जालस्थल	-15940
▁ନିଯୁକ୍ତି	-15941
▁solutions	-15942
▁hypothesis	-15943
▁researchers	-15944
्‍व	-15945
▁EU	-15946
द्धा	-15947
▁Ell	-15948
▁aqu	-15949
ଲେଷ୍ଟ	-15950
▁benz	-15951
▁आपके	-15952
▁ସୁନା	-15953
ସ୍ପର୍ଶ	-15954
▁flood	-15955
▁horse	-15956
▁दस्ता	-15957
▁विनोद	-15958
▁କିପରି	-15959
कर्ताओं	-15960
▁bright	-15961
▁prefer	-15962
▁कुमारी	-15963
▁engines	-15964
▁महाकाव्य	-15965
▁सामान्यतः	-15966
▁originated	-15967
rig	-15968
ାମର	-15969
▁Fa	-15970
illy	-15971
ଭାବେ	-15972
▁Mas	-15973
▁Moh	-15974
▁NFL	-15975
▁पर्	-15976
▁ହୋଲ	-15977
emale	-15978
▁1917	-15979
▁1918	-15980
▁Kent	-15981
▁Leon	-15982
▁Mand	-15983
▁Once	-15984
▁उद्ध	-15985
▁୧୯୬୦	-15986
▁Welsh	-15987
▁समन्व	-15988
▁ଜାତିର	-15989
▁Korean	-15990
▁ମଲ୍ଲିକ	-15991
▁partner	-15992
▁ଏଥିପାଇଁ	-15993
▁hospital	-15994
▁पहाड़ियों	-15995
▁ଏହାଦ୍ୱାରା	-15996
▁Copenhagen	-15997
DA	-15998
५०	-15999
ावन	-16000
ଗୋଳ	-16001
गूगल	-16002
ार्ज	-16003
▁tal	-16004
▁बुर	-16005
angle	-16006
ନଥିଲେ	-16007
▁1931	-16008
▁doll	-16009
▁noun	-16010
▁pick	-16011
▁ଅସ୍ପ	-16012
▁ପଦବୀ	-16013
aneous	-16014
▁doing	-16015
▁Unlike	-16016
▁racing	-16017
▁पुस्तकें	-16018
▁विद्यमान	-16019
▁encounter	-16020
▁accompanied	-16021
▁Commonwealth	-16022
▁परिस्थितियों	-16023
▁फे	-16024
▁kil	-16025
▁नुक	-16026
▁संभ	-16027
▁ଅଫି	-16028
ଡ଼ାରେ	-16029
▁emot	-16030
▁बदले	-16031
▁ପରିବ	-16032
▁crime	-16033
▁tests	-16034
▁मजदूर	-16035
▁ନିରାପ	-16036
▁partly	-16037
▁serves	-16038
▁Security	-16039
▁currency	-16040
▁reputation	-16041
▁Switzerland	-16042
▁Pennsylvania	-16043
ୀରା	-16044
▁Iv	-16045
▁Na	-16046
▁Ot	-16047
▁चट	-16048
▁शह	-16049
hyth	-16050
ाइनल	-16051
▁coe	-16052
▁ଆନୁ	-16053
▁ଗିର	-16054
pping	-16055
▁1936	-16056
▁अद्व	-16057
▁अम्ब	-16058
▁खींच	-16059
▁जावा	-16060
▁निरा	-16061
▁पारी	-16062
▁ରାଧା	-16063
▁ଶିଳା	-16064
▁Crown	-16065
▁किस्म	-16066
▁ଅଗ୍ନି	-16067
▁ସହାୟକ	-16068
▁Bridge	-16069
▁parent	-16070
▁victim	-16071
▁कानपुर	-16072
▁ବିଭାଗର	-16073
▁ପାର୍ବତୀ	-16074
▁ବିରୋଧରେ	-16075
▁Official	-16076
▁ପ୍ରତିନିଧ	-16077
▁divisions	-16078
▁संक्षिप्त	-16079
▁foundation	-16080
▁କାର୍ଯ୍ୟକାରୀ	-16081
मीन	-16082
षेक	-16083
ଆସୁ	-16084
Euro	-16085
ण्डा	-16086
वाही	-16087
ଞ୍ଚଳ	-16088
▁Die	-16089
▁Dur	-16090
▁Hop	-16091
▁fly	-16092
▁बुध	-16093
▁२००१	-16094
▁ପାଟି	-16095
▁Beach	-16096
iations	-16097
▁losing	-16098
▁आदिवासी	-16099
▁ରାଜାଙ୍କ	-16100
▁फ़िल्में	-16101
▁committed	-16102
▁Federation	-16103
"|	-16104
ML	-16105
कै	-16106
୭୫	-16107
’,	-16108
▁୯୦	-16109
▁11,	-16110
▁Max	-16111
▁कस्	-16112
▁बसे	-16113
▁मेर	-16114
onomy	-16115
▁उदार	-16116
रात्रि	-16117
▁spons	-16118
▁धारणा	-16119
▁मेहरा	-16120
▁स्टार	-16121
ାଗୁଡ଼ିକ	-16122
▁Wilson	-16123
▁colors	-16124
▁variant	-16125
▁Sciences	-16126
▁supposed	-16127
▁सिद्धांतों	-16128
▁substantial	-16129
)-	-16130
76	-16131
ée	-16132
राइ	-16133
▁[[	-16134
idal	-16135
ॉर्क	-16136
्रमा	-16137
▁मेह	-16138
ersey	-16139
▁Mult	-16140
▁घायल	-16141
[...]
