<pad>	0
<unk>	0
<bos>	0
<eos>	0
<sep>	0
▁ସ	-0
ାର	-1
▁ପ	-2
୍ର	-3
▁କ	-4
▁ବ	-5
ରେ	-6
▁।	-7
▁ମ	-8
୍ୟ	-9
୍ତ	-10
▁ଏ	-11
ଥି	-12
▁ଅ	-13
ଙ୍	-14
ାନ	-15
ର୍	-16
ରି	-17
▁ନ	-18
▁ହ	-19
ଙ୍କ	-20
ବା	-21
▁ଦ	-22
ଥିଲ	-23
ିକ	-24
ିତ	-25
▁ର	-26
▁ପ୍ର	-27
▁ଜ	-28
ନ୍	-29
ାଇ	-30
▁ଭ	-31
▁ଓ	-32
▁ଆ	-33
ହି	-34
▁ତ	-35
▁କରି	-36
▁ଗ	-37
ାରେ	-38
ଥିଲେ	-39
▁ବି	-40
ହା	-41
ନ୍ତ	-42
ମ୍	-43
▁ଯ	-44
୍ୱ	-45
୍ଟ	-46
▁ସେ	-47
▁ଶ	-48
କୁ	-49
ଡ଼	-50
ରା	-51
ରୁ	-52
▁୧	-53
ାମ	-54
▁ନି	-55
ସି	-56
▁ଉ	-57
▁ଚ	-58
▁(	-59
ତି	-60
ଣ୍	-61
▁ଲ	-62
୍ଷ	-63
ଥା	-64
ୋଇ	-65
ସ୍	-66
ାବ	-67
▁ହୋଇ	-68
ନା	-69
ଟି	-70
ମାନ	-71
▁ଏକ	-72
ନ୍ଦ	-73
▁ଏହି	-74
▁୨	-75
୍ୟା	-76
ଥିଲା	-77
▁ଅନ	-78
ାଙ୍କ	-79
▁ଦେ	-80
ାତ	-81
୍ଚ	-82
ିନ	-83
ିଆ	-84
ଛି	-85
ଧ୍ୟ	-86
ୋଗ	-87
▁ବା	-88
କ୍ଷ	-89
▁ଏବ	-90
ଷ୍ଟ	-91
ଣ୍ଡ	-92
ୀୟ	-93
▁ଏବଂ	-94
▁ହେ	-95
▁୧୯	-96
ହାର	-97
ଙ୍ଗ	-98
▁କରିଥିଲେ	-99
ଲେ	-100
▁ରା	-101
ାର୍	-102
ଲା	-103
କ୍ତ	-104
▁ସମ	-105
ଦ୍	-106
▁ମଧ୍ୟ	-107
ଯା	-108
ଥିବା	-109
▁୨୦	-110
▁ଏହା	-111
କାର	-112
▁ପାଇ	-113
ିଶ	-114
▁ସା	-115
ନ୍ତି	-116
ାଳ	-117
ାସ	-118
▁ତାଙ୍କ	-119
ତା	-120
ୁର	-121
ଲି	-122
▁ନିର୍	-123
େଶ	-124
ଲ୍	-125
▁ମସି	-126
▁ଫ	-127
▁ଇ	-128
▁ସ୍	-129
ଯ୍ୟ	-130
▁ଖ	-131
ଯାଏ	-132
▁କରା	-133
▁ସଂ	-134
▁କି	-135
▁ଓଡ଼	-136
▁ସହ	-137
ାୟ	-138
ିତ୍ର	-139
ଷ୍	-140
ୃତ	-141
ସ୍ତ	-142
ାରତ	-143
▁ପା	-144
▁ପାଇଁ	-145
▁ପରି	-146
▁ଭାବ	-147
▁ଉପ	-148
ଯାଇ	-149
୍ରୀ	-150
▁ରାଜ	-151
▁ଭାରତ	-152
ବି	-153
ମା	-154
▁ମୁ	-155
ାଗ	-156
▁ଡ	-157
ିର	-158
▁ଜଣ	-159
ଥାଏ	-160
ୋକ	-161
ଳା	-162
▁ଅନୁ	-163
ବର	-164
▁ବ୍ୟ	-165
ବେ	-166
ାରୁ	-167
ଦ୍ଧ	-168
▁ଧ	-169
ମାନଙ୍କ	-170
ାରା	-171
୍ରେ	-172
▁ସମ୍	-173
୍ରି	-174
▁ଅଧ	-175
ହାରେ	-176
ାନ୍ତ	-177
ାରି	-178
ାରଣ	-179
▁ପୁ	-180
୍ରା	-181
▁ବର୍	-182
ର୍ବ	-183
େକ	-184
▁ହୁ	-185
ାହା	-186
ତ୍	-187
େତ	-188
▁ମସିହାରେ	-189
▁ରୋଗ	-190
▁ନାମ	-191
▁ଅଭ	-192
▁ରହି	-193
ଟେ	-194
▁ପ୍ରତି	-195
୍ଜ	-196
ମେ	-197
ଚ୍ଚ	-198
ଦି	-199
ୀର	-200
ଞ୍ଚ	-201
୍ତ୍ତ	-202
▁ଓଡ଼ିଶ	-203
ୀତ	-204
▁ସ୍ୱ	-205
ଶ୍ୱ	-206
▁ସୁ	-207
▁ପରେ	-208
ିକା	-209
ଣ୍ଟ	-210
▁ମା	-211
▁କରିବା	-212
▁ଭାବରେ	-213
▁୨୦୧	-214
▁ହୁଏ	-215
▁ପୂ	-216
ଞ୍ଜ	-217
ଧାନ	-218
▁କୁ	-219
କା	-220
ୟରେ	-221
ମି	-222
ଦ୍ୱ	-223
ତ୍ତ	-224
ଣ୍ଣ	-225
ମାନେ	-226
ଙ୍କୁ	-227
▁ଅବ	-228
ଳି	-229
ଳେ	-230
୍ସ	-231
୍ୟୁ	-232
▁ବ୍ୟବ	-233
ରୀ	-234
▁ଘ	-235
▁ସି	-236
ନ୍ନ	-237
ାର୍ଯ୍ୟ	-238
ଷ୍ଠ	-239
▁ଟ	-240
▁ଗୋ	-241
▁ଜଣେ	-242
ିବା	-243
▁କଥା	-244
▁ଲୋକ	-245
ଣା	-246
▁ମି	-247
▁ବେ	-248
ଭା	-249
▁ଥିଲେ	-250
▁ନା	-251
୍ରହ	-252
ାଦ	-253
▁କରାଯାଇ	-254
ଛନ୍ତି	-255
▁ଛ	-256
▁ବର୍ଷ	-257
ଦ୍ୱାରା	-258
ନି	-259
ହୁ	-260
▁ଯେ	-261
କ୍ର	-262
ଦେଶ	-263
▁ଦୁ	-264
ଠାରେ	-265
▁କେ	-266
▁ଗୁ	-267
ମ୍ଭ	-268
୦୦	-269
ାପ	-270
▁କାର୍ଯ୍ୟ	-271
ଭି	-272
ରଣ	-273
ଣି	-274
▁ଭାରତୀୟ	-275
ନୀ	-276
ବାର	-277
ଚିତ୍ର	-278
ଥାନ	-279
▁|	-280
ଜ୍	-281
▁ଅଧିକ	-282
▁ଅନ୍ୟ	-283
ଣୀ	-284
କ୍ତି	-285
▁ଏହାର	-286
▁ପ୍ରଥ	-287
▁ଅଭିନ	-288
ନ୍ଦ୍ର	-289
ନ୍ଦିର	-290
େଇ	-291
ଠାରୁ	-292
▁ଦେଖ	-293
▁ସାଧ	-294
ିଲ୍	-295
ନ୍ଧ	-296
▁କଥାଚିତ୍ର	-297
▁ନିର୍ବା	-298
ୀନ	-299
▁୨୦୦	-300
ାନ୍ତି	-301
ଗୁ	-302
ର୍ଯ୍ୟ	-303
▁"	-304
▁ଆର	-305
▁ଯୋଗ	-306
ୋଟ	-307
▁ନିର୍ବାଚ	-308
ନ୍ମ	-309
ଂଶ	-310
ୋଜ	-311
କି	-312
ତ୍ର	-313
▁ହେଉ	-314
▁ମନ୍ଦିର	-315
▁ଯାହା	-316
▁ନିଜ	-317
▁ତାଙ୍କର	-318
ାଲ	-319
▁ମହା	-320
▁ହି	-321
ଙ୍କର	-322
▁ଦେଇ	-323
▁ସାଧାରଣ	-324
ର୍ମ	-325
▁ଓଡ଼ିଆ	-326
▁ଓଡ଼ିଶା	-327
▁-	-328
▁ବୋ	-329
ମ୍ପ	-330
ର୍ଣ୍ଣ	-331
ପାରେ	-332
▁୩	-333
▁ଜନ	-334
ଖ୍ୟ	-335
▁ବିଶ୍ୱ	-336
ୀବ	-337
▁ହୋଇଥିଲା	-338
ାରୀ	-339
୍ପ	-340
▁ସମୟରେ	-341
ିବ	-342
▁ଥିବା	-343
▁କର	-344
▁ମଧ୍ୟରେ	-345
▁ଥିଲା	-346
▁ଯୁ	-347
▁ଚଳ	-348
▁ଭା	-349
▁କ୍ଷ	-350
▁କରାଯାଏ	-351
ର୍ଶ	-352
▁ଅଟେ	-353
▁କରୁ	-354
▁ସ୍ଥାନ	-355
▁ପୁର	-356
ଜ୍ଞ	-357
in	-358
ଭାବ	-359
ସ୍ଥି	-360
ଡି	-361
ଜା	-362
୍ରିୟ	-363
ହିତ	-364
ବୀ	-365
ଦୀ	-366
▁ଅନୁସ	-367
ଡ଼ି	-368
ସେ	-369
ପୁର	-370
ପ୍ର	-371
ନ୍ତ୍ର	-372
ଚ୍ଚିତ୍ର	-373
▁ଆରମ୍ଭ	-374
ବୁ	-375
ାତ୍ର	-376
ନରେ	-377
ହିଁ	-378
▁କୋ	-379
ାନ୍	-380
ନ୍ତୁ	-381
ଢ଼	-382
▁ସହିତ	-383
▁ସଭା	-384
▁ଚଳଚ୍ଚିତ୍ର	-385
▁ପ୍ରଥମ	-386
▁ପର	-387
ଳୀ	-388
କ୍	-389
▁ମୂ	-390
ହେ	-391
▁ପୂର୍ବ	-392
▁ଲେ	-393
ାତୀୟ	-394
ପି	-395
ସ୍ଥ	-396
▁ବିଧାନ	-397
ଳରେ	-398
▁ବ୍ୟବହାର	-399
ମ୍ବା	-400
ୂପ	-401
▁ଶ୍ରୀ	-402
େଷ	-403
ଳ୍ପ	-404
▁ହୋଇଥିଲେ	-405
▁ଅନେକ	-406
ରାଜ	-407
େଟ	-408
ିକ୍ଷ	-409
▁ଅଭିନୟ	-410
ଲୋ	-411
▁ଅନୁସାରେ	-412
୍ରହଣ	-413
ର୍ତ୍ତ	-414
▁ରହିଛି	-415
▁ଦିଆ	-416
ଦ୍ର	-417
▁ଜନ୍ମ	-418
ଦ୍ୟା	-419
▁ଉପରେ	-420
ସ୍କାର	-421
▁,	-422
ଖି	-423
▁ଅପ	-424
▁ପି	-425
▁୧୯୯	-426
▁ସର	-427
ତିକ	-428
କାଶ	-429
▁ମହ	-430
▁ଭାଷ	-431
ସର	-432
),	-433
▁ଲକ୍ଷ	-434
ିତା	-435
▁ଡି	-436
▁ମେ	-437
ମନ୍ତ	-438
▁ପର୍ଯ୍ୟ	-439
▁୪	-440
୍ମ	-441
ସ୍କ	-442
▁ଔ	-443
▁କା	-444
▁ଥ	-445
ମୁ	-446
ାଧ	-447
ଣୁ	-448
▁କଲେ	-449
ଗତ	-450
▁୫	-451
ଷ୍ଟି	-452
▁ଜୀବ	-453
▁ଆଦି	-454
▁ପ୍ରାୟ	-455
er	-456
▁ଭାବେ	-457
ପା	-458
on	-459
କ୍ଷା	-460
ବ୍	-461
▁ରାଜ୍ୟ	-462
▁ବୋଲି	-463
ଜି	-464
▁ତେ	-465
ଉଁ	-466
▁ପ୍ରଦ	-467
ତଃ	-468
▁ମୁଖ୍ୟ	-469
▁ମାନ	-470
ଷ୍ଟ୍ର	-471
▁ଅର୍	-472
▁ଜାତୀୟ	-473
▁ରେ	-474
ଟର	-475
ଡ଼ିକ	-476
▁ସାମ	-477
▁ଦୁଇ	-478
ୟୁ	-479
▁ପୁରସ୍କାର	-480
କ୍ରମ	-481
ti	-482
▁ଦିନ	-483
▁ଉତ୍ତ	-484
▁କିଛି	-485
ଖରେ	-486
▁ଉତ୍	-487
▁ଭୂ	-488
ବର୍ତ୍ତ	-489
▁ଜିଲ୍	-490
ତ୍ୟ	-491
ସନ	-492
ସ୍ଥିତ	-493
ଷଧ	-494
ରିକ	-495
୍ରାମ	-496
▁ନିର୍ଦ୍	-497
ଥିରେ	-498
▁ଔଷଧ	-499
ଳୟ	-500
▁ତଥା	-501
▁ସମ୍ପ	-502
ଭିନ୍ନ	-503
▁ମହି	-504
▁ତାଙ୍କୁ	-505
▁ବିଶ	-506
▁ଚା	-507
ମାଣ	-508
ର୍କ	-509
ଦେ	-510
ଡ଼ା	-511
▁ଦ୍ୱ	-512
ଚନା	-513
ିନି	-514
▁ବିଭିନ୍ନ	-515
ମିକ	-516
▁ମିଶ	-517
ଟକ	-518
ନାଥ	-519
▁ବୟ	-520
ଖ୍ୟା	-521
▁ଦେଖା	-522
ୋଧ	-523
▁ସେହି	-524
▁ପ୍ରା	-525
▁ଚିକ	-526
ୁଲ	-527
ଯୋଗ	-528
ଟିର	-529
ସ୍ଥା	-530
▁ଶିକ୍ଷ	-531
an	-532
▁କିନ୍ତୁ	-533
୧୯	-534
ବାହ	-535
▁ଦଳ	-536
▁ଝ	-537
▁ହେବା	-538
▁ମୃତ	-539
ଟିଏ	-540
ମ୍ବର	-541
▁ବହୁ	-542
▁ହୋଇପାରେ	-543
▁ମସିହାର	-544
▁କୌ	-545
▁୬	-546
ଗୋ	-547
ପ୍ତ	-548
ଲାର	-549
▁ମାସ	-550
ିତ୍ସ	-551
ପରି	-552
▁୧୯୮	-553
ସୁ	-554
ତ୍ୟା	-555
ୋର	-556
୍ୱର	-557
▁ସଙ୍ଗ	-558
▁ଅନ୍ତ	-559
▁ଚିକିତ୍ସ	-560
al	-561
▁ବୃ	-562
▁ତା	-563
▁ନାହିଁ	-564
▁ହୋଇଥାଏ	-565
▁ପର୍ଯ୍ୟନ୍ତ	-566
ଜନ	-567
ୋନ	-568
▁ବିଜ	-569
▁ନେଇ	-570
▁ଯା	-571
▁ରକ୍ତ	-572
ୂର	-573
ମିତ	-574
ୋଷ	-575
▁୧୯୭	-576
▁ଯେଉଁ	-577
ମନ୍ତେ	-578
▁ବୁ	-579
▁ହେଲେ	-580
▁ଦେଶ	-581
▁ଲି	-582
▁ନିମନ୍ତେ	-583
▁ନିର୍ଦ୍ଦେଶ	-584
▁ସବୁ	-585
ୁକ୍ତ	-586
▁ପାର୍	-587
ୁଆ	-588
ପରେ	-589
ଣସି	-590
ହିତ୍ୟ	-591
ସା	-592
▁ହେଉଛି	-593
▁କଳା	-594
୍ନ	-595
କାରୀ	-596
▁ପଦ	-597
▁କୁହା	-598
ଡେ	-599
▁କରାଯାଇଥିଲା	-600
ଂଗ	-601
▁ହୋଇଥିବା	-602
ଖା	-603
୍ରୋ	-604
▁ଅଞ୍ଚ	-605
ତନ	-606
▁୧୮	-607
▁ଆସି	-608
▁କରନ୍ତି	-609
▁ସାହିତ୍ୟ	-610
▁ଆମେ	-611
▁କାମ	-612
▁ବିଷ	-613
ଥାନ୍ତି	-614
▁ତାରି	-615
ର୍ଷ	-616
▁କମ	-617
▁ଲା	-618
▁ଉଚ୍ଚ	-619
କ୍ଟ	-620
ମ୍ବ	-621
▁ଗୋଟିଏ	-622
▁ହିନ୍ଦ	-623
ତୀ	-624
▁ଦେଇଥିଲେ	-625
ାର୍ଥ	-626
୍ଲ	-627
▁ରୂପ	-628
▁ମଣ୍ଡ	-629
କର	-630
ାଜ	-631
▁ସହର	-632
ଦ୍ୟାଳୟ	-633
▁ମନ	-634
▁କିମ୍ବା	-635
▁ମୃତ୍ୟୁ	-636
ୃଷ୍ଟି	-637
▁ଶି	-638
ଗୁଡ଼ିକ	-639
▁କୌଣସି	-640
ୃତି	-641
▁ସ୍ତ	-642
▁ବେଳେ	-643
ବାଦ	-644
▁କ୍ର	-645
ୀରେ	-646
▁ଅଟ	-647
ଦା	-648
▁ଦି	-649
ନୀତି	-650
ବେଳେ	-651
▁ହେଲା	-652
ଷ୍ଣ	-653
en	-654
▁ଅବସ୍ଥିତ	-655
▁କେତ	-656
▁କରେ	-657
▁ସମ୍ମାନ	-658
▁ଯୋଗୁ	-659
ଶ୍ୟ	-660
ୁନ	-661
▁ପ୍ରକାଶ	-662
▁ଫେ	-663
ଚିତ	-664
▁୭	-665
▁୧୯୬	-666
▁ଚି	-667
▁ଯାଇ	-668
ଳନ	-669
ar	-670
େତ୍ର	-671
▁ଦକ୍ଷ	-672
ପତି	-673
▁ଏହାକୁ	-674
▁ଜା	-675
ତୁ	-676
ପୁ	-677
▁ବ୍ୟା	-678
▁ଶୁ	-679
▁ସମୟ	-680
ମାନଙ୍କୁ	-681
ଥିବ	-682
▁ପାର	-683
ରୁଷ	-684
▁ଜଳ	-685
▁କାରଣ	-686
▁ଗୀତ	-687
▁ନେ	-688
▁ଦାସ	-689
▁ସୂ	-690
or	-691
ାମାନ	-692
ଶ୍ଚ	-693
ପୂ	-694
▁କରିବାକୁ	-695
▁କଥାଚିତ୍ରଟିର	-696
ଶୀ	-697
ଂହ	-698
▁ସଂଗ	-699
▁ଖେ	-700
ରିଆ	-701
କୃତ	-702
ଜ୍ଞାନ	-703
ଦ୍ୟ	-704
ିମ	-705
▁ଚିକିତ୍ସା	-706
▁କରିଛନ୍ତି	-707
▁ନିର୍ବାଚନ	-708
▁ଭାରତର	-709
▁ଉତ୍ତର	-710
ର୍ଶନ	-711
▁୧୯୫	-712
ମୀ	-713
ୋହ	-714
ର୍ଭ	-715
ତମ	-716
▁ନିକ	-717
▁ହେଇ	-718
▁ସମସ୍ତ	-719
ଠା	-720
କାଳ	-721
ଗର	-722
ୋପ	-723
▁ପ୍ରକାର	-724
ଚ୍	-725
▁ଲାଗ	-726
▁ମସିହା	-727
ସୀ	-728
▁ଅଛି	-729
ିଣ	-730
ପାରି	-731
▁ସଙ୍ଗୀତ	-732
▁ଦେବ	-733
▁ପ୍ରଭାବ	-734
ନର	-735
▁ଦିଆଯାଏ	-736
୨୦	-737
es	-738
ୋଲ	-739
▁କାଳ	-740
▁'	-741
ାୟକ	-742
ୃଷ୍ଣ	-743
▁ବଡ଼	-744
▁କରିଥିଲା	-745
▁ଦେବୀ	-746
▁ଆଇ	-747
▁ଗ୍ରାମ	-748
ଂରାଜ	-749
▁ଶ୍ରେ	-750
▁୮	-751
▁ବୟସ	-752
▁ଅଗ	-753
▁ଭାଗ	-754
▁ଅଟନ୍ତି	-755
▁ଆଲ	-756
ଶି	-757
ବଳ	-758
▁ୱ	-759
ସ୍ତୁ	-760
▁ଗା	-761
▁ଦୂର	-762
▁ଭି	-763
ମାନଙ୍କର	-764
େନ	-765
େଶ୍ୱର	-766
ଯାଉ	-767
ିକୁ	-768
କ୍ରମଣ	-769
▁ସର୍ବ	-770
ଭାଗ	-771
▁ତାରିଖରେ	-772
▁ଫୁ	-773
ାନ୍ୟ	-774
ମାର	-775
ଟ୍	-776
▁ଯୁକ୍ତ	-777
▁ଗ୍ରହଣ	-778
▁ରାଜନୀତି	-779
▁ସରକାର	-780
▁ଦକ୍ଷିଣ	-781
▁ଏଠାରେ	-782
ୟୀ	-783
ାତ୍ରା	-784
ିଆରି	-785
ଂଗ୍ରେ	-786
ଗା	-787
▁ଶତ	-788
ିବାକୁ	-789
▁ବୈ	-790
ଗ୍ରହଣ	-791
▁ରି	-792
▁ଓଡ଼ିଶାର	-793
▁ରାମ	-794
▁ଥାଏ	-795
▁ଜଣା	-796
▁ମିଶ୍ର	-797
▁ନିକଟ	-798
▁ତାହା	-799
ଟା	-800
ସିଆ	-801
▁୧୦	-802
▁ତିଆରି	-803
ଧି	-804
ବନ	-805
ସଂ	-806
ତେ	-807
▁ପୃ	-808
▁ରଚନା	-809
▁ମଧ୍ୟରୁ	-810
▁କ୍ଷେତ୍ର	-811
ଚାର	-812
▁ହୋଇଛି	-813
▁କେତେକ	-814
▁କରୁଥିଲେ	-815
▁ପ୍ରସ	-816
▁କୁହାଯାଏ	-817
▁ଆବ	-818
ଭେ	-819
ଣ୍ଡା	-820
ଞ୍ଜି	-821
ାବ୍	-822
ଧା	-823
▁ଶାସ	-824
ଦାନ	-825
▁ଭୁ	-826
▁ଶେଷ	-827
▁ଭିତ	-828
▁ମହିଳା	-829
▁ଡା	-830
▁ଚିତ୍ର	-831
ବିଦ୍ୟାଳୟ	-832
▁ନିର୍ବାଚିତ	-833
▁କହି	-834
is	-835
ର୍ଥ	-836
▁ହାର	-837
ଣ୍ଡି	-838
▁ଶିକ୍ଷା	-839
ବାକୁ	-840
ନ୍ୟା	-841
▁ମିଳି	-842
ିକାର	-843
ଟ୍ଟ	-844
କୋ	-845
ରାମ	-846
▁ନାମକ	-847
▁ଲକ୍ଷଣ	-848
ଣ୍ଠ	-849
▁ନାମରେ	-850
▁ପାର୍ଶ୍ୱ	-851
▁ପ୍ରତିକ	-852
ବେଶ	-853
ବର୍ତ୍ତୀ	-854
▁ସୃଷ୍ଟି	-855
▁ପୁରୁଷ	-856
ଦର	-857
ଲ୍ୟ	-858
ୟକ	-859
th	-860
▁1	-861
ଦିନ	-862
▁ତର	-863
ic	-864
▁ଏକା	-865
▁ଭାଷାରେ	-866
▁ଦେଖାଯାଏ	-867
ଫଳ	-868
▁ଅର୍ଥ	-869
ଲାଭ	-870
▁କେନ୍ଦ୍ର	-871
▁ସଭ	-872
▁ଅଫ	-873
ିକ୍	-874
▁ପାଳ	-875
ଦ୍ଧି	-876
▁ପ୍ରଥମେ	-877
ଥିବାରୁ	-878
ୁଦ୍ର	-879
▁ଗୁରୁ	-880
ବନ୍ଧ	-881
ଯୁକ୍ତ	-882
▁ଭଳି	-883
ୟନ	-884
▁ବିବାହ	-885
▁ଷ୍ଟ	-886
▁ନିର୍ମାଣ	-887
ଶୁ	-888
▁ବିକ	-889
କ୍ରିୟ	-890
▁କର୍ମ	-891
ସ୍ୟ	-892
ମରେ	-893
▁ତୁ	-894
▁କଲ	-895
ପର	-896
▁୧୫	-897
▁ପ୍ରତିକ୍ରିୟ	-898
▁ନୂ	-899
▁ପୂର୍ବରୁ	-900
ଙ୍କଦ୍ୱାରା	-901
▁ପ୍ରେ	-902
▁ମୁକ୍ତି	-903
ାନୀ	-904
ଡ୍	-905
▁ଅଞ୍ଚଳ	-906
ରାଷ୍ଟ୍ର	-907
▁କରିଥିବା	-908
▁୧୯୪	-909
▁୯	-910
ଶ୍ୟକ	-911
▁ସାଧାରଣତଃ	-912
ଡା	-913
▁ନିର୍ବାଚନରେ	-914
ଥର	-915
▁ଚନ୍ଦ୍ର	-916
▁ବ୍ୟକ୍ତି	-917
▁ଜନ୍ମଗ୍ରହଣ	-918
▁ସଂଖ୍ୟା	-919
▁ଜୀବନ	-920
▁ନିଜର	-921
ପାଇ	-922
▁ମାତ୍ର	-923
▁ଧର୍ମ	-924
▁ବନ୍ଦ	-925
ହାସ	-926
▁ସ୍ଥା	-927
▁ପ୍ରତିଷ୍ଠ	-928
ପାଳ	-929
ଲ୍ଲ	-930
▁ସେଠାରେ	-931
ିଲ	-932
▁ସିଂହ	-933
▁ଜଗ	-934
▁ସୋ	-935
▁ମଣ୍ଡଳୀ	-936
ଂସ	-937
▁ଲେଖ	-938
tion	-939
▁ପରିବାର	-940
େଲ	-941
ଗଲା	-942
▁ଶବ୍	-943
▁ମୋ	-944
ମୁଖ	-945
ଂରାଜୀ	-946
▁ନିୟ	-947
ଭୂ	-948
▁ବର୍ଣ୍ଣ	-949
▁ସନ	-950
ର୍ଜ	-951
ମୋ	-952
▁ପୋ	-953
ଚ୍ଛ	-954
▁ଆମେରିକ	-955
▁ହିନ୍ଦୁ	-956
▁ଅନ୍ୟାନ୍ୟ	-957
▁ଯନ୍ତ୍ର	-958
ନିକ	-959
▁ଅଂଶ	-960
▁ଆଧ	-961
▁ଇତ୍ୟା	-962
ଢ଼ି	-963
ପ୍	-964
▁ସ୍ଥାନରେ	-965
▁ଅତି	-966
ାଦ୍ୟ	-967
▁ଛୋଟ	-968
ମର	-969
▁ରାଜା	-970
▁ପ୍ରଶ	-971
ାତା	-972
ଗଣ	-973
ପ୍ଟ	-974
▁ଆବଶ୍ୟକ	-975
ହୃତ	-976
ବାରେ	-977
▁ଗଣ	-978
ୃତ୍ୟ	-979
▁ଶତାବ୍	-980
ନ୍ୟ	-981
▁ବିଶେଷ	-982
▁ଟେ	-983
▁କଂଗ୍ରେ	-984
▁ଖାଦ୍ୟ	-985
ନ୍ନାଥ	-986
▁ଜିଲ୍ଲାର	-987
ୟା	-988
ାଧୀନ	-989
re	-990
ତିହାସ	-991
ାଙ୍କୁ	-992
ୀଙ୍କ	-993
ସ୍ୱ	-994
▁ରଙ୍ଗ	-995
▁ପ୍ରଦାନ	-996
▁ଶିଶ	-997
▁ବ୍ୟବହୃତ	-998
▁ନଦୀ	-999
▁ପକ୍ଷ	-1000
ro	-1001
ଧିକ	-1002
▁ଦଶ	-1003
▁ବଙ୍ଗ	-1004
▁ପ୍ରତିଶ	-1005
▁ଇତ୍ୟାଦି	-1006
▁ମହାନ୍ତି	-1007
▁ଲାଗି	-1008
▁ଯଥା	-1009
▁ପୂଜା	-1010
▁ସେଥି	-1011
୦୦୦	-1012
▁ନିର୍ମିତ	-1013
ନାୟକ	-1014
ାଇବା	-1015
▁ଧରି	-1016
▁ଗ୍ରେ	-1017
▁ପରୀ	-1018
ଭୁ	-1019
▁ଯୁକ୍ତରାଷ୍ଟ୍ର	-1020
ଲୁ	-1021
▁ଶକ୍ତି	-1022
ରୋଧ	-1023
େତା	-1024
▁ଆଗ	-1025
ାହ	-1026
▁ଏଥିରେ	-1027
▁ସଂସ୍କ	-1028
▁କମ୍ପ	-1029
▁୧୨	-1030
le	-1031
▁ଶିବ	-1032
as	-1033
▁ଆୟ	-1034
▁ଅଭି	-1035
ଯାଇଥିଲା	-1036
▁ଭୂମିକ	-1037
▁କେବଳ	-1038
କ୍ସ	-1039
▁ଉଦ୍	-1040
▁ମୋଟ	-1041
▁ନୃତ୍ୟ	-1042
▁ପର୍ବ	-1043
ର୍ଗ	-1044
ଶ୍ଚିମ	-1045
▁ରୂପେ	-1046
▁ମୁକ୍ତିଲାଭ	-1047
▁ନାରୀ	-1048
ଙ୍କା	-1049
at	-1050
▁ଜନତା	-1051
ାନ୍ଧ	-1052
▁ବାର	-1053
ସ୍ୟା	-1054
ଦେବ	-1055
▁ଋ	-1056
▁ଆଉ	-1057
ଠି	-1058
୍ରୁ	-1059
▁ସ୍ଥାପ	-1060
▁ଅନୁଷ୍ଠ	-1061
ଫା	-1062
ାଳୀ	-1063
▁ଦୀ	-1064
▁ସ୍ୱାଧୀନ	-1065
▁ପ୍ରସ୍ତୁ	-1066
▁ଲାଭ	-1067
▁ବାହାର	-1068
କେ	-1069
୍ରମ	-1070
▁ଜାନ	-1071
▁କରାଯାଇଛି	-1072
ିଅ	-1073
▁ସେମାନେ	-1074
▁ଭାଷା	-1075
▁ନୁ	-1076
ିତୀୟ	-1077
ଭୟ	-1078
ସ୍ଟ	-1079
ଅନ୍ତି	-1080
▁ରଖି	-1081
▁ପ୍ରତିଶତ	-1082
▁:	-1083
▁ସାହା	-1084
▁ନୀ	-1085
▁ସଭାକୁ	-1086
▁ପତ୍ର	-1087
▁ବର୍ତ୍ତ	-1088
▁ବିଷୟରେ	-1089
lo	-1090
▁ସମ୍ପର୍କ	-1091
ୋଜନା	-1092
କ୍ଷଣ	-1093
▁୧୬	-1094
ସ୍ଥାନ	-1095
▁ଖେଳ	-1096
▁କରୁଥିବା	-1097
▁କବ	-1098
▁ଛା	-1099
▁ଶବ୍ଦ	-1100
▁ଭୂମିକାରେ	-1101
ରରେ	-1102
ଦ୍ଧା	-1103
▁ସଦ	-1104
▁୨୦୧୪	-1105
▁ବର୍ତ୍ତମାନ	-1106
▁ପୁନ	-1107
▁ପୁରା	-1108
▁ସ୍ନା	-1109
▁ଜଗତ	-1110
▁୧୯୩	-1111
▁ବିଜ୍ଞାନ	-1112
▁ଖୋ	-1113
ାନା	-1114
▁ଉଭୟ	-1115
▁ପାଞ୍ଜି	-1116
ନୁ	-1117
▁ସର୍	-1118
ତାର	-1119
ଗୋରି	-1120
ହ୍ନ	-1121
ସ୍ତକ	-1122
▁କାହା	-1123
ୋଟି	-1124
▁ହେବ	-1125
ଳିତ	-1126
▁ମୂଲ୍ୟ	-1127
▁ପରିବର୍ତ୍ତ	-1128
▁ବିଭାଗ	-1129
ିରେ	-1130
▁ମୁଣ୍ଡ	-1131
ଜନ୍ମ	-1132
▁ତେବେ	-1133
▁ପରବର୍ତ୍ତୀ	-1134
ତ୍ତ୍ୱ	-1135
▁ଦୁଇଟି	-1136
କରଣ	-1137
ାଇନ	-1138
▁ଭଲ	-1139
▁ବ୍ରି	-1140
▁ଚେ	-1141
ାୟଣ	-1142
▁ଶର	-1143
ପଣ	-1144
▁ଆକ	-1145
▁ଯୁଦ୍ଧ	-1146
ଘାତ	-1147
▁୧୪	-1148
ଜେ	-1149
ତ୍ୱ	-1150
ବେଷ	-1151
▁ଯଦି	-1152
ପାଇଁ	-1153
▁ଗଠ	-1154
▁ଦ୍ୱିତୀୟ	-1155
▁ପ୍ରଧାନ	-1156
▁ମାର	-1157
ପାର	-1158
ଟିରେ	-1159
▁ରାଷ୍ଟ୍ର	-1160
ସାୟ	-1161
ର୍ଟ	-1162
▁ଘର	-1163
କଳ	-1164
ତନ୍ତ୍ର	-1165
▁ହାତ	-1166
▁ଲୁ	-1167
ହେଁ	-1168
▁ଗ୍ରେଗୋରି	-1169
▁2	-1170
▁ସ୍ପ	-1171
▁ଶିଶୁ	-1172
▁ୟ	-1173
▁ଉତ୍ପ	-1174
▁ରଥ	-1175
ଲେଖ	-1176
▁ଏକାଡେ	-1177
ମ୍ନ	-1178
▁୧୭	-1179
ଲରେ	-1180
▁ମହିଳ	-1181
▁କଟକ	-1182
▁ସାହାଯ୍ୟ	-1183
▁୨୦୨	-1184
ୃହ	-1185
us	-1186
▁ମଣ୍ଡଳୀରୁ	-1187
▁ଆକାର	-1188
ସ୍ଥାରେ	-1189
ing	-1190
▁ପେ	-1191
▁ହାସ	-1192
ଚି	-1193
▁ତିନି	-1194
ଜାର	-1195
▁ପଶ୍ଚିମ	-1196
୍ୟାୟ	-1197
ଜାତି	-1198
▁ହାଇ	-1199
▁କଳାକାର	-1200
▁ମତ	-1201
ଯାଇଛି	-1202
▁ପଟ୍ଟ	-1203
▁ବଳ	-1204
▁ଜିଲ୍ଲା	-1205
):	-1206
▁ଜଗନ୍ନାଥ	-1207
▁ଇଣ୍ଡ	-1208
ଭବ	-1209
ର୍ଘ	-1210
▁ବିଶ୍ୱବିଦ୍ୟାଳୟ	-1211
ାମୀ	-1212
ାପ୍ତ	-1213
▁ତେଣୁ	-1214
▁କୁମାର	-1215
▁ହା	-1216
▁କ୍ଷେତ୍ରରେ	-1217
▁୧୧	-1218
▁ବ୍ରହ	-1219
▁କରିଥାଏ	-1220
ପାତ୍ର	-1221
ିକାଶ	-1222
ଲୀ	-1223
▁ପଞ୍ଚ	-1224
▁କରିଥାନ୍ତି	-1225
▁ସେବା	-1226
▁ଜି	-1227
▁ଅସ	-1228
ତ୍ନୀ	-1229
ନ୍ଦର	-1230
ଣ୍ଟି	-1231
▁ସୀ	-1232
ଦାୟ	-1233
▁ପିତ	-1234
▁କୃଷ୍ଣ	-1235
▁ବୃଦ୍ଧି	-1236
ନ୍ସ	-1237
▁ନାଟକ	-1238
▁କାର	-1239
▁s	-1240
▁ଭଗ	-1241
▁ୟୁ	-1242
▁ପୁସ୍ତକ	-1243
▁ଯେଉଁଥିରେ	-1244
ରାପ	-1245
▁ସ୍ୱା	-1246
ଡ଼ିଆ	-1247
ିତି	-1248
ାଇଟି	-1249
ଗି	-1250
ଦନ	-1251
▁ମଧ	-1252
▁ପ୍ରସ୍ତୁତ	-1253
ଳକୁ	-1254
▁ନବ	-1255
▁ପ୍ରାର୍ଥ	-1256
▁ପାଳନ	-1257
▁ସଂକ୍ରମଣ	-1258
▁ପହ	-1259
▁ପତ୍ନୀ	-1260
▁ପାଣି	-1261
▁)	-1262
▁ଜନସଂ	-1263
▁ବେଶ	-1264
ଯୁ	-1265
ବର୍ଷ	-1266
ୁଲାଇ	-1267
▁ନିର୍ଦ୍ଦେଶନା	-1268
it	-1269
▁ଯନ୍ତ୍ରଣା	-1270
ed	-1271
▁୧୩	-1272
▁ଅଲ	-1273
ଠାକୁ	-1274
▁ରୁ	-1275
ମିଟର	-1276
ୁଆରୀ	-1277
▁ବିକାଶ	-1278
▁ଭିନ୍ନ	-1279
▁ଦଳର	-1280
▁ଚାଲି	-1281
ର୍ତ୍ତି	-1282
ଳକ	-1283
ଗରେ	-1284
୍ଲା	-1285
▁ପ୍ରାଚ	-1286
ac	-1287
▁ଦେବା	-1288
୍ଚ୍ଚ	-1289
▁ପରିଚ	-1290
ୟର	-1291
▁ସଙ୍କ	-1292
▁ଅଞ୍ଚଳରେ	-1293
▁ଜେ	-1294
ଲାରେ	-1295
▁ସାକ୍ଷ	-1296
ପୂର୍ଣ୍ଣ	-1297
ାନର	-1298
▁କାହାଣୀ	-1299
▁ଦେଖି	-1300
ନେ	-1301
▁ଉଲ୍	-1302
ନାହିଁ	-1303
▁ପ୍ରମୁଖ	-1304
ୋବର	-1305
ମାନଙ୍କରେ	-1306
▁c	-1307
▁ସମାଜ	-1308
▁ବସ	-1309
▁ଫିଲ୍	-1310
▁ସମସ୍ୟା	-1311
ବ୍ୟ	-1312
▁ପଟ୍ଟନାୟକ	-1313
ଜୀ	-1314
ଦ୍ମ	-1315
▁ଉତ୍ସ	-1316
▁ନୁହେଁ	-1317
▁ନାୟକ	-1318
▁ମହାର	-1319
▁ଦିଲ୍	-1320
▁କମ୍	-1321
▁ସପ୍ତ	-1322
ଡିକ	-1323
ବାନ	-1324
▁ବନ୍ଧ	-1325
▁ଅନ୍ତର୍	-1326
▁କରାଯାଇଥାଏ	-1327
ପଥ	-1328
୍ରାହ	-1329
▁ଟି	-1330
▁ଶୈ	-1331
▁ନିର୍ଣ୍ଣ	-1332
▁ପ୍ରତିକ୍ରିୟାରେ	-1333
ିୟ	-1334
େତେ	-1335
▁କମି	-1336
▁ଭାରତରେ	-1337
▁ମହାପାତ୍ର	-1338
ଙ୍ଗା	-1339
▁ହରି	-1340
▁ହ୍ର	-1341
▁ହେଉଥିବା	-1342
ବାସ	-1343
େରା	-1344
▁ଜାନୁଆରୀ	-1345
୍ରିକ	-1346
▁ଲେଖା	-1347
▁ଖଣ୍ଡ	-1348
▁ଭୁବନ	-1349
ଶା	-1350
ାଇଟ	-1351
ଦୀର	-1352
ାଇଥିଲେ	-1353
▁ଯାଏ	-1354
▁p	-1355
▁ପ୍ରତ୍ୟ	-1356
ଫି	-1357
▁ଧାରା	-1358
▁୨୦୦୧	-1359
▁୨୫	-1360
ଚନ	-1361
ପାତ	-1362
▁ବର୍ଣ୍ଣନା	-1363
am	-1364
▁୨୦୦୯	-1365
▁ଏକାଡେମୀ	-1366
▁ଜୟ	-1367
୍ୟରେ	-1368
▁ଚାରି	-1369
ିଷ୍ଟ	-1370
▁ମିଳେ	-1371
▁ମାଧ୍ୟ	-1372
▁ଶ୍ରେଷ୍ଠ	-1373
▁ଅକ୍ଟ	-1374
▁A	-1375
▁ଶତାବ୍ଦୀ	-1376
▁ସୁର	-1377
ation	-1378
▁ଅଧିକା	-1379
▁କଣ୍ଠ	-1380
▁ରୋଗର	-1381
▁ପଦାର୍ଥ	-1382
ପୋ	-1383
ିଏ	-1384
▁ଖ୍ରୀ	-1385
ୋହନ	-1386
▁ହିଁ	-1387
▁ଚଳଚ୍ଚିତ୍ରରେ	-1388
▁ହିନ୍ଦୀ	-1389
କରି	-1390
ଏସ	-1391
୍ତ୍ର	-1392
▁ସ୍ଥ	-1393
▁ଶରୀର	-1394
▁ଖୁ	-1395
ାଙ୍କର	-1396
ିକେଟ	-1397
ଳିକ	-1398
▁ସଫଳ	-1399
▁ଉଦ୍ୟ	-1400
▁୩୦	-1401
ତିରେ	-1402
▁ପ୍ରଣ	-1403
ାନୁ	-1404
ବୃ	-1405
ଗ୍ରୀ	-1406
▁ରାଜନୀତିରେ	-1407
▁ଦିବ	-1408
▁ନିର୍ଣ୍ଣୟ	-1409
▁ଦେହ	-1410
▁ଡଲାର	-1411
▁S	-1412
ତୀତ	-1413
୍ୟତା	-1414
▁ବିଶ୍ୱାସ	-1415
ଟିଶ	-1416
▁ପାଠ	-1417
▁ସ୍ୱାଧୀନତା	-1418
id	-1419
ାରିତ	-1420
ଗ୍ର	-1421
▁ଯେତେ	-1422
ସେମ୍ବର	-1423
ିନୀ	-1424
▁ଅଧିକାଂଶ	-1425
▁I	-1426
ଦୁ	-1427
▁ନୂଆ	-1428
ସିସ	-1429
▁ନାଗ	-1430
▁ବର	-1431
▁ଅକ୍ଟୋବର	-1432
▁ବାଘ	-1433
▁କର୍କ	-1434
▁ଗଛ	-1435
▁ହାସଲ	-1436
▁ଜନସଂଖ୍ୟା	-1437
ର୍ଚ୍ଚ	-1438
େର	-1439
▁ମୂଳ	-1440
▁ଅତ୍ୟ	-1441
▁ଉଲ୍ଲେଖ	-1442
ଣ୍ଡର	-1443
▁ଭାଇ	-1444
▁ଡିସେମ୍ବର	-1445
▁ରୋଗରେ	-1446
▁ଆକ୍ରମଣ	-1447
କାଳୀନ	-1448
ପ୍ରିୟ	-1449
▁ପରିବର୍ତ୍ତନ	-1450
▁ଜୁଲାଇ	-1451
▁ଝିଅ	-1452
▁ସହରର	-1453
▁ସୂର୍ଯ୍ୟ	-1454
▁ପଦ୍ମ	-1455
▁୨୦୧୫	-1456
▁୨୦୧୯	-1457
▁ବ୍ରିଟିଶ	-1458
ଜର	-1459
▁ରୋ	-1460
େତ୍ରୀ	-1461
▁ରଖ	-1462
▁ଏଥି	-1463
▁କରାଯାଉ	-1464
▁ଉନ୍ନ	-1465
▁ମାର୍ଚ୍ଚ	-1466
▁ରାୟ	-1467
▁ଗାନ୍ଧ	-1468
▁କଂଗ୍ରେସ	-1469
▁ଅଗଷ୍ଟ	-1470
ିତ୍ୱ	-1471
▁ସ୍କୁ	-1472
ଷା	-1473
▁କବି	-1474
ଫୁ	-1475
▁ପ୍ରଭାବିତ	-1476
୍ରେଲ	-1477
ଜ୍ୟ	-1478
ଆନ୍ତି	-1479
▁ମଇ	-1480
ନ୍ଦୋ	-1481
▁ଟ୍ର	-1482
▁ଦେଖିବାକୁ	-1483
▁C	-1484
▁ଇତିହାସ	-1485
ନାଲ	-1486
▁ମନ୍ତ	-1487
▁ଅଧିକାର	-1488
ତର	-1489
ବିଧା	-1490
▁ଫଳରେ	-1491
ୟାର	-1492
▁ପାର୍ଟ	-1493
▁ନିକଟରେ	-1494
▁o	-1495
ତ୍ମ	-1496
ନ୍ଥ	-1497
ାଳି	-1498
▁ବିଧ	-1499
▁ଡାକ୍ତ	-1500
▁ଏପରି	-1501
▁ବିପ	-1502
om	-1503
ପ୍ଟେ	-1504
ଷ୍ଟା	-1505
ଗଡ଼	-1506
ଞ୍ଚି	-1507
▁ଆର୍	-1508
କୃଷ୍ଣ	-1509
▁ଏହାପରେ	-1510
ବଲ	-1511
ଣ୍ଟା	-1512
▁କିଲୋ	-1513
▁୨୦୧୧	-1514
▁ପୂର୍ଣ୍ଣ	-1515
ମୂ	-1516
▁ଗବେଷ	-1517
▁ସ୍ୱର	-1518
▁ପାଇଥିଲେ	-1519
୍ଯ	-1520
▁କବିତା	-1521
▁ଯୋଗୁଁ	-1522
ତ୍ନ	-1523
▁ଘଟ	-1524
▁ଦୃ	-1525
▁ଲେଖି	-1526
▁କର୍କଟ	-1527
▁ରାଜନୀତିଜ୍ଞ	-1528
▁ପାଖ	-1529
▁ପ୍ରକ	-1530
ପକ	-1531
▁ବୟସରେ	-1532
▁ଜୀ	-1533
ଯାଇଥାଏ	-1534
▁ଯାତ୍ରା	-1535
▁ଚତୁ	-1536
▁ସଦସ୍ୟ	-1537
▁ଭିତରେ	-1538
▁ସ୍ନାତ	-1539
▁ବ୍ର	-1540
▁ସେତେ	-1541
▁ଭୁବନେଶ୍ୱର	-1542
ଳୟରେ	-1543
▁ବାପ	-1544
▁ପଡ଼ି	-1545
▁d	-1546
▁ଫୁଟ	-1547
ାରାୟଣ	-1548
ଭେମ୍ବର	-1549
▁ପ୍ରବେଶ	-1550
▁ପାରି	-1551
▁ଜାତି	-1552
▁ଲକ୍ଷ୍ମ	-1553
▁ପରୀକ୍ଷା	-1554
▁ହୁଅନ୍ତି	-1555
▁ବିଜୁ	-1556
ପେ	-1557
▁ପଞ୍ଜ	-1558
▁୨୦୧୩	-1559
▁ଅଳ୍ପ	-1560
▁ପାକି	-1561
▁ନିର୍ଦ୍ଦେଶକ	-1562
ଭର	-1563
▁ବଙ୍ଗଳା	-1564
ଳୁ	-1565
▁ଆସ	-1566
ଶୀଳ	-1567
▁ସେମାନଙ୍କ	-1568
ନ୍ୟାସ	-1569
କ୍ରମେ	-1570
▁ମୁଖ୍ୟତଃ	-1571
▁ଓଡ଼ିଶାରେ	-1572
▁ଥର	-1573
ସ୍ଥ୍ୟ	-1574
▁୧୯୨	-1575
el	-1576
▁ଯୋ	-1577
▁ଯିଏ	-1578
▁ଇଂ	-1579
▁ପ୍ରଚ	-1580
▁ପ୍ରାର୍ଥୀ	-1581
ଷି	-1582
▁ଜ୍ୟ	-1583
▁ନଭେମ୍ବର	-1584
▁ଗ୍ର	-1585
କରେ	-1586
▁ଇଞ୍ଜ	-1587
▁ଜନଗଣ	-1588
▁ବହୁତ	-1589
ଦାର	-1590
ଙ୍କଠାରୁ	-1591
ଷ୍ୟ	-1592
ଇଂରାଜୀ	-1593
▁ତ୍ରି	-1594
▁ଆନ୍ଦୋ	-1595
ପ୍ଟେମ୍ବର	-1596
ବାସୀ	-1597
▁ଜିଲ୍ଲାରେ	-1598
ବତୀ	-1599
ଦିତ	-1600
▁ଇନ	-1601
ୃତ୍ତ	-1602
▁ଆମେରି	-1603
▁ଅଧ୍ୟ	-1604
▁କରିବାର	-1605
▁ଜଙ୍ଗ	-1606
▁ଭୋଗ	-1607
▁ଇଣ୍ଡିଆ	-1608
▁ସମାନ	-1609
ଦେଇ	-1610
ସ୍ପ	-1611
▁ଆଇନ	-1612
▁ପ୍ରତିଷ୍ଠା	-1613
ତାରେ	-1614
▁ନିମ୍ନ	-1615
▁ସମୁଦ୍ର	-1616
▁ଘୋଷ	-1617
▁ହର	-1618
▁ପିଲ	-1619
ୃତୀୟ	-1620
ୈତିକ	-1621
tr	-1622
▁ସେପ୍ଟେମ୍ବର	-1623
ଯାୟୀ	-1624
ଦେଶର	-1625
ଳର	-1626
▁ଜନଗଣନା	-1627
▁ବ୍ୟବସ୍ଥା	-1628
ଥ୍ୟ	-1629
▁ବଂଶ	-1630
ଉଣ୍ଡ	-1631
▁ସଭାରେ	-1632
ol	-1633
▁ବୟସ୍କ	-1634
▁ଅଭିନେତା	-1635
▁ଢ	-1636
▁କାର୍	-1637
▁ରାଜ୍ୟର	-1638
ଟ୍ୟ	-1639
▁ପିତା	-1640
▁ପରିଚିତ	-1641
▁ଅନ୍ତର୍ଭ	-1642
▁ସ୍ୱାସ୍ଥ୍ୟ	-1643
▁ଅପେ	-1644
▁ଶା	-1645
▁କୃ	-1646
ଦର୍ଶନ	-1647
▁୨୦୧୬	-1648
▁ଗର୍	-1649
ଫେ	-1650
ରତା	-1651
▁ତାମ	-1652
▁ମନ୍ତ୍ରୀ	-1653
▁ସ୍ୱତନ୍ତ୍ର	-1654
ମନ	-1655
ସାର	-1656
ଜୀବ	-1657
ବରଣ	-1658
▁ଗର୍ଭ	-1659
▁ହୃ	-1660
୨୦୦	-1661
▁ଅବସ୍ଥା	-1662
ଶୁଣା	-1663
ପ୍ରା	-1664
ାଜିକ	-1665
▁ସାଇ	-1666
ଦ୍ରା	-1667
ur	-1668
▁ଆମେରିକାରେ	-1669
ଲର	-1670
ିନେ	-1671
▁ଡେ	-1672
ଭାରତ	-1673
ଯ୍ୟା	-1674
▁ପ୍ରକାରର	-1675
▁ଯେତେବେଳେ	-1676
ଆଇ	-1677
ସ୍ର	-1678
▁ଆଫ	-1679
୍ୟାନ	-1680
ନ୍ତ୍ରଣ	-1681
▁ଯେପରି	-1682
▁ଚିହ୍ନ	-1683
▁ରୋଗୀ	-1684
▁ପୁତ୍ର	-1685
▁ସ୍ଥି	-1686
▁ଫେବୃ	-1687
ୂର୍ଣ୍ଣ	-1688
ପୀ	-1689
▁ହୋଇଯାଏ	-1690
▁ପାଖରେ	-1691
00	-1692
▁ଭେ	-1693
ଗୁଡିକ	-1694
▁ଉତ୍କଳ	-1695
ମନ୍ତ୍ରୀ	-1696
▁ବ୍ରହ୍ମ	-1697
▁୨୦୧୨	-1698
ch	-1699
▁ଅନ୍ତର୍ଗତ	-1700
▁ଅନ୍ତର୍ଭୁକ୍ତ	-1701
▁କ୍ୟା	-1702
▁ପୁଣି	-1703
▁କଲେଜ	-1704
▁ରାଜନ	-1705
▁ସନ୍ତ	-1706
▁ଏସିଆ	-1707
▁ଅପେକ୍ଷା	-1708
ଜିତ	-1709
▁ଜଣାଶୁଣା	-1710
ରୋ	-1711
ୁରୀ	-1712
▁ଦର୍ଶନ	-1713
▁ଅଷ୍ଟ	-1714
▁ସାମାଜିକ	-1715
ୋଜନ	-1716
ାନରେ	-1717
▁ମାର୍	-1718
▁ବାପାଙ୍କ	-1719
▁ଶ୍ୱ	-1720
ଦ୍ୟାଳୟରେ	-1721
▁ତଥ୍ୟ	-1722
▁ଅଭିନେତ୍ରୀ	-1723
▁ତୃତୀୟ	-1724
▁ଠ	-1725
▁ଜଗତରେ	-1726
▁ଫିଲ୍ମ	-1727
▁ବିଶିଷ୍ଟ	-1728
▁ସବୁଠାରୁ	-1729
▁ପରିମାଣ	-1730
ହନ୍ତି	-1731
▁ପ୍ରାଚୀନ	-1732
▁ଫି	-1733
▁ମ୍ୟା	-1734
▁ପ୍ରକାଶିତ	-1735
ାରମ୍ଭ	-1736
▁ସହା	-1737
▁ଅନୁଯାୟୀ	-1738
▁b	-1739
▁୨୦୦୪	-1740
ଷଣ	-1741
▁ପ୍ରସି	-1742
ାନି	-1743
▁ସୁଦ୍ଧା	-1744
▁ଅଣ	-1745
▁କିଲୋମିଟର	-1746
ମେଣ୍ଟ	-1747
୧୮	-1748
▁ଷ	-1749
▁ରହିଥାଏ	-1750
ମ୍ମ	-1751
▁ତି	-1752
ପୂର୍ବ	-1753
ଚନ୍ଦ୍ର	-1754
▁ଠାକୁ	-1755
ଆରୀ	-1756
▁ଐ	-1757
▁ଅମ	-1758
▁m	-1759
▁ବିରୋଧ	-1760
ଯିବା	-1761
▁ପ୍ରଯ	-1762
ଗ୍ରହ	-1763
ଶ୍ୱର	-1764
▁ସେଥିରୁ	-1765
ସିକ	-1766
▁of	-1767
▁ସକ୍ରିୟ	-1768
od	-1769
ସନ୍	-1770
୍ଲୋ	-1771
ଏଡ	-1772
▁ଉତ୍ପାଦ	-1773
▁ବିଦ୍ୟାଳୟ	-1774
▁ଗୃହ	-1775
ାମାନେ	-1776
▁ମଣି	-1777
▁ପରିଚାଳ	-1778
▁ଦେଲେ	-1779
▁ଅନୁଷ୍ଠିତ	-1780
ତ୍ତି	-1781
▁ଜୁନ	-1782
▁ବିଜୟ	-1783
ଘର	-1784
▁ନୂତନ	-1785
▁ସର୍ବା	-1786
▁ଦୀର୍ଘ	-1787
▁ଆମେରିକୀୟ	-1788
▁ପ୍ରାପ୍ତ	-1789
▁ପ୍ରୟ	-1790
▁ଗଠନ	-1791
▁ବ୍ୟବସାୟ	-1792
ଦରେ	-1793
▁୫୦	-1794
▁୨୦୧୦	-1795
▁ଗୁମ୍	-1796
▁ଭକ୍ତ	-1797
▁ପ୍ରତିଯୋଗ	-1798
os	-1799
ନ୍ଦୁ	-1800
▁କାର୍ଯ୍ୟକ୍ରମ	-1801
▁ବଦ	-1802
▁ଭୂମ	-1803
▁ସଙ୍କଟ	-1804
▁ସୌ	-1805
▁ସ୍ତର	-1806
ଜୁ	-1807
୭ରେ	-1808
▁ମାଂସ	-1809
ୟମ	-1810
ମତା	-1811
▁ଲୋ	-1812
ନ୍ଦନ	-1813
um	-1814
▁ମାଧ୍ୟମରେ	-1815
▁ପୀ	-1816
▁ଶାସନ	-1817
ଷ୍କ	-1818
▁ପ୍ରସ୍ତ	-1819
▁ଫେବୃଆରୀ	-1820
▁ସରକାରୀ	-1821
ସିନ	-1822
ଦିଷ୍ଟ	-1823
il	-1824
▁ବିମାନ	-1825
▁ବୁଝ	-1826
▁ବିଚାର	-1827
ଞ୍ଜନ	-1828
▁ବାସ	-1829
ଦ୍ୟୁ	-1830
▁ମାତ	-1831
▁ଲୋକଙ୍କ	-1832
em	-1833
ଶ୍ରୀ	-1834
କର୍ତ୍ତ	-1835
୧୦	-1836
▁P	-1837
▁୨୦୦୦	-1838
▁ଯୁକ୍ତରାଷ୍ଟ୍ରରେ	-1839
ର୍ଡ	-1840
ାବେ	-1841
▁ଆମ	-1842
▁ପଣ୍ଡା	-1843
ସଲ	-1844
▁ଥାଇ	-1845
▁ଇଂରାଜୀ	-1846
▁ଆଶ	-1847
ଳ୍ପୀ	-1848
▁ଏସ	-1849
ଗ୍	-1850
ଡୁ	-1851
▁ମନ୍ଦିରର	-1852
▁କଳ	-1853
ଣ୍ଟର	-1854
▁ପ୍ରଜାତି	-1855
▁ହେଇଥିଲା	-1856
ସିଂହ	-1857
▁ନିଆ	-1858
▁ସତ୍ୟ	-1859
▁କରିବାରେ	-1860
▁ଆଣ୍ଟ	-1861
▁ଯାହାର	-1862
▁ଖ୍ରୀଷ୍ଟ	-1863
▁ଅନ୍ୟତମ	-1864
ବକ	-1865
▁ସାଂ	-1866
▁୧୯୯୦	-1867
▁ଶିକାର	-1868
▁ଘଟି	-1869
ମାରୀ	-1870
▁ପୁଅ	-1871
▁ତାପ	-1872
୮ରେ	-1873
▁ଦାୟ	-1874
ec	-1875
ter	-1876
▁ବିଷୟ	-1877
▁ସମ୍ବନ୍ଧ	-1878
ୁନିକ	-1879
▁M	-1880
ସ୍ତ୍ର	-1881
ଣରେ	-1882
▁ତାର	-1883
▁ମୁଖ	-1884
▁ଅଙ୍ଗ	-1885
▁ଲେଖକ	-1886
▁ରହିଥିଲା	-1887
ଖିତ	-1888
▁ଲୋକପ୍ରିୟ	-1889
ul	-1890
▁ଜ୍	-1891
କ୍ଷିତ	-1892
▁ଖେଳି	-1893
▁ଗୁଡ଼ିକ	-1894
▁କ୍ରିକେଟ	-1895
▁ଜୁ	-1896
▁ଶ୍ର	-1897
ଚା	-1898
ବାଦୀ	-1899
▁ପର୍	-1900
▁ସମ୍ଭାବ	-1901
▁କରୁଛନ୍ତି	-1902
▁ଜ୍ଞ	-1903
ଡ଼ିତ	-1904
କ୍ରିୟା	-1905
ଜ୍ଜ	-1906
un	-1907
▁ଉପଲ	-1908
▁ରଖା	-1909
▁ପକ୍ଷୀ	-1910
▁ଶ୍ରେଣୀ	-1911
ାଳୟ	-1912
▁ସେତେବେଳେ	-1913
▁ସାର	-1914
▁ଦର୍ଶ	-1915
▁ବ୍ଲ	-1916
▁ଦୃଷ୍ଟି	-1917
▁ପଞ୍ଜାବ	-1918
▁ଯୌ	-1919
ରୁଦ୍ଧ	-1920
▁ଚର୍ମ	-1921
▁ପ୍ରଦର୍ଶନ	-1922
ଧର	-1923
ମନ୍ଦିର	-1924
▁ଅଫ୍	-1925
▁ଜେନ	-1926
▁ମହାରା	-1927
▁ଉତ୍ସବ	-1928
୍ରୋମ	-1929
▁ପ୍ରତିକ୍ରିୟା	-1930
ାନ୍ସ	-1931
▁ଗୌ	-1932
▁ପରମ୍ପ	-1933
▁19	-1934
▁ଫୁଲ	-1935
ଠୀ	-1936
ାବି	-1937
▁ପୃଥି	-1938
▁ବ୍ୟତୀତ	-1939
ପାରିବ	-1940
ାମାନଙ୍କ	-1941
▁ନନ୍ଦ	-1942
▁ଅନୁବାଦ	-1943
ୀପ	-1944
▁ପ୍ରସିଦ୍ଧ	-1945
▁ପାହା	-1946
ଏଲ	-1947
ାଟ	-1948
▁୨୪	-1949
କର୍ତ୍ତା	-1950
▁ଅଛନ୍ତି	-1951
▁ପାକିସ୍ତ	-1952
▁ଅସୁ	-1953
ନାରେ	-1954
▁ଖା	-1955
▁ପୁରୀ	-1956
ଆର	-1957
▁ନ୍ୟାୟ	-1958
▁ସର୍ବାଧିକ	-1959
ବିଶ	-1960
▁ସିଂ	-1961
▁ତରଳ	-1962
▁ସମ୍ପାଦ	-1963
▁ଉପର	-1964
େସନ	-1965
▁ସ୍କ	-1966
▁ଭୂମିକା	-1967
▁ପ୍ରାରମ୍ଭ	-1968
▁ମୂର୍ତ୍ତି	-1969
▁ବୌ	-1970
▁ଗତି	-1971
▁ନେଇଥିଲେ	-1972
▁ପ୍ରତ୍ୟେକ	-1973
ଫ୍	-1974
▁ଗାଁ	-1975
ଷ୍ଣୁ	-1976
▁ପୃଥିବୀ	-1977
▁ସଂସ୍କୃତି	-1978
ହର	-1979
ାଇଟିସ	-1980
▁ଦା	-1981
ia	-1982
▁ଝା	-1983
▁ଦିବସ	-1984
▁ପ୍ରମାଣ	-1985
▁ଦର	-1986
▁ଶୀ	-1987
ର୍ଦ୍	-1988
▁ବାୟୁ	-1989
▁ଜୀବା	-1990
▁କାଳରେ	-1991
କୀ	-1992
▁୨୧	-1993
▁ତାମିଲ	-1994
୧୯୯	-1995
ର୍ଦ୍ଧ	-1996
ୁଥିବା	-1997
▁ମୃତ୍ୟୁବରଣ	-1998
ଦର୍ଶ	-1999
▁ପାଞ୍ଚ	-2000
▁ଯାହାକି	-2001
▁ହୋ	-2002
▁ଦୁର୍ଗ	-2003
▁ଆନ୍ଦୋଳନ	-2004
▁ସାକ୍ଷରତା	-2005
▁ମହାବିଦ୍ୟାଳୟ	-2006
ାମା	-2007
▁ଭୋଟ	-2008
▁ଫଳ	-2009
▁୦	-2010
▁ଦୈ	-2011
ୋତି	-2012
ନିଆ	-2013
▁ଭାଗରେ	-2014
▁ଆନ୍ତ	-2015
ର୍ଜାତୀୟ	-2016
▁ଚୁ	-2017
▁ରହେ	-2018
▁ଗର୍ଭାବ	-2019
▁ମୌ	-2020
ନନ୍ଦ	-2021
▁ମିଟର	-2022
ve	-2023
ଟୋ	-2024
ସ୍ତି	-2025
▁କେଶ	-2026
▁ବନ	-2027
▁ଏବେ	-2028
ବାହିକ	-2029
ମ୍ବାଇ	-2030
▁ଅବସର	-2031
▁in	-2032
▁ଟା	-2033
▁ମସିହାରୁ	-2034
କ୍ଷେ	-2035
ଥିବାର	-2036
▁ବର୍ଗ	-2037
ଜଣ	-2038
▁ଟାଇ	-2039
▁ଦିଲ୍ଲୀ	-2040
ମଣ୍ଡ	-2041
▁ଗୁଣ	-2042
ଅମ	-2043
▁ସୁନ୍ଦର	-2044
tic	-2045
▁ଅକ୍ଷ	-2046
▁ମାନବ	-2047
▁ରାଜଧାନ	-2048
▁ଦେଉ	-2049
▁ନାରାୟଣ	-2050
ଗଲେ	-2051
ପାନ	-2052
▁ଫେରି	-2053
▁ସ୍ଥାନୀୟ	-2054
▁କ୍ରୀ	-2055
ଭୂମି	-2056
▁ହେଉଛନ୍ତି	-2057
▁ମାସରେ	-2058
▁ଗାନ୍ଧୀ	-2059
▁ଚକ୍ର	-2060
▁ବୌଦ୍ଧ	-2061
▁ଡିଗ୍ରୀ	-2062
ରେଶ	-2063
▁ଆକାରରେ	-2064
▁ସଂଗ୍ରାମ	-2065
ଲିକ	-2066
▁ଗ୍ରୀ	-2067
▁ଆଧୁନିକ	-2068
ବ୍ଧ	-2069
▁ଆକାଶ	-2070
୍ରାହ୍ମ	-2071
▁ହେବାର	-2072
ର୍ସ	-2073
▁ପକ	-2074
▁କଲା	-2075
▁ଥରେ	-2076
▁ପତ୍ନୀଙ୍କ	-2077
▁ଚିନ୍ତ	-2078
▁ସାହୁ	-2079
▁ଭଗବାନ	-2080
▁ହାରଠାରୁ	-2081
ଖର	-2082
୧୨	-2083
▁ଅପ୍ରେଲ	-2084
ବଣ	-2085
୍ରୟ	-2086
▁ନେତ	-2087
▁କରାଗଲା	-2088
▁ମୁମ୍ବାଇ	-2089
▁ମାଇ	-2090
▁ସ୍କୁଲ	-2091
▁ସ୍ଟ	-2092
▁f	-2093
▁ପଥର	-2094
୧୫	-2095
▁କଂଗ୍ରେସର	-2096
ଦିଆ	-2097
▁ରେଳ	-2098
▁ରାଜଧାନୀ	-2099
▁୨୨	-2100
▁୨୭	-2101
▁ଦେଶର	-2102
▁୨୦୨୦	-2103
▁ବୟସରୁ	-2104
▁th	-2105
▁ରହୁ	-2106
▁କ୍ଷୁଦ୍ର	-2107
ାଇଡ	-2108
▁ୟୁର	-2109
▁ରହିଥିବା	-2110
ଣୀର	-2111
▁ଅଭାବ	-2112
୧୯୮	-2113
▁ଚୀନ	-2114
▁ସମୁ	-2115
▁T	-2116
▁୧୯୮୦	-2117
▁ସୁରକ୍ଷା	-2118
▁ପରା	-2119
▁ଉପନ୍ୟାସ	-2120
▁ମିଳିଥିଲା	-2121
▁ସମ୍ପୂର୍ଣ୍ଣ	-2122
▁ସ୍ମ	-2123
▁ଦୂରରେ	-2124
ଶିଳ୍ପୀ	-2125
ଟିଳ	-2126
୍ୟାସ	-2127
▁ବିଷ୍ଣୁ	-2128
ଯିବ	-2129
ସ୍ଥିତି	-2130
ଙ୍ଗୁ	-2131
▁ବ୍ରାହ୍ମ	-2132
▁ସଂର	-2133
ସାବ	-2134
▁ମାମ	-2135
▁ଆଲୋକ	-2136
▁ବହି	-2137
ତିହାସିକ	-2138
▁ସପ୍ତାହ	-2139
ତ୍ତର	-2140
▁ଠାକୁର	-2141
ଣିକ	-2142
ନାନ	-2143
▁ବିଜେ	-2144
▁ତାହାର	-2145
▁ବୃହ	-2146
▁ମଧୁ	-2147
▁ସ୍ୱାମୀ	-2148
▁ଧାରାବାହିକ	-2149
ାସନ	-2150
▁ଧାରଣ	-2151
▁ଗଜ	-2152
▁ଜଟିଳ	-2153
▁ସେନା	-2154
ର୍ମାନ	-2155
▁ଚରି	-2156
▁ଆତ୍ମ	-2157
▁ଖର୍ଚ୍ଚ	-2158
ାତ୍ରୀ	-2159
▁ପାରମ୍ପ	-2160
ine	-2161
ନ୍ତୀ	-2162
୧୪	-2163
ଚାପ	-2164
▁ସରକାରଙ୍କ	-2165
ହରଣ	-2166
ଢ଼ା	-2167
ଲୋକ	-2168
▁ୱେ	-2169
ଦେବୀ	-2170
▁ଆଖି	-2171
▁ଖାଇ	-2172
▁ଜ୍ୟୋତି	-2173
ଥରେ	-2174
▁ପ୍ରତିନି	-2175
▁ଫା	-2176
▁ବାବ	-2177
▁ବିହାର	-2178
୬ରେ	-2179
▁ସୈ	-2180
ଥେ	-2181
ଟରେ	-2182
ହନ	-2183
▁ଯଥାକ୍ରମେ	-2184
ir	-2185
ent	-2186
▁ପଡ଼	-2187
▁ଯୋଜନା	-2188
ph	-2189
▁ମଙ୍ଗ	-2190
▁ତାକୁ	-2191
▁ତାଲ	-2192
ରାଧ	-2193
▁ଦେଶରେ	-2194
ପ୍ରେ	-2195
▁ପରିଷ	-2196
▁ଉପଲବ୍ଧ	-2197
ଫରୁ	-2198
▁ଆଣି	-2199
▁ବିଧାୟକ	-2200
▁ଯାହାକୁ	-2201
ଜାତ	-2202
▁ଏନ	-2203
ଢ଼ିଥିଲେ	-2204
ଙ୍କାର	-2205
▁ତାରିଖ	-2206
ଖଣ୍ଡ	-2207
▁ଯାଉ	-2208
▁ମଠ	-2209
▁ସଂସ୍ଥା	-2210
▁୨୩	-2211
▁ଗବେଷଣା	-2212
he	-2213
ଭଳି	-2214
ାପା	-2215
ଗିରି	-2216
▁ଶାସ୍ତ୍ର	-2217
▁%	-2218
ଙ୍ଗି	-2219
ପତ୍ର	-2220
▁ସିଣ୍ଡ	-2221
▁ଆସୁ	-2222
▁ମାଆ	-2223
▁ପୁରାତନ	-2224
and	-2225
ାର୍ଡ	-2226
▁ସିଦ୍ଧ	-2227
▁ହିସାବ	-2228
▁ବନ୍ଧୁ	-2229
୍ମା	-2230
▁ସମୁଦାୟ	-2231
▁୨୮	-2232
▁ପଦକ	-2233
▁କରାଯାଇପାରେ	-2234
ର୍ଷଣ	-2235
▁ଏକ୍ସ	-2236
▁ସ୍ୱୀ	-2237
ମିଆ	-2238
ସ୍ତା	-2239
▁ତରଫରୁ	-2240
▁୨୦୨୧	-2241
▁୧୦୦	-2242
ବିନ୍ଦ	-2243
▁ପୂର୍	-2244
▁ପୃଷ୍ଠ	-2245
▁ଉଇ	-2246
ଭକ୍ତ	-2247
ad	-2248
ଳାପ	-2249
▁ସଂଗଠ	-2250
▁ବାଇ	-2251
▁ଏମାନେ	-2252
▁କରିଛି	-2253
▁କର୍ମକର୍ତ୍ତା	-2254
▁ଋତୁ	-2255
▁କ୍ୱ	-2256
▁ପରିଣ	-2257
▁ଘୋଷଣା	-2258
▁୨୬	-2259
▁ଓଜନ	-2260
▁ପିଲା	-2261
ବିଦ୍ୟାଳୟରେ	-2262
ପନ	-2263
▁ନିର୍ଦ୍ଦିଷ୍ଟ	-2264
▁D	-2265
▁B	-2266
▁ଜୀବାଣୁ	-2267
▁ସ୍ଥାପନ	-2268
▁ଶତାବ୍ଦୀର	-2269
ୟୁତ	-2270
ନ୍ଧା	-2271
▁କଳାକାରମାନେ	-2272
ଦୟ	-2273
▁ସ୍ନାତକ	-2274
▁ଚୌ	-2275
▁ଜିତି	-2276
▁ଦଣ୍ଡ	-2277
▁ଅଶ	-2278
ଟନ	-2279
କ୍ଷମ	-2280
▁ଯକୃତ	-2281
▁ଶତାବ୍ଦୀରେ	-2282
▁ଆବି	-2283
▁ଜମି	-2284
▁ମୁଁ	-2285
ରମ	-2286
▁ତତ୍	-2287
▁ତିନ	-2288
▁ମନ୍ଦିରରେ	-2289
ଲୁଗୁ	-2290
▁କନ୍ୟା	-2291
ବାହିତ	-2292
▁ଆଘାତ	-2293
କଂଗ୍ରେ	-2294
▁ସଂଖ୍ୟ	-2295
▁କ୍ଲ	-2296
ବିଧାନ	-2297
▁ଲୋକଙ୍କୁ	-2298
▁ପ୍ରଯୋଜନା	-2299
୫୦	-2300
▁ବିର	-2301
▁୨୦୧୭	-2302
କଂଗ୍ରେସ	-2303
▁ଜୋ	-2304
ତାଣୁ	-2305
▁୧୯୯୫	-2306
▁ଜ୍ଞାନ	-2307
▁ତୋ	-2308
▁ଦ୍ର	-2309
ବଲପୁର	-2310
▁ଟିକା	-2311
▁ହ୍ରାସ	-2312
▁ସନ୍ତାନ	-2313
▁ନିୟନ୍ତ୍ରଣ	-2314
▁ମାନସିକ	-2315
ୂଳ	-2316
ରିତ	-2317
ରିଆରେ	-2318
▁ଧୀରେ	-2319
▁ରକ୍ତଚାପ	-2320
ନୋ	-2321
▁ଜୈ	-2322
▁କହିଥିଲେ	-2323
▁ସେମାନଙ୍କର	-2324
▁ଗ୍ରାମରେ	-2325
ଚର	-2326
ରାୟ	-2327
▁ଘରେ	-2328
▁ପରିବେଶ	-2329
▁ଅନୁଭବ	-2330
ପ୍ରି	-2331
▁ଅଲି	-2332
▁ଅଲଗା	-2333
▁ନିଜେ	-2334
ସ୍ରାବ	-2335
▁କେହି	-2336
▁ଶୁକ୍	-2337
ୋଜି	-2338
▁ଇଞ୍ଜେକ	-2339
ାଲୋ	-2340
ାନନ୍ଦ	-2341
▁ଦିଗରେ	-2342
ସିସ୍	-2343
ଜରେ	-2344
ଟର୍	-2345
ଟିକ	-2346
▁ଦିଗ	-2347
▁କମ୍ପାନୀ	-2348
ଏକ	-2349
ସରେ	-2350
ପକ୍ଷ	-2351
ିକାଲ	-2352
▁ବେଳକୁ	-2353
▁ଜଣାଯାଏ	-2354
▁ସର୍ବୋ	-2355
ଫୋ	-2356
୧୭	-2357
▁ସାତ	-2358
▁ଲୋକଙ୍କର	-2359
କ୍କ	-2360
ବାଇ	-2361
▁ଚେଷ୍ଟା	-2362
ମୋନ	-2363
୨ରେ	-2364
▁ଜାଗ	-2365
▁ସଂସ	-2366
▁ମାତା	-2367
ଉଣୀ	-2368
ମତି	-2369
▁ଗଳ୍ପ	-2370
▁ମାନଙ୍କ	-2371
ବଂଶ	-2372
▁ସଂକ	-2373
▁୨୦୦୫	-2374
ଂରାଜୀରେ	-2375
କ୍ରାନ୍ତ	-2376
et	-2377
▁ଛାତ୍ର	-2378
୧୩	-2379
ମୋହନ	-2380
▁ପ୍ରୋ	-2381
▁ଅନୁମୋ	-2382
▁ଶୈଳୀ	-2383
ୃଷ୍ଟ	-2384
▁ପାନ	-2385
▁ଦ୍ରା	-2386
▁ପରମ୍ପରା	-2387
▁ଯେପରିକି	-2388
▁କାନ୍	-2389
▁ଏମାନଙ୍କ	-2390
ସ୍କୃତ	-2391
▁ସମର୍ଥ	-2392
ଦେଶରେ	-2393
▁ଦ୍ୱାର	-2394
ଲ୍ୟା	-2395
▁ବିରୁଦ୍ଧ	-2396
▁ସଂଯୁକ୍ତ	-2397
▁ପଛ	-2398
▁ଜଙ୍ଗଲ	-2399
▁ସୂଚନା	-2400
▁କାରଣରୁ	-2401
ିଶୋର	-2402
କ୍ଷାଂଶ	-2403
ag	-2404
▁ନୀତି	-2405
▁ମହାପ୍ର	-2406
▁ଅକ୍ଷାଂଶ	-2407
ଲାଇ	-2408
ମାତ୍ର	-2409
▁ମଣିଷ	-2410
▁ସମ୍ଭାବନା	-2411
ାଲୁ	-2412
▁ବାହାରି	-2413
▁ସମ୍ବଲପୁର	-2414
▁ରାଷ୍ଟ୍ରପତି	-2415
ଲିସ	-2416
▁ଚାପ	-2417
▁କହିଲେ	-2418
ାୟିକା	-2419
▁ବୃତ୍ତ	-2420
ଦିକ	-2421
ଚ୍ଛା	-2422
▁କ୍ରି	-2423
▁ଉଦ୍ଦେଶ	-2424
▁ଚରିତ୍ର	-2425
▁ପ୍ରୟୋଗ	-2426
▁ଥି	-2427
▁ସହାୟ	-2428
କୃତିକ	-2429
▁୨୦୧୮	-2430
▁ଦ୍ରାଘ	-2431
▁ପ୍ରାଥ	-2432
ାୟତ	-2433
▁ପ୍ରେମ	-2434
▁ବିସ୍ତ	-2435
▁ଶ୍ରୀମନ୍ଦିର	-2436
▁ପ୍ରଦାହ	-2437
▁ଐତିହାସିକ	-2438
ଚାର୍ଯ୍ୟ	-2439
ପିତ	-2440
ର୍ମା	-2441
ଆଁ	-2442
ଚଳ	-2443
ଚରଣ	-2444
▁ଅବସ୍ଥାରେ	-2445
ାବ୍ୟ	-2446
▁ଅଧିକାରୀ	-2447
▁ସିଣ୍ଡ୍ରୋମ	-2448
▁ରାଉ	-2449
▁ମିଶି	-2450
ସୋ	-2451
ିମା	-2452
▁ଦାୟିତ୍ୱ	-2453
▁ବସି	-2454
▁l	-2455
▁ବଜ	-2456
▁ନୀଳ	-2457
▁ବାମ	-2458
▁ନିୟୁତ	-2459
▁ସଙ୍ଗେ	-2460
▁ଦୁର୍	-2461
▁ରଙ୍ଗର	-2462
▁ପ୍ରାଣୀ	-2463
▁ପଣ୍ଡ	-2464
▁ରଚିତ	-2465
▁ସେଥିରେ	-2466
ରାଟ	-2467
▁କର୍	-2468
▁କଲିକ	-2469
▁ବିଦ୍ୟୁ	-2470
ଛା	-2471
ନୀୟ	-2472
୍ଲେ	-2473
ନ୍ଧାନ	-2474
▁ଆଣ୍ଡ	-2475
▁୪୦	-2476
▁ଗୁମ୍ଫା	-2477
ଡୋ	-2478
ଙ୍ଖ	-2479
ଷ୍ପ	-2480
▁ଚାଷ	-2481
ିମାରେ	-2482
▁ଡାକ୍ତରୀ	-2483
▁ପ୍ରସ୍ତାବ	-2484
ଯାତ୍ରା	-2485
▁ପ୍ରସାଦ	-2486
▁ଲକ୍ଷ୍ମୀ	-2487
ିକୋ	-2488
ଯାଇପାରେ	-2489
ୋଜିତ	-2490
ରେନ୍ଦ୍ର	-2491
ସାରି	-2492
▁ଓଡ଼ିଶୀ	-2493
▁ପ୍ରାଥମିକ	-2494
▁ନଷ୍ଟ	-2495
୧୧	-2496
ସ୍ରା	-2497
ଲେକ୍ଟ	-2498
▁୧୯୯୯	-2499
▁ଜର୍ମାନ	-2500
ାଳା	-2501
▁ସଂଘ	-2502
▁ଅଧୀନ	-2503
▁ରକ୍ଷା	-2504
▁ସୁବିଧା	-2505
▁୨୯	-2506
▁ଅତ୍ୟଧିକ	-2507
▁ସମ୍ମାନିତ	-2508
▁ସେମାନଙ୍କୁ	-2509
▁ପଦ୍ଧ	-2510
to	-2511
ମ୍ଭୀର	-2512
▁ସିନେ	-2513
େନ୍ଦ୍ର	-2514
▁ଅଧ୍ୟୟନ	-2515
▁ଜରିଆରେ	-2516
▁ମାଛ	-2517
ଣ୍ଡରେ	-2518
▁ଲିଖିତ	-2519
ିଆର	-2520
▁ଜାପ	-2521
ନାଟ୍ୟ	-2522
▁ଲିଙ୍ଗ	-2523
▁ଉତ୍ପାଦନ	-2524
▁ପେଟ	-2525
▁ହତ୍ୟା	-2526
ାଗୁ	-2527
▁ଜ୍ୱର	-2528
▁ଭିତର	-2529
▁ଯଦିଓ	-2530
▁ଅନୁଷ୍ଠାନ	-2531
▁ବିରୁଦ୍ଧରେ	-2532
ୱା	-2533
ess	-2534
▁ହୃତ	-2535
▁ପହଞ୍ଚି	-2536
▁ଗୁରୁତ୍ୱ	-2537
▁ରାଜନୈତିକ	-2538
..	-2539
ହଁ	-2540
▁ଘଟଣା	-2541
▁ପ୍ରଚାର	-2542
▁ଗୁଜ	-2543
ମସି	-2544
ମ୍ବେ	-2545
▁୧୯୦	-2546
▁ରହିବା	-2547
ig	-2548
▁ପୋଷ	-2549
▁ସାରା	-2550
▁୧୯୮୫	-2551
▁ଟୁ	-2552
▁ଶକ୍ତ	-2553
▁ମିଳିତ	-2554
▁ଆମେରିକା	-2555
ାତ୍ମ	-2556
▁୧୯୭୧	-2557
▁ପୁରାଣ	-2558
▁ସଂସ୍କୃତ	-2559
ଟୁ	-2560
ପେଶ	-2561
▁ପର୍ବତ	-2562
▁ସ୍ୱରୂପ	-2563
ୃତ୍ୱ	-2564
▁ମୁକ୍ତ	-2565
▁କରିପାରି	-2566
ଷ୍ମ	-2567
▁ଥା	-2568
▁ପବ	-2569
▁କଷ୍ଟ	-2570
▁ଘଣ୍ଟା	-2571
ଶୟ	-2572
▁ବିବେ	-2573
▁୨୦୦୮	-2574
▁ଆନନ୍ଦ	-2575
▁ତିନୋଟି	-2576
ସାଦ	-2577
▁ରେକ	-2578
▁ଟ୍ରେ	-2579
▁ବ୍ରାହ୍ମଣ	-2580
▁ଭୌ	-2581
ର୍ଡ଼	-2582
▁ଅରୁ	-2583
ଜ୍ଞାନିକ	-2584
▁ଫାଇ	-2585
▁ଲାଲ	-2586
▁କରାଇ	-2587
▁ଖେଳାଳି	-2588
▁କଣ	-2589
▁ହେତୁ	-2590
▁ପାଇଥିଲା	-2591
▁ରହିଥିଲେ	-2592
କୃତି	-2593
▁କ୍ଷମତା	-2594
▁ପ୍ରଭ	-2595
▁ଅବଦାନ	-2596
▁ସମ୍ଭବ	-2597
▁ପ୍ରତିରୋଧ	-2598
▁ଲେଖିଥିଲେ	-2599
ଯାଇଥିବା	-2600
▁ମାନ୍ୟତା	-2601
▁ଶୀତ	-2602
▁ବାଲେ	-2603
▁କର୍ମୀ	-2604
ଟ୍ର	-2605
ଟିକୁ	-2606
ଲିଙ୍ଗ	-2607
▁ଗର୍ଭାବସ୍ଥାରେ	-2608
▁ସମୂ	-2609
▁ନର	-2610
▁ମୋହନ	-2611
▁ବିଶ୍ୱର	-2612
ଘୁ	-2613
ହୀନ	-2614
▁କଲରାପ	-2615
ଟାଲ	-2616
ାଧାରଣ	-2617
▁ଦ୍ୱୀପ	-2618
▁ସଂଗୀତ	-2619
▁ଦ୍ରାଘିମାରେ	-2620
ଦାସ	-2621
ବସ	-2622
▁ପାଉ	-2623
ରେଜ	-2624
▁ପ୍ରିୟ	-2625
▁କମ୍ପ୍ୟୁ	-2626
▁ଯୋଗା	-2627
ହେରା	-2628
▁ପଢ଼	-2629
ଅର	-2630
▁ଭଉଣୀ	-2631
▁ନିର	-2632
▁ଶୁକ୍ଳ	-2633
ୁମ	-2634
▁ଚରଣ	-2635
▁ହଜାର	-2636
▁ସାମ୍ରା	-2637
▁ସାମାନ୍ୟ	-2638
ଡିଓ	-2639
▁ଶୋ	-2640
▁ପାଦ	-2641
▁ସଭ୍ୟ	-2642
▁ସାଗର	-2643
▁ଜଡ଼ିତ	-2644
ନାର	-2645
ଫ୍ଟ	-2646
▁ପୌ	-2647
▁୨୦୦୭	-2648
▁ପ୍ରଭୁ	-2649
ବତ	-2650
▁ବସ୍ତୁ	-2651
▁ସାହାଯ୍ୟରେ	-2652
ଷ୍ଠୀ	-2653
▁ସମଗ୍ର	-2654
▁20	-2655
▁୧୯୭୭	-2656
▁ଅଞ୍ଚଳର	-2657
▁କାଶ	-2658
▁ଅଗ୍ର	-2659
▁ଅର୍ଥା	-2660
▁ଶେଷରେ	-2661
▁ଯାଇଥିଲେ	-2662
▁ଲୋକମାନେ	-2663
▁ସ୍ୱଳ୍ପ	-2664
ଘ୍ର	-2665
ତ୍ତମ	-2666
▁ସ୍ୱର୍ଣ୍ଣ	-2667
▁ହସ୍ତ	-2668
ସୂ	-2669
ଗ୍ରା	-2670
▁ମନୁ	-2671
▁ଯୁଗ	-2672
▁କଣ୍ଠଦାନ	-2673
▁ମାଂସପେଶ	-2674
▁ପୂଜ	-2675
▁ପରାମ	-2676
▁ଅସୁବିଧା	-2677
୧୬	-2678
▁ବାତ	-2679
▁କ୍ଷତି	-2680
୩୦	-2681
ନ୍ଦୀ	-2682
ପ୍ରାପ୍ତ	-2683
ap	-2684
ଭ୍	-2685
▁କରିବ	-2686
▁ମିନି	-2687
▁N	-2688
▁କାଠ	-2689
▁ବିନା	-2690
ାସ୍ତ୍ର	-2691
▁ଶିଳ୍ପ	-2692
ମାସ	-2693
▁ମହାନ	-2694
▁ପରାମର୍ଶ	-2695
▁ପରିଣତ	-2696
▁ଡାକ୍ତର	-2697
▁ବନ୍ଦର	-2698
▁R	-2699
▁ଯୌନ	-2700
ାତ୍ମକ	-2701
ଯୁକ୍ତି	-2702
ୋଳ	-2703
ନଳୀ	-2704
ାମିନ	-2705
▁ବିପଦ	-2706
▁ରାଣୀ	-2707
im	-2708
▁ଖବର	-2709
▁କେତେ	-2710
▁ଜାଣି	-2711
▁ହେଉଥିଲା	-2712
ଅଛି	-2713
▁ଚଉ	-2714
▁ରୂପରେ	-2715
▁ନିର୍ଭର	-2716
▁ପାର୍ଟିର	-2717
▁ଚିକିତ୍ସାରେ	-2718
▁କଥାଚିତ୍ରଟିରେ	-2719
ସମ	-2720
▁w	-2721
▁ସେବକ	-2722
▁ପୃଥିବ	-2723
▁ଦୂରଦର୍ଶନ	-2724
▁ପାରମ୍ପରିକ	-2725
ହାରି	-2726
▁ପାଟ	-2727
ପାଟ	-2728
▁ପାଣ୍ଡ	-2729
▁ପରାସ୍ତ	-2730
▁ଲକ୍ଷ୍ୟ	-2731
କୋଷ	-2732
▁ରଣ	-2733
ଚାରୀ	-2734
▁୨୦୦୬	-2735
▁ହଳ	-2736
▁ନିର୍ମ	-2737
▁H	-2738
ହୁଏ	-2739
▁୧୯୭୪	-2740
▁ସମାପ୍ତ	-2741
▁କଣ୍ଠଶିଳ୍ପୀ	-2742
ଦେଶୀ	-2743
ଧ୍ୟାନ	-2744
▁ବାପା	-2745
▁ଅପରେଶ	-2746
ଜାନ	-2747
ଲିମ	-2748
ାପାଖି	-2749
▁ତେଲୁଗୁ	-2750
▁ନେତୃତ୍ୱ	-2751
୩ରେ	-2752
▁ଲଗ	-2753
ାନ୍ଦ	-2754
▁କଳି	-2755
▁ବୈଜ୍ଞାନିକ	-2756
▁ବିଭକ୍ତ	-2757
▁ସ୍ନାନ	-2758
▁ପୃଥିବୀର	-2759
ାର୍କ	-2760
ିନିୟ	-2761
୍ଷିକ	-2762
ଦାହରଣ	-2763
▁ଦେବାକୁ	-2764
▁ହିସାବରେ	-2765
▁ପ୍ରାକୃତିକ	-2766
ଣିବା	-2767
ାନ୍ତର	-2768
▁ପବିତ୍ର	-2769
▁ପରିବାରର	-2770
▁କଥାଚିତ୍ରରେ	-2771
▁ଦେଶମାନଙ୍କରେ	-2772
ସବୁ	-2773
▁କର୍ଣ୍ଣ	-2774
▁ଗଭ	-2775
▁E	-2776
ଡିଆ	-2777
୧୯୭	-2778
▁ଦୂ	-2779
▁ଅଧି	-2780
▁ବୀର	-2781
▁ସ୍ଥଳ	-2782
▁ମସ୍ତି	-2783
▁ସ୍ତରରେ	-2784
ଷ୍ଟର	-2785
▁ଲାଇ	-2786
ୁଥିଲେ	-2787
▁ମାରି	-2788
▁ୟୁନି	-2789
▁୧୯୬୧	-2790
▁ପାଳିତ	-2791
▁ପରିଚାଳନା	-2792
▁ଉକ୍ତ	-2793
▁ସୁଯୋଗ	-2794
▁ପ୍ରକଳ୍ପ	-2795
▁ଆଡ	-2796
▁ଇଣ୍ଟର	-2797
ଲ୍ଲିକ	-2798
▁ଗଠିତ	-2799
▁ଯାଏଁ	-2800
▁ପରିବାରରେ	-2801
▁ଟେଷ୍ଟ	-2802
▁ତାହାକୁ	-2803
ସିଲ	-2804
ସ୍ମ	-2805
▁ପାତ୍ର	-2806
▁ପ୍ରତିବର୍ଷ	-2807
ସାଗ	-2808
େଟ୍	-2809
▁ନିୟମ	-2810
▁ପକାଇ	-2811
▁ଭାଷାର	-2812
ଯାଉଥିବା	-2813
▁ଚଳଚ୍ଚିତ୍ରର	-2814
ଶିତ	-2815
କ୍ରି	-2816
▁ଗୋଲ	-2817
▁ସଂଗ୍ରହ	-2818
▁ମହାପ୍ରଭୁ	-2819
▁ପୁନଃ	-2820
▁ପୁରୁ	-2821
▁ବାଲେଶ୍ୱର	-2822
ଥୀ	-2823
ରଣର	-2824
ାମୁ	-2825
ାରରେ	-2826
▁ଆଲୋ	-2827
▁ବାହାରେ	-2828
▁ଭୀ	-2829
▁ତଳେ	-2830
▁ଅଧ୍ୟା	-2831
ାୟା	-2832
▁ସ୍ତ୍ରୀ	-2833
ଚେ	-2834
ଡର	-2835
େତନ	-2836
▁ଅସ୍ଥି	-2837
▁ନିଯୁକ୍ତ	-2838
▁ହୋଇଥିବାରୁ	-2839
▁ଅଗ୍	-2840
▁ଇଂଲ	-2841
▁ଯିବା	-2842
ବୋ	-2843
▁ଈ	-2844
▁କନ	-2845
▁ଟେଲି	-2846
▁ବୁଦ୍ଧ	-2847
▁ଆଦ	-2848
▁ଆହୁ	-2849
▁ମତରେ	-2850
▁ଆନ୍ତର୍ଜାତୀୟ	-2851
ମ୍ଳ	-2852
▁ଟଙ୍କା	-2853
ଜଗ	-2854
▁ଅଭୟ	-2855
କ୍ଷେତ୍ର	-2856
▁ଦିଆଯାଇଥିଲା	-2857
▁the	-2858
▁ପ୍ରଣାଳୀ	-2859
ab	-2860
ଜୁନ	-2861
ବିକ	-2862
▁ପଶୁ	-2863
▁ନଦୀର	-2864
▁ବଢ଼ି	-2865
▁L	-2866
▁କୁକୁ	-2867
▁ମଞ୍ଚ	-2868
▁ବିଦ୍ୟା	-2869
ଯାନ	-2870
▁ଗଙ୍ଗ	-2871
▁ପ୍ଲା	-2872
▁ଉନ୍ନତି	-2873
▁ଭର	-2874
େଜ	-2875
▁ଗୀ	-2876
▁ପୀଠ	-2877
▁ଭଦ୍ର	-2878
▁ନାମିତ	-2879
ିତ୍ତ	-2880
▁ହ୍ରଦ	-2881
▁ସହଯୋଗ	-2882
▁ପ୍ରାରମ୍ଭିକ	-2883
",	-2884
ାଧିକ	-2885
▁ଆକ୍ରାନ୍ତ	-2886
▁କରାଯାଇଥିବା	-2887
▁ଅଜ	-2888
▁ତୀ	-2889
ିକ୍ସ	-2890
▁ଦୃଶ୍ୟ	-2891
ସନ୍ଦ	-2892
▁ହେବାକୁ	-2893
▁ଗୀତିକାର	-2894
▁ପାଖାପାଖି	-2895
ବିଜ	-2896
ପଡ଼ା	-2897
୍ରାଟ	-2898
▁ଧଳା	-2899
େରାପି	-2900
▁ଉଚିତ	-2901
▁ମାଟି	-2902
▁ଲମ୍ବା	-2903
ଏଚ	-2904
ବିଜ୍ଞାନ	-2905
▁ଆଦିବାସୀ	-2906
ଘାତିକ	-2907
▁ଆବିଷ୍	-2908
▁ସର୍ବୋଚ୍ଚ	-2909
ହିନୀ	-2910
▁ସମେତ	-2911
▁ବର୍ଷରୁ	-2912
▁ଯେଉଁଠାରେ	-2913
ଚୁ	-2914
ପଦ	-2915
▁ଗି	-2916
▁ଫ୍ର	-2917
▁୧୯୬୭	-2918
▁ଶ୍ୱାସ	-2919
▁ଉଦାହରଣ	-2920
▁ମୋର	-2921
▁ପରିଷଦ	-2922
▁ଅପରେଶନ	-2923
ଭାଇ	-2924
ଙ୍ଗର	-2925
▁ବଢ଼	-2926
▁ସଭାର	-2927
▁ନିଶ୍ଚ	-2928
▁ସୁବ	-2929
▁ରକ୍ତସ୍ରାବ	-2930
▁ପ୍ରଧାନମନ୍ତ୍ରୀ	-2931
▁ତଳ	-2932
▁ଛାଡ଼ି	-2933
▁ରଖିବା	-2934
▁ସଚ	-2935
▁୬୦	-2936
କମାନେ	-2937
ାବଣ	-2938
▁କୋଟି	-2939
▁ଅଭିନୀତ	-2940
▁ଯାଇଥିଲା	-2941
▁ଅଧୀନରେ	-2942
▁ଆଠ	-2943
▁ବୃକ୍କ	-2944
▁ଶେ	-2945
▁ଭିତ୍ତ	-2946
▁ଇଲେକ୍ଟ	-2947
▁ଅତ୍ୟନ୍ତ	-2948
▁କମ୍ପ୍ୟୁଟର	-2949
ଡ୍ର	-2950
▁ସମା	-2951
▁ଘୋ	-2952
▁ରତ୍ନ	-2953
▁ସୀମା	-2954
▁ଗ୍ରନ୍ଥ	-2955
▁ଆମେରିକାର	-2956
▁ବାନ୍ତି	-2957
▁ପ୍ରତିଷ୍ଠିତ	-2958
ଦେଲେ	-2959
ାଇନ୍	-2960
▁କ୍ୟ	-2961
▁ସମୟର	-2962
ver	-2963
▁୧୮୯	-2964
▁ହାରା	-2965
▁ପ୍ରକ୍ରିୟା	-2966
▁କୂ	-2967
▁ମୟ	-2968
▁ଶ୍ରୀଲ	-2969
▁ଶ୍ରେଣୀର	-2970
▁ପଠ	-2971
ାଦାନ	-2972
▁କାନ	-2973
▁ଔଷଧର	-2974
▁ପାଇବା	-2975
▁ବସନ୍ତ	-2976
▁ନଗର	-2977
ାନ୍ଧି	-2978
ୋମ	-2979
▁ଚିହ୍ନଟ	-2980
ଏମ	-2981
ଂସା	-2982
▁ଅହ	-2983
ମ୍ବଦ	-2984
▁ପାଉଣ୍ଡ	-2985
▁ବାର୍ଷିକ	-2986
▁ସାହିତ୍ୟିକ	-2987
ଝି	-2988
▁ବ୍	-2989
▁ସାବ	-2990
▁ଭୂମି	-2991
ep	-2992
▁ଏଇ	-2993
ହେବ	-2994
▁ଶିଖ	-2995
▁ବଜାର	-2996
▁ପ୍ରାଣ	-2997
▁ଥିବାରୁ	-2998
ଷେ	-2999
ର୍ବଳ	-3000
▁ଏସି	-3001
▁ସମୂହ	-3002
▁ଆଣ୍ଟି	-3003
▁ଆଧାରିତ	-3004
oc	-3005
▁ଭୟ	-3006
ଲାଲ	-3007
▁ନିଜକୁ	-3008
▁ପାର୍ଟି	-3009
ସଫୁ	-3010
ଚ୍ୟୁ	-3011
ହ୍ୟ	-3012
▁ଆହୁରି	-3013
▁ଉପଯୋଗ	-3014
▁ପାଟିରେ	-3015
▁ଅବର	-3016
▁ମୂଖ୍ୟ	-3017
▁ଉଚ୍ଚତା	-3018
୍ଲୁ	-3019
ନ୍ଦା	-3020
▁ଗାୟକ	-3021
ିକାରେ	-3022
▁ପ୍ରଦେଶ	-3023
▁ବିକଶିତ	-3024
▁ବିକ୍ରୟ	-3025
▁ପୂର୍ବତନ	-3026
▁ସାନ	-3027
nd	-3028
୍ପି	-3029
▁ସଫଳତା	-3030
▁ଆସିଥିଲେ	-3031
▁ବାଦ	-3032
▁ତତ୍କାଳୀନ	-3033
▁ହାରାହାରି	-3034
କ୍ସି	-3035
ସାରେ	-3036
▁ଦୁଃ	-3037
▁ଜନିତ	-3038
▁ଉତ୍ତମ	-3039
▁ନେପାଳ	-3040
▁ପ୍ରକୃତ	-3041
▁ଶିକ୍ଷକ	-3042
ଡ଼େ	-3043
ଥିକ	-3044
▁ଲୋକେ	-3045
ଢି	-3046
ନ୍ଧି	-3047
▁ଏକାଦ	-3048
▁ପିତାଙ୍କ	-3049
▁ପ୍ରଶିକ୍ଷ	-3050
▁ଗଜପତି	-3051
▁ବିବାଦ	-3052
▁dis	-3053
▁ରବି	-3054
କୋତ୍ତର	-3055
▁ଚନ୍ଦନ	-3056
▁ଚତୁର୍ଥ	-3057
▁ହୋଇଛନ୍ତି	-3058
ିଆନ	-3059
▁ପଣ୍ଡିତ	-3060
ୟିକ	-3061
▁ପ୍ରେସ	-3062
▁ମାଙ୍କ	-3063
▁ବେହେରା	-3064
▁ନେବା	-3065
▁କିଶୋର	-3066
▁ଅନୁମୋଦିତ	-3067
ion	-3068
ୟୋଟ	-3069
▁ଚାଳ	-3070
▁ଇଂରେଜ	-3071
▁ଶାନ୍ତି	-3072
ଏନ	-3073
ନାମ	-3074
ସାଇ	-3075
▁ଡିଜ	-3076
▁ଅନୁମାନ	-3077
▁ଇନ୍ଦ୍ର	-3078
ଇଁ	-3079
▁ଏମ	-3080
▁ଦଳରେ	-3081
▁୨୦୦୨	-3082
ାର୍ମିକ	-3083
▁ସ୍ପଷ୍ଟ	-3084
ହ୍	-3085
▁ଚୌଧ	-3086
▁୨୦୨୨	-3087
▁ଅବରୋଧ	-3088
▁ତରଙ୍ଗ	-3089
▁ମନୁଷ୍ୟ	-3090
ୀକରଣ	-3091
▁ବର୍ଷର	-3092
▁ପୁରୁଣା	-3093
▁ପ୍ରଚଳିତ	-3094
▁ବିଭାଗରେ	-3095
▁ଯୋଗ୍ୟତା	-3096
▁ଶ୍ରୀରାମ	-3097
▁ଇଞ୍ଜେକସନ	-3098
▁ହିମ	-3099
▁ଫୁସଫୁ	-3100
▁ସହରରେ	-3101
▁ସମ୍ବିଧାନ	-3102
▁F	-3103
▁ତୁଳ	-3104
▁ବ୍ରତ	-3105
▁ମୌଳିକ	-3106
▁ଯିଏକି	-3107
ଜଗନ୍ନାଥ	-3108
▁ସାମ୍ରାଜ୍ୟ	-3109
▁ବ୍ୟକ୍ତିଙ୍କ	-3110
ଚକ	-3111
ମ୍ବାର	-3112
▁ଉପସ୍ଥା	-3113
▁ମିଳିଥାଏ	-3114
▁ଯୁବ	-3115
▁ସ୍ୱୟ	-3116
▁୨୦୦୩	-3117
▁ପ୍ରଦର୍ଶ	-3118
ys	-3119
▁ମଡେ	-3120
୍ୟନ୍ତ	-3121
▁ବ୍ଲକ	-3122
▁ରାମାୟଣ	-3123
ure	-3124
▁ଚାର	-3125
▁ଧ୍ୱ	-3126
▁ଉପାୟ	-3127
▁ଏପ୍ରି	-3128
ପାରନ୍ତି	-3129
▁ପ୍ରଜାତିର	-3130
▁ସାଂଘାତିକ	-3131
▁ବିଶ୍ୱବିଦ୍ୟାଳୟରୁ	-3132
op	-3133
▁ମାସର	-3134
▁ପସନ୍ଦ	-3135
▁ପତ୍ରିକା	-3136
କ୍କା	-3137
▁ଅନ୍ଧ	-3138
▁ସମ୍ପର୍କରେ	-3139
କଳା	-3140
ଥାଇ	-3141
▁ସନ୍ଦ	-3142
▁ଧାର୍ମିକ	-3143
▁ଦାନ	-3144
▁ବାଣି	-3145
▁ତତ୍ତ୍ୱ	-3146
▁ଆଖ	-3147
▁ମହାକାଶ	-3148
କୀୟ	-3149
▁ଆଜି	-3150
▁ଉଦ୍ଭି	-3151
▁ଦେବତା	-3152
ାବଳୀ	-3153
▁୧୯୯୮	-3154
▁ସମାଲୋ	-3155
▁ଆକର୍ଷଣ	-3156
▁ଉଦ୍ୟାନ	-3157
▁ସ୍ତନ୍ୟ	-3158
▁ହୃତ୍ପି	-3159
▁ସ୍ଥାପିତ	-3160
ଗମ	-3161
ୋଧନ	-3162
▁ଅଦ	-3163
କ୍ଷ୍ମ	-3164
▁ବୃକ୍ଷ	-3165
▁କିମ୍ବଦ	-3166
▁ପାହାଡ଼	-3167
▁ରଖିଥିଲେ	-3168
▁ପତି	-3169
▁ଭଞ୍ଜ	-3170
▁ବିଜୟୀ	-3171
▁ସ୍ନାତକୋତ୍ତର	-3172
ୱେ	-3173
ନ୍ସି	-3174
▁ନିଉ	-3175
ne	-3176
▁କୈ	-3177
▁ନୋ	-3178
▁ହନୁ	-3179
▁ନାଟ୍ୟ	-3180
▁ବିଗ୍ରହ	-3181
ଷେଧ	-3182
▁କେବେ	-3183
▁ପ୍ରି	-3184
▁କ୍ରମେ	-3185
ଦେଇଥିଲେ	-3186
▁ମାଗ	-3187
▁ଜଣାପ	-3188
▁ସକାଳ	-3189
ପ୍ରଦାୟ	-3190
▁ବିଶ୍ୱକ	-3191
▁ସ୍ମୃତି	-3192
ାମାନଙ୍କୁ	-3193
କାନ୍ତ	-3194
କ୍ଷେପ	-3195
▁ମିଳୁ	-3196
▁ଗୋପାଳ	-3197
▁ଜୀବନର	-3198
▁ଦୁର୍ବଳ	-3199
▁ମିଶ୍ରଣ	-3200
ାଧି	-3201
ମଣି	-3202
▁କୋଷ	-3203
ଯାଉଥିଲା	-3204
▁ବାରମ୍ବାର	-3205
୬୦	-3206
▁ସଂପ	-3207
ଦ୍ରୋହ	-3208
▁ମ୍ୟୁ	-3209
୍ତ୍ତିକ	-3210
▁ଅଲିମ୍ପ	-3211
▁201	-3212
ସ୍ଥାର	-3213
▁ମାଳ	-3214
ନ୍ଧ୍ର	-3215
▁ଅମ୍ଳ	-3216
▁୧୯୫୭	-3217
▁ପ୍ରବାହିତ	-3218
ମୟ	-3219
▁ଦିଲ୍ଲ	-3220
▁ସମର୍ଥନ	-3221
ପଟ	-3222
ାଗତ	-3223
ର୍ଜି	-3224
▁ସାପ	-3225
▁ଗଣେଶ	-3226
▁ବହୁଳ	-3227
▁୧୯୯୧	-3228
▁ପ୍ରତୀ	-3229
▁ଆହ	-3230
▁ତାଳ	-3231
▁ପ୍ରଦେଶର	-3232
ଶେଷ	-3233
▁ରାଇ	-3234
▁ନ୍ୟୁ	-3235
▁ମିଲି	-3236
ଗୁଡ଼ିକୁ	-3237
ଭଦ୍ର	-3238
▁ଜେନା	-3239
▁ଚିତ୍ରନାଟ୍ୟ	-3240
ଥକ	-3241
େକ୍ଟ	-3242
▁ମାଧ	-3243
▁ଅଳ	-3244
▁ତୀର୍ଥ	-3245
▁ସମ୍ରାଟ	-3246
▁ନିକଟସ୍ଥ	-3247
▁ବ୍ରହ୍ମା	-3248
ର୍ଦ୍ଦ	-3249
▁ଏହିପରି	-3250
▁ମହାରାଷ୍ଟ୍ର	-3251
te	-3252
ଢ଼ୀ	-3253
▁ମନୋନ	-3254
▁ପଡି	-3255
▁ପଟ	-3256
କଙ୍କ	-3257
▁ପରିସର	-3258
▁ତୃ	-3259
▁ଧୂ	-3260
ତାକୁ	-3261
▁ଟିକ	-3262
▁ଦେଓ	-3263
▁ଉଦ୍ଭିଦ	-3264
▁ସ୍ନାୟୁ	-3265
▁ପ୍ରତିଯୋଗିତ	-3266
ଗ୍ନ	-3267
ମହା	-3268
▁ବେଦ	-3269
▁ମଙ୍ଗଳ	-3270
▁ପ୍ରଶାସ	-3271
େୟ	-3272
ାଇଁ	-3273
ାମି	-3274
ଙ୍ଗରେ	-3275
▁ପରୁଷ	-3276
▁ଅନନ୍ତ	-3277
▁ଧ୍ୟାନ	-3278
▁ଯୁକ୍ତରାଜ	-3279
୪୦	-3280
▁ମସ	-3281
କ୍ଟର	-3282
ପ୍ରତି	-3283
▁ଝାଡ଼ା	-3284
▁ପ୍ରଭୃତି	-3285
▁କରାଯାଉଛି	-3286
ra	-3287
୪ରେ	-3288
▁ଦୌ	-3289
ବ୍ୟା	-3290
ସ୍ୱତୀ	-3291
ମାତ୍ରା	-3292
▁ଅଭୟାରଣ	-3293
▁ମାଂସପେଶୀ	-3294
୍ରମଣ	-3295
▁ବ୍ୟକ୍ତ	-3296
▁ମହିଳାଙ୍କ	-3297
▁ପାକିସ୍ତାନ	-3298
ତ୍ସ	-3299
ଭାଷ	-3300
lood	-3301
ଣ୍ଠି	-3302
▁ଆୟୋଜନ	-3303
▁କରିବେ	-3304
ଣାର	-3305
▁ବଞ୍ଚ	-3306
▁ସଂଳାପ	-3307
▁ପତ	-3308
ଙ୍ଗୀ	-3309
ମ୍ମଦ	-3310
▁ରାଉତ	-3311
▁ସଂସ୍କରଣ	-3312
୯ରେ	-3313
▁ଝୁ	-3314
ବାଣୀ	-3315
ଲକ	-3316
▁ରସ	-3317
େକ୍ସ	-3318
▁ଅସ୍ତ	-3319
▁ପରିବେଷ	-3320
ଚୀ	-3321
▁G	-3322
ପୀଠ	-3323
▁ଖୋଲା	-3324
ସାଧାରଣ	-3325
▁ପହଞ୍ଚ	-3326
ତ୍ମା	-3327
ଦଣ୍ଡ	-3328
▁ଟିଭି	-3329
▁ସିନ୍ଧ	-3330
▁ହାତରେ	-3331
▁ପଥ	-3332
▁ଗୁପ୍ତ	-3333
▁ସୈନ୍ୟ	-3334
▁ଅନୁର	-3335
▁ସଞ୍ଚ	-3336
କ୍ରମିତ	-3337
▁କରିପାରେ	-3338
ଡ଼ୁ	-3339
▁ଛି	-3340
▁ପଦ୍ମଶ୍ରୀ	-3341
ାଇଲେ	-3342
▁ବର୍ଷା	-3343
▁ଶବ୍ଦର	-3344
▁ଘଟିଥିଲା	-3345
▁କାର୍ତ୍ତିକ	-3346
ବିଧ	-3347
ଠାକାର	-3348
କ୍ଷତ୍ର	-3349
▁ଉନ୍ନତ	-3350
▁ସଂଗଠନ	-3351
▁ସ୍ଥିର	-3352
▁ଚୌଧୁରୀ	-3353
▁ତାଲିକା	-3354
▁ଗଭୀର	-3355
▁ଷ୍ଟା	-3356
▁ପୂର୍ଣ୍ଣିମା	-3357
ହୋଇ	-3358
ାଗଜ	-3359
▁ଆଜ	-3360
▁ଚୈ	-3361
▁ଚୋ	-3362
▁ବୀ	-3363
ମାରେ	-3364
▁ଖାନ	-3365
▁ସଭାପତି	-3366
▁ଋଷି	-3367
▁ବାହୁ	-3368
ଏସ୍	-3369
▁ଉଠ	-3370
▁ସଠ	-3371
ସାଗର	-3372
▁ଆସେ	-3373
▁ଜାରି	-3374
▁ଇଚ୍ଛା	-3375
▁ଆଣ୍ଟିବା	-3376
▁ଲାଗେ	-3377
▁ୟୁରୋପ	-3378
ସ୍କୃତିକ	-3379
▁ଆଫ୍ରିକ	-3380
▁ଉଲ୍ଲେଖନୀୟ	-3381
▁ଶାରୀ	-3382
▁ପଦ୍ଧତି	-3383
▁ଭୁତାଣୁ	-3384
▁ପ୍ରଦତ୍ତ	-3385
୨୫	-3386
▁3	-3387
ତରେ	-3388
▁ଆପ	-3389
▁ଏକମାତ୍ର	-3390
▁ବିଦ୍ରୋହ	-3391
▁କିମ୍ବଦନ୍ତୀ	-3392
▁କ୍ରମ	-3393
▁ଗ୍ରା	-3394
ଯାଇଥିଲେ	-3395
ଉନ	-3396
ରବ	-3397
ରାଲ	-3398
▁୮୦	-3399
▁ବିଶାଳ	-3400
▁ରାସ୍ତା	-3401
▁ଏପ୍ରିଲ	-3402
▁ଅନୁସନ୍ଧାନ	-3403
▁ରାମଚନ୍ଦ୍ର	-3404
▁ବିଶ୍ୱବିଦ୍ୟାଳୟରେ	-3405
ଦୀପ	-3406
ନ୍ଦ୍ରା	-3407
▁ଗ୍ରନ୍	-3408
▁ବ୍ୟାଙ୍କ	-3409
▁ପ୍ରତିନିଧି	-3410
ନ୍ନା	-3411
▁କୃଷି	-3412
▁ନେତା	-3413
▁ଭାଙ୍ଗି	-3414
ାମାନଙ୍କର	-3415
▁ଆଣ୍ଟିବାୟୋଟ	-3416
୮୦	-3417
▁୩୧	-3418
ର୍ବା	-3419
ଲ୍ଲୀ	-3420
୍ରୋପ	-3421
▁ଆର୍ଥିକ	-3422
▁ସଂକ୍ରମିତ	-3423
ot	-3424
ଉଳ	-3425
ଫାଇ	-3426
▁ଘୁ	-3427
ାଳୟର	-3428
ାବେଳେ	-3429
▁ସମ୍ବନ୍ଧୀୟ	-3430
ଠିନ	-3431
▁୨ୟ	-3432
▁ପୁଷ୍	-3433
▁ଅପରାଧ	-3434
▁ଗ୍ରାମର	-3435
ଶ୍	-3436
ase	-3437
ଟିଭ	-3438
▁ଗତ	-3439
▁ଛୁ	-3440
ୀବ୍ର	-3441
େଶ୍ୱ	-3442
▁ପତନ	-3443
▁ବାଳ	-3444
▁ହୋଇପାରି	-3445
ମ୍ବୋ	-3446
▁ଶିରା	-3447
▁କ୍ଷୀର	-3448
ଲିନ	-3449
▁ଆଡ଼	-3450
▁ଅଙ୍କ	-3451
▁ଜାହା	-3452
ଖାନ	-3453
ସାମ	-3454
ସେଲ	-3455
▁୩୫	-3456
▁ଜାତ	-3457
▁ଆଫ୍ର	-3458
ଭାରତୀୟ	-3459
▁ଅନୁମତି	-3460
▁ହେଇଥାଏ	-3461
ଏହା	-3462
▁()	-3463
▁ଡାଇ	-3464
▁ଅଧ୍ୟକ୍ଷ	-3465
▁ଚଳଚ୍ଚିତ୍ରଟି	-3466
ard	-3467
▁ଛେ	-3468
▁ଦାଶ	-3469
▁ଶାରୀରିକ	-3470
▁ପ୍ରସାରିତ	-3471
▁ଶାସ୍ତ୍ରୀୟ	-3472
▁ସାଂସ୍କୃତିକ	-3473
▁ଶ୍ରୀଜଗନ୍ନାଥ	-3474
▁ଫୋ	-3475
▁ଆନ୍ଧ୍ର	-3476
▁ମହାଭାରତ	-3477
▁ପର୍ଯ୍ୟଟକ	-3478
tis	-3479
ପୁରର	-3480
ବନ୍ଧୁ	-3481
ିବାରେ	-3482
▁ଗୋବିନ୍ଦ	-3483
▁ଉଦ୍ଦେଶ୍ୟରେ	-3484
▁କରାଯାଉଥିଲା	-3485
ଂଗ୍	-3486
ହିର	-3487
ନାଲ୍	-3488
▁ଆଗରୁ	-3489
▁ବ୍ରା	-3490
▁ସଂରକ୍ଷଣ	-3491
ାଧର	-3492
ମଧ୍ୟ	-3493
▁କେର	-3494
▁ରଘୁ	-3495
▁ଅଶୋକ	-3496
▁ଉପଯୁକ୍ତ	-3497
ାସା	-3498
ଉଥିବା	-3499
▁କେଉଁ	-3500
▁ପ୍ରବନ୍ଧ	-3501
▁ସରସ୍ୱତୀ	-3502
ଏହି	-3503
▁ସଞ୍ଜ	-3504
ାଇଟିସ୍	-3505
▁ସଂକ୍ର	-3506
ମସିହାରେ	-3507
▁ସମ୍ପାଦକ	-3508
ପାଠୀ	-3509
▁ତୀବ୍ର	-3510
▁ମିଶାଇ	-3511
▁ନାଗରିକ	-3512
▁ନକ୍ଷତ୍ର	-3513
▁ସବ	-3514
ପାରୁ	-3515
▁ମନେ	-3516
▁ସୋମ	-3517
ଥେଷ୍ଟ	-3518
▁୧୯୭୦	-3519
ଗୁଡ଼ିକର	-3520
ୟମ୍	-3521
▁କେନ୍ଦ୍ରୀୟ	-3522
ସ୍କୁ	-3523
ୋଗ୍ୟ	-3524
▁ସହାୟତା	-3525
ଳୀର	-3526
▁ଏଣ୍ଡ	-3527
▁କଣ୍ଠଶିଳ୍ପୀମାନେ	-3528
▁ଡୋଜ	-3529
▁ବିଧି	-3530
▁ସ୍ତମ୍ଭ	-3531
▁ବାଣିଜ୍ୟ	-3532
ପୁରୀ	-3533
▁ଇନ୍	-3534
ମ୍ର	-3535
ଦ୍ୱାର	-3536
▁ବିଭା	-3537
▁ଉପକରଣ	-3538
▁କଳିଙ୍ଗ	-3539
▁ଷ୍ଟେସନ	-3540
▁ବିକାଶଶୀଳ	-3541
ant	-3542
▁ଗେ	-3543
▁ଆୟୁ	-3544
▁ସାମଲ	-3545
▁ନଥିଲା	-3546
▁ରାଜପଥ	-3547
▁ସତ୍ତ୍ୱ	-3548
ଉଥିଲେ	-3549
▁ବାଲି	-3550
▁ନାମକରଣ	-3551
▁ମନୋନୀତ	-3552
▁ଯଥେଷ୍ଟ	-3553
ଟିଂ	-3554
▁ମରା	-3555
▁ଏସୀୟ	-3556
▁ମାତ୍ରା	-3557
▁କର୍ମଚାରୀ	-3558
▁ଲଢ଼ିଥିଲେ	-3559
▁ଗୁରୁତ୍ୱପୂର୍ଣ୍ଣ	-3560
ଠୁ	-3561
▁କୀ	-3562
ଲ୍ଲା	-3563
▁ଗଞ୍ଜ	-3564
▁ଧରଣର	-3565
▁ଶରୀରର	-3566
▁କୋଇ	-3567
▁ଶଙ୍କର	-3568
▁ପ୍ରତୀକ	-3569
▁ଫୁସଫୁସ	-3570
▁ଅଇ	-3571
▁ରମ	-3572
▁ରହ	-3573
▁କଳ୍ପ	-3574
▁ହୃଦ୍	-3575
▁ସିନେମା	-3576
▁ପ୍ରେସକ୍ରି	-3577
de	-3578
▁O	-3579
ଣିତ	-3580
ାତ୍	-3581
ାମେ	-3582
ସ୍ଥଳୀ	-3583
ଣ୍ଡିରା	-3584
▁ଖାଇବା	-3585
▁ଦେହରେ	-3586
ate	-3587
▁ୱା	-3588
ରାଣୀ	-3589
▁କୋଣ	-3590
▁ମାଈ	-3591
▁କଣିକା	-3592
▁ସମ୍ମି	-3593
▁ବିଚାରପତି	-3594
▁ପାର୍ଶ୍ୱରେ	-3595
ମାନଙ୍କଦ୍ୱାରା	-3596
▁ଖରାପ	-3597
▁ଶ୍ରୀକୃଷ୍ଣ	-3598
ନ୍ତା	-3599
▁ଖୁବ	-3600
▁ଦୀପ	-3601
▁ପରମ	-3602
▁ମେଟ	-3603
▁ବିଜ୍ଞ	-3604
▁ଅର୍ଥନୀତି	-3605
▁and	-3606
▁ଏୟାର	-3607
▁ସଂଯୋଗ	-3608
▁ଲୀ	-3609
କାରେ	-3610
ବେଦନ	-3611
▁ଉଦ୍ଧ	-3612
େଶ୍ୱରୀ	-3613
▁୨୦୧୩ରେ	-3614
▁ଅର	-3615
ନଙ୍କ	-3616
▁ଆଲବ	-3617
▁ପାଲ	-3618
▁ଛାଡି	-3619
▁ବାହା	-3620
▁୧୯୯୭	-3621
▁ଦେବୀଙ୍କ	-3622
▁ରାଜ୍ୟରେ	-3623
▁ମୁଖ୍ୟମନ୍ତ୍ରୀ	-3624
▁ଯୁକ୍ତରାଜ୍ୟରେ	-3625
io	-3626
୍ୟର	-3627
▁ଧର୍ମର	-3628
▁5	-3629
▁W	-3630
ell	-3631
gen	-3632
rom	-3633
ନୈତିକ	-3634
ିନିୟମ	-3635
▁କାବ୍ୟ	-3636
▁ପରିମାଣର	-3637
▁ପର୍ଯ୍ୟଟନ	-3638
▁ସିଦ୍ଧାନ୍ତ	-3639
ୀତି	-3640
ଣ୍ଡାର	-3641
▁h	-3642
ଲିଆ	-3643
ତ୍ରୀ	-3644
▁ଗଲେ	-3645
▁ବାବୁ	-3646
▁ମୁସଲ	-3647
▁ହାତୀ	-3648
▁ସମିତି	-3649
▁ପ୍ରକୃତି	-3650
▁ମନ୍ଦିରକୁ	-3651
▁ସଂଗ୍ରାମୀ	-3652
▁ହୃତ୍ପିଣ୍ଡ	-3653
ଥିତ	-3654
ରେଇ	-3655
ୋଟା	-3656
ବିଶେଷ	-3657
▁୧୯୫୦	-3658
▁ବସବାସ	-3659
▁ସତ୍ତ୍ୱେ	-3660
୧୯୬	-3661
ର୍ପଣ	-3662
▁ଜେଲ	-3663
▁ବରଣ	-3664
▁ସଂଯ	-3665
▁ଅର୍ଜୁନ	-3666
▁ଆରୋଗ୍ୟ	-3667
▁୨୦୧୪ରେ	-3668
▁୧୯୫୨	-3669
▁କମିଯାଏ	-3670
▁ପକ୍ଷରୁ	-3671
▁ପ୍ରତିଯୋଗିତା	-3672
ଜ୍ଞା	-3673
▁ଡାକ	-3674
▁ଗ୍ରହ	-3675
ୋଗ୍ରାମ	-3676
▁ବାଦ୍ୟ	-3677
▁କହନ୍ତି	-3678
▁ହୋଇଗଲା	-3679
▁ସ୍ଥାପତ୍ୟ	-3680
୭୦	-3681
▁ଟେକ	-3682
▁ରହନ୍ତି	-3683
▁ବ୍ୟକ୍ତିଗତ	-3684
▁t	-3685
୍ରତ	-3686
ପୋର୍ଟ	-3687
▁ଚମ୍ପ	-3688
▁କୁକୁର	-3689
▁ଚାମ୍ପ	-3690
ୋନା	-3691
▁ଏଚ	-3692
▁ଶୃ	-3693
▁ମେଡ	-3694
▁ଯାଇଥାଏ	-3695
▁ଅଣ୍ଡିରା	-3696
▁ପରିବେଷଣ	-3697
▁ପ୍ରକାଶନ	-3698
▁ଲକ୍ଷ୍ମଣ	-3699
▁ହୋଇଥାନ୍ତି	-3700
▁re	-3701
ଡ଼ରେ	-3702
ଖ୍ୟାତ	-3703
▁ଆଲର୍ଜି	-3704
▁କଲିକତା	-3705
▁ଦିଅନ୍ତି	-3706
ଢ଼େଇ	-3707
ବିଜଦ	-3708
ମିତି	-3709
▁ଆନି	-3710
ମିତ୍ତ	-3711
ଭ୍ୟନ୍ତ	-3712
▁ଇସ୍ରା	-3713
ଭୂତ	-3714
▁200	-3715
▁ବିଲ	-3716
ଷ୍ଠାନ	-3717
▁ଉତ୍ତରା	-3718
▁ତାପମାତ୍ରା	-3719
av	-3720
ପୁରା	-3721
ଶାଳୀ	-3722
▁ମୋଗ	-3723
୍ୟୁନି	-3724
▁ଜେନେଟ	-3725
▁ପିତାମ	-3726
ତାପ	-3727
ାତିକ	-3728
▁ପରିଚୟ	-3729
▁ବର୍ଷରେ	-3730
▁ସାମନ୍ତ	-3731
ରଣା	-3732
▁ୟୁରୋ	-3733
▁ତଥାପି	-3734
▁ମହାଦେବ	-3735
▁ତ୍ରିପାଠୀ	-3736
ବରେ	-3737
ଙ୍ଗ୍	-3738
▁ପେଶ	-3739
▁ଗ୍ୟା	-3740
▁ଶୁଣି	-3741
▁କାର୍ଯ୍ୟକ୍ଷମ	-3742
ଟିଆ	-3743
▁18	-3744
ଗୁରୁ	-3745
▁୧୯୯୬	-3746
▁ଦରକାର	-3747
▁ସଂକଳନ	-3748
▁ପଞ୍ଜାବୀ	-3749
▁ପରୀକ୍ଷଣ	-3750
uc	-3751
▁୤	-3752
ମୃତ	-3753
ଖାନା	-3754
▁ଜମା	-3755
▁ରାଓ	-3756
▁୧୮୮	-3757
▁ପ୍ରାୟତଃ	-3758
▁ତମ	-3759
▁ଆସିବା	-3760
▁ସ୍ଥିତି	-3761
▁ବର୍ଣ୍ଣିତ	-3762
▁ବିଦ୍ୟୁତ୍	-3763
▁K	-3764
ହାନ	-3765
▁ଗାଇ	-3766
▁ରୋକ	-3767
ବିଷ୍ୟ	-3768
▁ଦୃଷ୍ଟ	-3769
▁ନିଯୁକ୍ତି	-3770
▁4	-3771
ଲେଷ୍ଟ	-3772
▁ସୁନା	-3773
ection	-3774
ସ୍ପର୍ଶ	-3775
▁କିପରି	-3776
ାମର	-3777
ଭାବେ	-3778
▁ହୋଲ	-3779
▁୧୯୬୦	-3780
▁ଜାତିର	-3781
▁ମଲ୍ଲିକ	-3782
▁ଏଥିପାଇଁ	-3783
▁ଏହାଦ୍ୱାରା	-3784
ଗୋଳ	-3785
ନଥିଲେ	-3786
▁ଅସ୍ପ	-3787
▁ପଦବୀ	-3788
▁ଅଫି	-3789
ଡ଼ାରେ	-3790
▁ପରିବ	-3791
▁ନିରାପ	-3792
up	-3793
ୀରା	-3794
▁ଆନୁ	-3795
▁ଗିର	-3796
▁ରାଧା	-3797
▁ଶିଳା	-3798
▁ଅଗ୍ନି	-3799
▁ସହାୟକ	-3800
▁ବିଭାଗର	-3801
▁ପାର୍ବତୀ	-3802
▁ବିରୋଧରେ	-3803
▁ପ୍ରତିନିଧ	-3804
▁କାର୍ଯ୍ୟକାରୀ	-3805
ଆସୁ	-3806
ଞ୍ଚଳ	-3807
▁ପାଟି	-3808
▁ରାଜାଙ୍କ	-3809
୭୫	-3810
▁୯୦	-3811
ାଗୁଡ଼ିକ	-3812
ମୃତ୍ୟୁ	-3813
▁ଉର୍ଦ୍ଧ	-3814
▁ଯୁଦ୍ଧରେ	-3815
ଝର	-3816
ଜନକ	-3817
▁ଘା	-3818
▁ଉପକ	-3819
▁ବାୟ	-3820
▁ସୂତ୍ର	-3821
▁ମସ୍ତିଷ୍କ	-3822
ର୍ଣ	-3823
ସ୍ପର	-3824
▁ଶୀଘ୍ର	-3825
▁ନରେନ୍ଦ୍ର	-3826
▁ପ୍ରେସକ୍ରିପ	-3827
ନ୍ସା	-3828
▁କୋରା	-3829
▁ପୋଲିସ	-3830
ଳାସ	-3831
▁ଯଜ୍ଞ	-3832
▁ସଂସଦ	-3833
େଇଥିଲେ	-3834
▁ଅବତାର	-3835
▁ଦ୍ରବ୍ୟ	-3836
▁ଉଚ୍ଚତାରେ	-3837
▁ପୃଥିବୀରେ	-3838
୨୧	-3839
୨୩	-3840
ଡ଼ର	-3841
ମେହ	-3842
ଲେଟ	-3843
▁ସତ	-3844
▁ଗରମ	-3845
▁ଟ୍ରା	-3846
▁କୁମ୍ଭୀର	-3847
▁ମୁସଲମାନ	-3848
▁ଖ୍ରୀଷ୍ଟାବ୍	-3849
ri	-3850
ଗତି	-3851
▁ରଜ	-3852
ତରିଆ	-3853
▁ମରି	-3854
କ୍ଷରେ	-3855
▁ନିମିତ୍ତ	-3856
▁ବିସ୍ତାର	-3857
▁ଅଷ୍ଟ୍ରେଲ	-3858
୨୪	-3859
ବୀର	-3860
ାତୁ	-3861
▁ଇଉ	-3862
▁ଶୁଭ	-3863
▁ଖୋଲି	-3864
▁ପାରା	-3865
▁ଲଣ୍ଡ	-3866
▁ଯୋଗଦାନ	-3867
▁ସମାଧାନ	-3868
▁ସେଥିପାଇଁ	-3869
▁ଜୈନ	-3870
▁ପାରେ	-3871
ାଦଶ	-3872
▁ନୌ	-3873
▁୧୯୮୪	-3874
▁କମିଟି	-3875
▁ଅଭିଯୋଗ	-3876
▁ପ୍ରତିର	-3877
▁କଲରାପତରିଆ	-3878
ଣାରେ	-3879
୍ୟାଗ	-3880
ଭାବିକ	-3881
▁ଶାସକ	-3882
▁୧୯୮୯	-3883
▁ପ୍ରସବ	-3884
▁ସାଙ୍ଗ	-3885
▁ଏକାଧିକ	-3886
▁୨୦୧୫ରେ	-3887
▁ଶ୍ରେଣୀରେ	-3888
ୋଦ	-3889
▁ନିତ	-3890
▁ଗଣିତ	-3891
▁ସାର୍	-3892
▁ସେଣ୍ଟ	-3893
▁ଅର୍ଦ୍ଧ	-3894
▁ରେକର୍ଡ	-3895
ଅନ	-3896
ଗେ	-3897
▁ଫଳା	-3898
▁୧୯୯୪	-3899
▁ଏକାଦଶୀ	-3900
▁ନାୟିକା	-3901
▁ଛଅ	-3902
▁ଦେବତ	-3903
▁ପ୍ରଥା	-3904
▁ମଣ୍ଡପ	-3905
ାନ୍ତ୍ରିକ	-3906
▁ସମ୍ପ୍ରଦାୟ	-3907
ଶମ	-3908
▁ଚକ	-3909
▁ଆରବ	-3910
▁ବନ୍ୟ	-3911
▁ଆଲୋଚନା	-3912
▁ଭବିଷ୍ୟ	-3913
▁ପ୍ରତିଯୋଗିତାରେ	-3914
▁ବିଶ୍ୱବିଦ୍ୟାଳୟର	-3915
ce	-3916
କୁଳ	-3917
ଦିଏ	-3918
▁ସୋନ	-3919
▁ମୁହଁ	-3920
▁ରାଶି	-3921
▁ଗୁମ୍ଫ	-3922
▁ଶାନ୍ତ	-3923
▁ତାମିଲନା	-3924
ଲ୍ଟ	-3925
▁ଗହ	-3926
ଧର୍ମ	-3927
▁ଉପାସ	-3928
▁ଦାସଙ୍କ	-3929
▁ପରସ୍ପର	-3930
▁ପ୍ରତ୍ୟା	-3931
▁ହେଇଥିବା	-3932
est	-3933
▁ଧୂପ	-3934
ଗ୍ରାହ	-3935
▁ମଧ୍ଯ	-3936
▁ତନ୍ତୁ	-3937
▁ଅନୁରୋଧ	-3938
▁ବେମାରୀ	-3939
▁ସେହିପରି	-3940
▁ଯେଉଁମାନେ	-3941
ୌପ	-3942
ଯୁଦ୍ଧ	-3943
▁ବଂଶର	-3944
▁ରେଭେ	-3945
▁ସନ୍ଧ	-3946
ସାୟନିକ	-3947
▁ଆସିଲେ	-3948
▁କରୁଛି	-3949
ଟିନ	-3950
▁ଗାଆଁ	-3951
▁ନିଷ୍ପ	-3952
▁ମ୍ୟାଚ	-3953
▁ପରୀକ୍ଷ	-3954
▁ଆୱ	-3955
ତ୍ତା	-3956
ଭଞ୍ଜ	-3957
▁ରାବଣ	-3958
▁ଭ୍ରମଣ	-3959
▁କେନ୍ଦୁ	-3960
▁ଜଗନ୍ନାଥଙ୍କ	-3961
ାକ	-3962
▁/	-3963
▁a	-3964
▁୭୦	-3965
▁ଆଧାର	-3966
▁ବାବା	-3967
▁ମେରୁ	-3968
▁ମାର୍ଗ	-3969
▁ଆବଶ୍ୟକତା	-3970
▁ରହିଛନ୍ତି	-3971
▁ବିଦ୍ୟାଳୟରେ	-3972
ଉଁଶ	-3973
ଜ୍ମ	-3974
ପଟେ	-3975
▁ଅନ୍ନ	-3976
▁ନଥିଲେ	-3977
▁ଯୋଗାଇ	-3978
▁ନିୟମିତ	-3979
▁ପୂର୍ବେ	-3980
▁ମହିଳାମାନେ	-3981
ଲ୍ଡ	-3982
▁ବିତ	-3983
▁ବେକ	-3984
▁ଲିପ	-3985
▁କାଳୀ	-3986
▁ଅଣ୍ଡା	-3987
▁ଏକତ୍ର	-3988
ନ୍ୱ	-3989
େରି	-3990
▁୭୫	-3991
ଭିଜନ	-3992
▁୧୯୭୫	-3993
▁ନିର୍ଦ୍ଧ	-3994
▁ପର୍ଯ୍ୟା	-3995
▁ହେଇଥିଲେ	-3996
▁ହେଉଥିଲେ	-3997
ତଳ	-3998
ଡ଼ିଓ	-3999
▁ମାୟ	-4000
▁ବୃତ୍ତି	-4001
▁ସଂସ୍କାର	-4002
୍ୟାମ	-4003
▁ମେଘ	-4004
▁ସିରି	-4005
▁କଲ୍ୟା	-4006
▁ଗୁଜରାଟ	-4007
▁ଆଣ୍ଟିବାୟୋଟିକ	-4008
ଜନନ	-4009
ବାରୁ	-4010
▁ପ୍ୟ	-4011
▁ମାପ	-4012
▁ରାତି	-4013
▁ମନ୍ତ୍ର	-4014
ରିଂ	-4015
ିଶା	-4016
▁ଧନ	-4017
▁କୌଶ	-4018
ସ୍ତାନ	-4019
▁ଚିତା	-4020
▁ମୋଗଲ	-4021
▁ଭଦ୍ରକ	-4022
ଗୁଡ଼ିକରେ	-4023
▁ଓଡ଼ିଆରେ	-4024
▁ପଦକ୍ଷେପ	-4025
▁ଆଚାର୍ଯ୍ୟ	-4026
▁ପ୍ରଶାସନିକ	-4027
ld	-4028
ପୁଟ	-4029
▁ଉଠି	-4030
▁କିମି	-4031
▁ଡିଜି	-4032
▁ବୈଷ୍ଣ	-4033
ୟାମ	-4034
▁ଖୁବ୍	-4035
▁ଘରୋଇ	-4036
▁ବିଶ୍	-4037
▁ସୀମିତ	-4038
▁ହରିହର	-4039
▁ସର୍ବଦା	-4040
▁ନିଶ୍ଚିତ	-4041
ଇବା	-4042
ସିଂ	-4043
ୋରୀ	-4044
▁ଓକି	-4045
ଭାଗରେ	-4046
▁ବିଫଳ	-4047
▁ଦିନରେ	-4048
▁କ୍ୱଚିତ	-4049
▁ମହମ୍ମଦ	-4050
▁ସ୍ଥାୟୀ	-4051
ାଏ	-4052
କିର	-4053
ଟାଇ	-4054
ଟେଲ	-4055
▁ଅବି	-4056
▁ସମ୍ବ	-4057
ର୍ଯ୍ୟା	-4058
▁ଚିନ୍ତା	-4059
▁ଜୀବନରେ	-4060
▁ସାମ୍ବା	-4061
▁ଖେଳିଥିଲେ	-4062
▁ପରିଚାଳିତ	-4063
▁ଅର୍ଥନୈତିକ	-4064
▁ନିର୍ଦ୍ଦେଶିତ	-4065
ak	-4066
ରାହ	-4067
▁୪୫	-4068
▁ଠିକ	-4069
▁ବଳି	-4070
▁ଛାତି	-4071
▁ମିନିଟ	-4072
▁ବିଜ୍ଞାପ	-4073
▁ମୂର୍ତ୍ତ	-4074
▁କରାଇଥିଲେ	-4075
▁ଚମ	-4076
ଶ୍ରେ	-4077
▁ଗୋଲା	-4078
▁ଫଳାଫଳ	-4079
୨୮	-4080
▁v	-4081
ଗାର	-4082
ାଟକ	-4083
େଲା	-4084
ତ୍ରୁ	-4085
ଲ୍ଲଭ	-4086
▁ଏତେ	-4087
▁ସାଂସ	-4088
▁୧୯୯୩	-4089
ତିକ୍ରମ	-4090
▁ଅର୍ଜନ	-4091
▁ସଂସ୍ପର୍ଶ	-4092
ath	-4093
anti	-4094
ମ୍ବୁ	-4095
ହେରୁ	-4096
▁ତାପରେ	-4097
▁କଲେଜରେ	-4098
▁୨୦୧୬ରେ	-4099
େସ	-4100
ଡିଏ	-4101
▁ଗଡ଼	-4102
▁ସୌର	-4103
ୋଗ୍ରା	-4104
▁ସାରି	-4105
▁କୁଣ୍ଡ	-4106
▁କ୍ରିୟ	-4107
▁ବାଲ୍ୟ	-4108
▁ସାମିଲ	-4109
▁ରେଭେନ୍ସା	-4110
▁ପ୍ରତିଷ୍ଠାତା	-4111
ut	-4112
େଦ	-4113
୯୦	-4114
der	-4115
ଗୋଳିକ	-4116
ମଣ୍ଡଳ	-4117
ଲାଣ୍ଡ	-4118
▁ଉଇକି	-4119
▁୧୯୯୨	-4120
ପଶ୍ଚିମ	-4121
▁ଦୈନିକ	-4122
▁ଭକ୍ତି	-4123
▁ଶୀର୍ଷ	-4124
ଥାଆନ୍ତି	-4125
▁ମହାରାଜା	-4126
ଙ୍ଘ	-4127
▁ଘନ	-4128
▁ବଟ	-4129
▁ମନୋ	-4130
ମୁଖରେ	-4131
▁ପ୍ରଜନନ	-4132
▁ପ୍ରତିମା	-4133
ଲସି	-4134
ିରୋ	-4135
▁ଅଥ	-4136
▁ଲୁଣ	-4137
▁ନାଏକ	-4138
▁ବେପାର	-4139
▁ମଧ୍ୟମ	-4140
କାର୍ଯ୍ୟ	-4141
▁ପ୍ରବାହ	-4142
ବ୍ଲ	-4143
ଭାର	-4144
▁ଭବ	-4145
ନ୍ଦି	-4146
ଳନରେ	-4147
▁ଦୋଷ	-4148
▁ବୁଲି	-4149
▁ଶଙ୍ଖ	-4150
▁ସ୍ୱୟଂ	-4151
▁ସ୍ତନ୍ୟପାନ	-4152
୪୫	-4153
ical	-4154
▁ନାଚ	-4155
▁ପାଇଲେ	-4156
▁କଥାଚିତ୍ରଟି	-4157
ub	-4158
ମ୍ଫ	-4159
▁ମୟୂର	-4160
▁ବିବେଚନା	-4161
▁ତପ	-4162
ଡିକୁ	-4163
ଣ୍ଟନ	-4164
ତାରି	-4165
▁୧୮୬	-4166
ଶିକ୍ଷ	-4167
▁ଅନୁପ	-4168
▁ସ୍ମାର	-4169
▁ମଧୁମେହ	-4170
▁ସିନ୍ଧୁ	-4171
▁ଅଂଶଗ୍ରହଣ	-4172
▁ଅଭୟାରଣ୍ୟ	-4173
▁ପ୍ରତିଷେଧ	-4174
▁ହଠ	-4175
▁ସଦର	-4176
ଣିବାକୁ	-4177
▁ଯାଇଛି	-4178
▁ସିସ୍ଟ	-4179
ଣ୍ଢ	-4180
ୟାଗ	-4181
▁୩୬	-4182
orld	-4183
ବାୟୁ	-4184
▁ନିମ	-4185
ଖ୍ୟାନ	-4186
▁ଅରୁଣ	-4187
▁ଗୀତା	-4188
▁ଅର୍ଥାତ	-4189
▁କ୍ରୀଡ଼ା	-4190
▁ଆବିଷ୍କାର	-4191
▁ଗାନ୍ଧୀଙ୍କ	-4192
ସହ	-4193
▁ଦାରୁ	-4194
▁;	-4195
▁୩୩	-4196
▁ଉଦୟ	-4197
ଶକ୍ତି	-4198
ଯନ୍ତ୍ର	-4199
▁ତ୍ୟାଗ	-4200
▁କୁମାରୀ	-4201
▁ପ୍ରତ୍ନ	-4202
▁ଦେଇଥିଲା	-4203
▁ପ୍ରଶିକ୍ଷଣ	-4204
କ୍ଷୀ	-4205
▁ଆନା	-4206
ାର୍ଜୀ	-4207
ଲକ୍ଷ୍ମ	-4208
▁ବିଦ୍ୟ	-4209
ର୍ଜାତିକ	-4210
▁କମ୍ପାନ	-4211
▁ହୋଲସେଲ	-4212
▁ୟୁରୋପରେ	-4213
▁ଇଲେକ୍ଟ୍ର	-4214
▁ସ୍ୱୀକୃତି	-4215
ity	-4216
୧ରେ	-4217
ସ୍କୋ	-4218
▁ଦ୍ୱି	-4219
▁ବାର୍	-4220
▁ବ୍ଳକ	-4221
▁ମାତୃ	-4222
▁ସଠିକ	-4223
▁ସୃଷ୍ଟ	-4224
ାନୁସାରେ	-4225
▁ପରଠାରୁ	-4226
▁ପ୍ରତିଦ୍ୱ	-4227
▁କର୍ଣ୍ଣାଟକ	-4228
ଣେ	-4229
ସିପ	-4230
▁ବୁଲ	-4231
▁ଗିରି	-4232
ମୂର୍ତ୍ତି	-4233
▁ରାସାୟନିକ	-4234
ଶେ	-4235
ium	-4236
ୋମା	-4237
ୋସି	-4238
▁ଖୋଜ	-4239
▁ହକି	-4240
▁ମାଝି	-4241
▁ଆଗ୍ରହ	-4242
▁ବାଧ୍ୟ	-4243
▁ଭୌଗୋଳିକ	-4244
▁ବେଳେବେଳେ	-4245
▁ମନ୍ଦିରଟି	-4246
▁ମାତ୍ରାରେ	-4247
▁ସମ୍ପର୍କୀୟ	-4248
art	-4249
ଳାଇ	-4250
ୁନା	-4251
▁ଡୋ	-4252
୍ମୀର	-4253
୍ଲାଇ	-4254
▁ଖଣି	-4255
▁ଛତି	-4256
▁ଅଧିନ	-4257
▁ଆଦେଶ	-4258
▁ଉପଦେଶ	-4259
▁ରହୁଥିବା	-4260
▁କାର୍ଯ୍ୟରେ	-4261
▁ବର୍ତ୍ତମାନର	-4262
▁ଆପଣ	-4263
▁କୃତ	-4264
▁ଦିଏ	-4265
▁ରାସ	-4266
▁ଗ୍ରୁ	-4267
▁ମଞ୍ଜ	-4268
▁ସେବନ	-4269
▁ଗଣ୍ଠି	-4270
▁ବେଙ୍ଗ	-4271
▁ମାମଲା	-4272
▁ଅଭିଯାନ	-4273
▁ଗୋଷ୍ଠୀ	-4274
▁ପ୍ରତ୍ନତ	-4275
▁ରାଜସ୍ଥାନ	-4276
▁ସାମ୍ବାଦିକ	-4277
▁U	-4278
ୋଜକ	-4279
ୱାଲ	-4280
▁ଏଭଳି	-4281
▁କରୋନା	-4282
▁ପାଠ୍ୟ	-4283
▁ମୂତ୍ର	-4284
▁ସିଷ୍ଟ	-4285
▁ଉତ୍ପନ୍ନ	-4286
▁ନିର୍ଦ୍ଦେଶନାରେ	-4287
ୀକ	-4288
୨୨	-4289
all	-4290
igh	-4291
ଙ୍କି	-4292
▁ମାଲ	-4293
▁ଜିନି	-4294
▁ପୌରା	-4295
▁ରହିବ	-4296
▁ଆସିଥିଲା	-4297
▁ସ୍କୁଲରେ	-4298
▁ସାହିତ୍ୟରେ	-4299
▁ପୁରସ୍କାରରେ	-4300
lop	-4301
ଆସି	-4302
ଗାଁ	-4303
▁ଭାର	-4304
▁ଅଧିବା	-4305
▁ବିକ୍ରି	-4306
▁ବ୍ୟାପି	-4307
▁ହୋଇଗଲେ	-4308
▁ଦିଆଯାଇଛି	-4309
▁ଅନ୍ତର୍ଜାତୀୟ	-4310
ରାଇ	-4311
ସେନ	-4312
▁ବଢ	-4313
ହାରୀ	-4314
▁ଆଶା	-4315
▁କହୁ	-4316
▁ଧରା	-4317
▁କଟକର	-4318
▁ବାସ୍ତ	-4319
▁ପୁନର୍ବ	-4320
▁ଅସ୍ପଷ୍ଟ	-4321
▁ମାତାଙ୍କ	-4322
▁ନାକ	-4323
ପୁତ୍ର	-4324
▁ଦୁର୍ଗା	-4325
ଜନତା	-4326
୍ୟୁର	-4327
▁ନାଥ	-4328
▁ଭୀମ	-4329
▁ସେଇ	-4330
ଶ୍ୱାସ	-4331
▁କାଟି	-4332
▁୧୯୮୭	-4333
▁ଶିଶୁର	-4334
▁ଆୟୋଜିତ	-4335
▁ଏଠାକାର	-4336
▁ନେହେରୁ	-4337
▁ମହାରାଜ	-4338
ନନ	-4339
୩୩	-4340
କଥା	-4341
ଚାଳ	-4342
ପୁରୁଷ	-4343
▁ଗଣନା	-4344
▁ଗିରଫ	-4345
▁ଦିନେ	-4346
▁ଉପରକୁ	-4347
▁ଶ୍ୱେତ	-4348
▁ଅବସରରେ	-4349
▁ଇତିହାସରେ	-4350
ରସ	-4351
୨୭	-4352
per	-4353
ଟେନ	-4354
୍ରହା	-4355
▁ଅମା	-4356
▁ପାକ	-4357
୍ତ୍ତା	-4358
▁ଅଶ୍ୱ	-4359
ୁର୍ଣ୍ଣ	-4360
▁ବାହ୍ୟ	-4361
▁ପାଣିଗ୍ରାହ	-4362
▁ସଂକ୍ରାନ୍ତି	-4363
ୋଡ	-4364
୨୬	-4365
ାୟନ	-4366
▁ବଣ	-4367
▁ଜିତ	-4368
▁ମାର୍କ	-4369
▁ଅସ୍ତ୍ର	-4370
▁ଜନ୍ମିତ	-4371
▁ରଘୁନାଥ	-4372
▁ଲାଗିଲା	-4373
▁ବିଶ୍ୱରେ	-4374
▁ମାଙ୍କଡ଼	-4375
▁ମିଶ୍ରିତ	-4376
▁ରିପୋର୍ଟ	-4377
▁n	-4378
ଜୀବନ	-4379
ଜୀବୀ	-4380
▁ପାଏ	-4381
▁ସହଜରେ	-4382
ରୂପ	-4383
ଗୋଟି	-4384
▁କମିଶ	-4385
▁ଶାଖା	-4386
▁୧୯୪୭	-4387
▁ଅକ୍ଷୟ	-4388
▁ଥେରାପି	-4389
▁ବୈଷ୍ଣବ	-4390
▁ସମ୍ମୁଖ	-4391
▁ମହାବିଦ୍ୟାଳୟରେ	-4392
▁=	-4393
ରିନ	-4394
▁ଗୋପ	-4395
▁କନ୍ନ	-4396
▁ପ୍ରସାର	-4397
▁ସମ୍ବାଦ	-4398
▁ଜଙ୍ଗଲରେ	-4399
ist	-4400
ଜପୁର	-4401
୍ୱାସ	-4402
▁ଜିନିଷ	-4403
▁ଦୁନିଆ	-4404
▁ପଞ୍ଚମ	-4405
▁ସାଂସଦ	-4406
iz	-4407
ଏଟର	-4408
ପନା	-4409
ପ୍ପ	-4410
ମାଳ	-4411
ଲାମ	-4412
େତୁ	-4413
▁୪୮	-4414
ାଗାର	-4415
ାବତୀ	-4416
▁ସଂଶ	-4417
ନିଷ୍ଠ	-4418
▁ତାରା	-4419
▁ତୁଳନ	-4420
▁ଭଗ୍ନ	-4421
ର୍ଦ୍ଧା	-4422
▁ନିକଟତମ	-4423
▁ବିଜେତା	-4424
▁ଜିତିଥିଲେ	-4425
▁ପାକିସ୍ଥାନ	-4426
▁ପ୍ରଦର୍ଶିତ	-4427
:-	-4428
▁r	-4429
▁ଇସଲ	-4430
▁ଦେଉଳ	-4431
▁ତନ୍ତ୍ର	-4432
▁ଫାଉଣ୍ଡ	-4433
▁ରାଜବଂଶ	-4434
▁ମହାତ୍ମା	-4435
▁ସ୍ଥାନକୁ	-4436
se	-4437
ଗୀ	-4438
ଭୋଗ	-4439
ଧାରଣ	-4440
ିଆରେ	-4441
▁କମେ	-4442
▁୧୯୮୨	-4443
ବିଦ୍ୟା	-4444
▁ଗଙ୍ଗା	-4445
▁ଦଶକରେ	-4446
▁ରହିଲେ	-4447
▁ଲାଗିଲେ	-4448
▁ପ୍ରସ୍ତୁତି	-4449
▁ବିଜ୍ଞାନରେ	-4450
▁ପ୍ରତିନିଧିତ୍ୱ	-4451
ଥ୍	-4452
▁g	-4453
ary	-4454
ଯାଉଛି	-4455
▁ନାନା	-4456
ବିନ୍ଧା	-4457
▁ଉପକାର	-4458
▁ସୁପାର	-4459
ଲ୍ୟାଣ୍ଡ	-4460
୍ରୋପଚାର	-4461
▁କଲ୍ୟାଣ	-4462
▁ପ୍ରତାପ	-4463
ପଣାସ୍ତ୍ର	-4464
one	-4465
ବେଦ	-4466
ଳେଇ	-4467
ହେଲେ	-4468
▁ଉପତ୍ୟ	-4469
▁ପ୍ରଫେ	-4470
▁ସମସ୍ତେ	-4471
▁ଗ୍ରୀଷ୍ମ	-4472
▁ସାମଗ୍ରୀ	-4473
▁ନିଷ୍ପତ୍ତି	-4474
▁କୁହାଯାଇଥାଏ	-4475
▁ଅସ୍ତ୍ରୋପଚାର	-4476
▁କାର୍ଯ୍ୟକ୍ରମରେ	-4477
୩୫	-4478
ଷିତ	-4479
▁କଦ	-4480
ଗଳ୍ପ	-4481
▁ତେଲ	-4482
▁୧୯୫୫	-4483
▁ଶତ୍ରୁ	-4484
▁ଜନଜାତି	-4485
▁ବସ୍ତ୍ର	-4486
▁ଅଧିନିୟମ	-4487
▁ପାଲେଷ୍ଟ	-4488
▁ଦୃଷ୍ଟିରୁ	-4489
▁ଦୀର୍ଘକାଳୀନ	-4490
ଲିଂ	-4491
▁ଫର	-4492
▁ଶହ	-4493
▁୩ୟ	-4494
▁ପର୍ଯ	-4495
▁ବ୍ରଜ	-4496
▁୧୯୭୨	-4497
ଗ୍ରସ୍ତ	-4498
▁blood	-4499
▁ଗମ୍ଭୀର	-4500
▁୨୦୧୨ରେ	-4501
▁ଉତ୍ସବରେ	-4502
▁ପୌରାଣିକ	-4503
▁ସୁପାରିଶ	-4504
ଗଡ	-4505
ain	-4506
ial	-4507
ଗୃହ	-4508
ବିନ	-4509
୍ରୁତ	-4510
▁ସମୀ	-4511
▁ଟ୍ରି	-4512
▁ମନୋର	-4513
▁ଗଞ୍ଜାମ	-4514
▁ପ୍ରଚଳନ	-4515
▁ଶରୀରରେ	-4516
▁ସଂଗ୍ରହା	-4517
▁ସନ୍ଧ୍ୟା	-4518
▁ସଂଖ୍ୟାରେ	-4519
▁ଶ୍ରୀଲଙ୍କା	-4520
ଜୋ	-4521
ଥଲେ	-4522
▁କୋଲ	-4523
▁କ୍ଷେ	-4524
▁ଆଦର୍ଶ	-4525
▁ଚାନ୍ଦ	-4526
▁ଉପାଦାନ	-4527
ଧାର	-4528
ଲିଓ	-4529
ୋକ୍	-4530
ଏଣ୍ଟ	-4531
▁ଅରଣ	-4532
ପୁଞ୍ଜ	-4533
▁ଡାହା	-4534
▁୧୯୪୮	-4535
▁ବିରାଟ	-4536
▁ପିଲାଦିନ	-4537
▁ପ୍ରସଙ୍ଗ	-4538
▁ହେବାପରେ	-4539
୨୯	-4540
କୀର	-4541
ବିଂଶ	-4542
▁କପି	-4543
▁ରୋଷ	-4544
▁କରୁଥିଲା	-4545
ଖେ	-4546
ian	-4547
ତାବ	-4548
ୋନେ	-4549
କ୍ରୋ	-4550
ଞ୍ଚା	-4551
ମୁନା	-4552
ାପୁର	-4553
ତ୍ୟାଗ	-4554
▁ଶୁଖି	-4555
ଯାନ୍ତି	-4556
▁ପିତ୍ତ	-4557
▁କରିଦିଆ	-4558
▁ପୁଣିଥରେ	-4559
ଗୀତ	-4560
ୟାଲ	-4561
▁ଋଷ	-4562
▁ଧନୁ	-4563
ାଇଥାଏ	-4564
ିକାରୀ	-4565
▁ଚାର୍	-4566
▁ହାଡ଼	-4567
▁ଆଦିରେ	-4568
▁କେନ୍ଦୁଝର	-4569
▁ଅନ୍ୟମାନଙ୍କ	-4570
ଫ୍ର	-4571
ତିକୁ	-4572
ବରଣୀ	-4573
▁ଦିଅ	-4574
▁ମହୁ	-4575
ହତ୍ୟା	-4576
▁କ୍ଷୟ	-4577
▁କୂଳରେ	-4578
▁ଫୁଟବଲ	-4579
▁ପାଣିରେ	-4580
▁ସାମରିକ	-4581
▁ଆଫ୍ରିକା	-4582
▁ପ୍ରସ୍ତର	-4583
▁ଏକ୍ସପ୍ରେ	-4584
▁ପଢ଼ିଥିଲେ	-4585
ବେଗ	-4586
ଲମ୍	-4587
ଲ୍ସ	-4588
▁ଦୋ	-4589
ଯାଏଁ	-4590
▁ସୀତ	-4591
▁୫୦୦	-4592
▁ଉତ୍କ	-4593
▁ପଡ଼େ	-4594
▁ପଢ଼ିବା	-4595
▁ବ୍ୟାୟାମ	-4596
▁ଶିକ୍ଷାଗତ	-4597
ib	-4598
୯୫	-4599
▁ଉଦ	-4600
▁ପଢ	-4601
▁ଚାଲ	-4602
▁୪ଟି	-4603
ଲିଖିତ	-4604
▁ଇଷ୍ଟ	-4605
▁ଜୀବନୀ	-4606
▁ବମ୍ବେ	-4607
▁ବ୍ୟାପକ	-4608
▁ଅମ୍ଳଜାନ	-4609
▁ହୋଇଯାଇଥିଲା	-4610
ay	-4611
▁.	-4612
ୋପ୍	-4613
▁ସଜ	-4614
▁କୃଷ	-4615
▁ମନା	-4616
ିବଦ୍ଧ	-4617
▁ଘରକୁ	-4618
▁୧୯୮୮	-4619
ହାଣ୍ଡି	-4620
▁ରାସ୍ତ	-4621
▁ସେଣ୍ଟି	-4622
▁ଅବସ୍ଥାନ	-4623
▁ଇସ୍ରାଏଲ	-4624
▁ପଞ୍ଚାୟତ	-4625
▁ପ୍ରାର୍ଥନା	-4626
',	-4627
ଞ୍	-4628
▁ଗରି	-4629
▁୧୯୬୨	-4630
▁୨୦୨୩	-4631
▁ହଳଦିଆ	-4632
▁କରାଯିବା	-4633
୪୮	-4634
▁ମଝ	-4635
▁ମଳ	-4636
ପ୍ଟର	-4637
ଷ୍ଣା	-4638
▁ଜନ୍	-4639
▁ଡ୍ର	-4640
▁ଖ୍ୟା	-4641
▁ଦୁଃଖ	-4642
▁ପ୍ଲେ	-4643
▁ମେହେ	-4644
▁୧୯୩୦	-4645
▁ଦାନ୍ତ	-4646
ଶାସ୍ତ୍ର	-4647
▁ସଂଖ୍ୟକ	-4648
▁ସାହିତ୍ୟର	-4649
ଲମ	-4650
୩୬	-4651
▁ଧମ	-4652
▁ମୃ	-4653
▁୩୭	-4654
ବର୍ଗ	-4655
ାଗଲା	-4656
▁ଭିଟ	-4657
▁ଆଞ୍ଚ	-4658
▁ବିରଳ	-4659
▁ମଦ୍ୟ	-4660
▁ଏଥିରୁ	-4661
▁ପ୍ରଦୂ	-4662
▁ଦିଆଗଲା	-4663
▁କାର୍ଯ୍ୟର	-4664
ଦ୍ଦ	-4665
ଗ୍ରେ	-4666
ାର୍ଡ଼	-4667
▁ଯତ୍ନ	-4668
▁ଯୁବକ	-4669
▁ଶୋଭା	-4670
ication	-4671
ଦେବା	-4672
▁ଗଛର	-4673
▁୧୯୮୬	-4674
▁କରାଯିବ	-4675
▁ଭାରତକୁ	-4676
▁ଗ୍ରନ୍ଥି	-4677
▁କରିପାରିବେ	-4678
ଖୁ	-4679
ଗ୍ଧ	-4680
ଡ଼ିଏ	-4681
ୂନ୍ୟ	-4682
▁କମା	-4683
▁ନଳୀ	-4684
▁୧୯୮୩	-4685
▁ସନ୍ତୁ	-4686
▁ରାତିରେ	-4687
▁କାର୍ଯ୍ୟା	-4688
▁କ୍ଷେପଣାସ୍ତ୍ର	-4689
ବାବ	-4690
▁କଥ	-4691
ପାର୍	-4692
▁ସରି	-4693
▁ଟ୍ରେନ	-4694
▁ନ୍ୟାୟାଳୟ	-4695
▁ପ୍ରଶାନ୍ତ	-4696
▁ମୁଣ୍ଡବିନ୍ଧା	-4697
୩୮	-4698
ress	-4699
େଙ୍କ	-4700
ଖାନାରେ	-4701
▁ବିବରଣୀ	-4702
▁ମେଡିକାଲ	-4703
▁ଆନ୍ଦୋଳନରେ	-4704
ଘାଟ	-4705
ଲେଇ	-4706
ାଳୁ	-4707
୍ଲି	-4708
▁୩୪	-4709
▁ଛୁଆ	-4710
▁ଜଳା	-4711
▁ବୋଷ	-4712
▁ଚାକି	-4713
▁ଚାନ୍	-4714
▁ପ୍ୟା	-4715
ପ୍ରକାଶ	-4716
▁ଅଧୁନା	-4717
▁ସ୍ୱର୍ଗ	-4718
▁ହେବାରୁ	-4719
ନଗର	-4720
ରେଟ	-4721
ଣ୍ଟେ	-4722
ଣ୍ଡୀ	-4723
ତ୍ମକ	-4724
ହାସନ	-4725
▁କୁଳ	-4726
▁ନାର	-4727
▁ଲଗା	-4728
ାଳୟରେ	-4729
▁ଖବରକ	-4730
▁ରେଖା	-4731
▁ଅର୍ପଣ	-4732
▁ନ୍ୟାସ	-4733
▁ମିହିର	-4734
▁ପ୍ରଫେସର	-4735
▁ଦେଇଛନ୍ତି	-4736
▁ବ୍ରହ୍ମପୁର	-4737
ସଙ୍ଗ	-4738
ସ୍ତର	-4739
▁ଆସନ	-4740
▁ଡାଏ	-4741
velop	-4742
▁ଘଣ୍ଟ	-4743
▁ନଡ଼ିଆ	-4744
▁ମୁଦ୍ର	-4745
▁କଲରାପତ୍ର	-4746
▁ସରକାରଙ୍କଦ୍ୱାରା	-4747
ହୁଁ	-4748
▁ୱି	-4749
ର୍ଘ୍ୟ	-4750
▁ଅସ୍ୱ	-4751
▁ଦାବି	-4752
▁ଲିପି	-4753
▁ହାଇପର	-4754
▁ଚର୍ଚ୍ଚ	-4755
▁ଦିଆଯାଇପାରେ	-4756
କୋଟ	-4757
▁ଜରୁ	-4758
▁ମାଉ	-4759
▁ଅମାବା	-4760
▁ଗୁଜରା	-4761
▁ପୀଡ଼ିତ	-4762
▁ଶୈଳୀରେ	-4763
▁ସମାଲୋଚନା	-4764
ଭର୍	-4765
ିକି	-4766
ିତ୍	-4767
ତଙ୍କ	-4768
ଶୀଳନ	-4769
▁ଅଦାଲ	-4770
▁ଗୋଡ଼	-4771
▁ନୟାଗ	-4772
▁ନିମୋନ	-4773
▁ସୁସ୍ଥ	-4774
▁ପ୍ରତିଭା	-4775
▁ବିଦ୍ୟୁତ	-4776
▁ଅବସ୍ଥିତି	-4777
▁ନେତୃତ୍ୱରେ	-4778
▁ପାଣିଗ୍ରାହୀ	-4779
ast	-4780
low	-4781
▁ଧା	-4782
ର୍ଘଟ	-4783
▁ଇଲା	-4784
▁ପାସ	-4785
ନଥିଲା	-4786
▁ଚାଉଳ	-4787
▁ଉପାଧି	-4788
▁ରୋଗୀର	-4789
ାନ୍ତରିତ	-4790
▁ଚୁକ୍ତି	-4791
▁ଦେଖିଲେ	-4792
▁ସ୍ଥାପନା	-4793
▁ପରିସ୍ଥିତି	-4794
ଫର	-4795
▁6	-4796
ୱାର	-4797
▁୩୨	-4798
ବିଟର	-4799
▁ନାଇ	-4800
ବସ୍ତୁ	-4801
▁ଆକର୍ଷ	-4802
▁ଅଧ୍ୟାପକ	-4803
▁ଟ୍ରାନ୍ସ	-4804
▁ତୁଳନାରେ	-4805
▁ରଥଯାତ୍ରା	-4806
▁ହୋଇନାହିଁ	-4807
ମଳ	-4808
୧୯୫	-4809
୍ରୋତ	-4810
▁ଅଣୁ	-4811
▁ଛଡ଼ା	-4812
▁ତୁଳସୀ	-4813
▁ମାଲିକ	-4814
▁ସଂସାର	-4815
▁ଚାରୋଟି	-4816
୍ଳ	-4817
୩୭	-4818
ang	-4819
ଭିଏ	-4820
ସିଟି	-4821
▁ଧାନ	-4822
ୃତ୍ତି	-4823
▁୧୯୬୫	-4824
▁ଆଡ଼କୁ	-4825
▁ଆଶଙ୍କା	-4826
▁ବିକ୍ରମ	-4827
▁ଯାହାଦ୍ୱାରା	-4828
ଣର	-4829
ଥୁ	-4830
▁[	-4831
▁୧୮୫	-4832
ଗ୍ରାମ	-4833
ୋତ୍ତମ	-4834
▁ଇମ୍ମ	-4835
▁କାନା	-4836
▁କ୍ଲୋ	-4837
▁ବିଂଶ	-4838
▁ବୃହତ	-4839
▁ଧାରଣା	-4840
▁ମିଟର୍	-4841
▁ମିତ୍ର	-4842
▁ଶିରାଭ୍ୟନ୍ତ	-4843
ୟାରୀ	-4844
▁ଛତିଶ	-4845
▁ବାରି	-4846
▁ଯକ୍ଷ	-4847
▁୧୯୫୧	-4848
▁ଶ୍ୟାମ	-4849
ଲକ୍ଷ୍ମୀ	-4850
▁ଚାକିରି	-4851
▁ଜଳବାୟୁ	-4852
▁ଦୁର୍ଘଟ	-4853
▁ପ୍ରୋଟି	-4854
▁କୋରାପୁଟ	-4855
▁ଜେନେଟିକ	-4856
ିବାର	-4857
▁ମୁସ	-4858
▁ମସଲା	-4859
▁ହ୍ୟୁ	-4860
▁ଶୁଷ୍କ	-4861
▁ରହୁଥିଲେ	-4862
▁ବିପକ୍ଷରେ	-4863
li	-4864
st	-4865
ଇନ	-4866
ଟେଡ	-4867
ଳନୀ	-4868
ଳାର	-4869
▁ନୃ	-4870
▁ହୃଦ	-4871
କୁମାର	-4872
ିଶାଳୀ	-4873
▁କରେଇ	-4874
▁ଗୋଟି	-4875
▁ଦୃଢ଼	-4876
▁ମେଳା	-4877
▁ଜରୁରୀ	-4878
▁ତାଲିମ	-4879
▁ପାଖକୁ	-4880
▁୨୦୧୧ରେ	-4881
▁ଅର୍ଥାତ୍	-4882
▁ସମ୍ମୁଖରେ	-4883
ans	-4884
ଟ୍ରି	-4885
ସାହିତ	-4886
▁ଲାଞ୍ଜ	-4887
▁ଅନୁସରଣ	-4888
▁ଉଦ୍ଧାର	-4889
▁ଗୁରୁତର	-4890
▁ଯାଜପୁର	-4891
▁ଯାଉଥିବା	-4892
▁ଉର୍ଦ୍ଧ୍ୱ	-4893
▁ସଂସ୍ପର୍ଶରେ	-4894
୪୭	-4895
ୋନି	-4896
▁ସଲ	-4897
ease	-4898
ର୍ମି	-4899
▁ସତୀ	-4900
▁୩ଟି	-4901
▁ଚାଲୁ	-4902
▁ନଥାଏ	-4903
▁ଥଣ୍ଡା	-4904
▁ଦିଗକୁ	-4905
▁ପାଇଛି	-4906
▁ବ୍ୟାସ	-4907
▁ସପ୍ତମ	-4908
▁ଭିତରକୁ	-4909
▁ଯାଇଥିବା	-4910
▁ସ୍ୱୀକୃତ	-4911
▁ପୁନର୍ବାର	-4912
▁ରାଷ୍ଟ୍ରୀୟ	-4913
▁e	-4914
▁।"	-4915
ment	-4916
ତ୍ସବ	-4917
▁ଦାଗ	-4918
▁ରୋଜ	-4919
▁ଚେନ୍ନ	-4920
▁ଯାତ୍ରୀ	-4921
▁ସ୍ୱାଇଁ	-4922
ଇଂରାଜୀରେ	-4923
▁ଉଦ୍ଦେଶ୍ୟ	-4924
▁ପରିମାଣରେ	-4925
▁ସମ୍ପୁର୍ଣ୍ଣ	-4926
କେଲ	-4927
ଣ୍ଡୁ	-4928
ବାଦର	-4929
▁ଖାଁ	-4930
▁ପାପ	-4931
▁ସାହ	-4932
▁ରାୟଗ	-4933
▁ସୀତା	-4934
▁ଅନୁଶୀଳନ	-4935
")	-4936
ମତ	-4937
ପାଦ	-4938
ଜିଙ୍ଗ	-4939
▁କ୍ୱା	-4940
▁ବାଳକ	-4941
▁୧୯୬୪	-4942
ବେକ୍ଷଣ	-4943
ହାନ୍ତି	-4944
▁କଳାରେ	-4945
▁କ୍ରିୟା	-4946
▁ରୋଗୀଙ୍କର	-4947
▁ସୁବର୍ଣ୍ଣ	-4948
କରା	-4949
ପ୍ନ	-4950
େନ୍	-4951
▁ଢା	-4952
ାରିକ	-4953
▁ଏମ୍	-4954
▁କୋକ	-4955
▁୧୮୭	-4956
▁ଆଲୁମ	-4957
▁ପ୍ରଜ	-4958
▁ଫ୍ରେ	-4959
▁ଅବସାଦ	-4960
▁ଡାହାଣ	-4961
▁ଭାଗବତ	-4962
▁ବାନ୍ଧି	-4963
▁ବିରୋଧୀ	-4964
▁୨୦୧୭ରେ	-4965
▁ପର୍ଯ୍ୟାୟ	-4966
▁ପ୍ରଭାବଶାଳୀ	-4967
ଣ୍ୟ	-4968
ମାୟ	-4969
▁୪୯	-4970
ଲିପି	-4971
ଳାରେ	-4972
▁ଏଣୁ	-4973
ୋଲୋଜି	-4974
▁ବିଲି	-4975
▁ନିଷ୍କ	-4976
▁ବିଭାଜନ	-4977
ଜିଆ	-4978
ବର୍	-4979
ଭିର	-4980
ାବୀ	-4981
କୁମା	-4982
୦୦୦ରୁ	-4983
▁ସାହି	-4984
▁ସୁପର	-4985
▁ଉପାସନା	-4986
▁ଯିବାକୁ	-4987
▁ଅଞ୍ଚଳକୁ	-4988
''	-4989
ow	-4990
ଉତ୍	-4991
୍ୟୁନ	-4992
▁ଶାର	-4993
▁ଅସୁର	-4994
▁ମଡେଲ	-4995
▁ସରୋଜ	-4996
▁ଏପରିକି	-4997
▁ବିନ୍ଦୁ	-4998
▁ସଂଘର୍ଷ	-4999
▁ସ୍ଥାନର	-5000
▁ହୋଇସାରି	-5001
▁ଇଂରାଜୀରେ	-5002
▁ସଂରକ୍ଷିତ	-5003
▁ମହାବିଦ୍ୟାଳୟରୁ	-5004
ଦଶ	-5005
ହତ	-5006
େହ	-5007
ବହାର	-5008
୍ରିମ	-5009
▁ବରଂ	-5010
▁ବାଟ	-5011
▁ଅଭିଶ	-5012
ହିନ୍ଦୀ	-5013
▁ଜଳପ୍ର	-5014
ଯାଆନ୍ତି	-5015
▁ମହତ୍ତ୍ୱ	-5016
▁କରାଯାଉଥିବା	-5017
▁ଧାରାବାହିକରେ	-5018
ଗଲ	-5019
▁କାଲ	-5020
▁ମତେ	-5021
▁ଅମୃତ	-5022
▁ଉପଶମ	-5023
▁କଥିତ	-5024
▁କ୍ୟୁ	-5025
▁ନିରୀ	-5026
▁ମିଳନ	-5027
▁୧୯୫୬	-5028
ଣ୍ଡିଚା	-5029
▁ଏଠାରୁ	-5030
ନ୍ତ୍ରିତ	-5031
ସ୍ଥିତିରେ	-5032
▁ଆସିଥିବା	-5033
▁କେନ୍ଦ୍ରା	-5034
▁ଚତୁର୍ଦ୍ଦ	-5035
▁ଲେଖିଛନ୍ତି	-5036
୩୨	-5037
୩୪	-5038
▁V	-5039
ଦକର	-5040
ପ୍ରଥ	-5041
ଯାତ୍ର	-5042
ସ୍ପତି	-5043
▁କଠିନ	-5044
▁ଜୁନ୍	-5045
▁ବ୍ରୋ	-5046
▁ସଫ୍ଟ	-5047
▁ଇସଲାମ	-5048
▁ଦିବ୍ୟ	-5049
▁ପତନଠାରୁ	-5050
▁ପଡ଼ିଥିଲା	-5051
▁ଚଳଚ୍ଚିତ୍ରଟିର	-5052
ପୋଷ	-5053
ଶିଷ	-5054
ତ୍ରା	-5055
▁ସରଳ	-5056
ପୁରରେ	-5057
▁ଏସିଡ	-5058
▁ରଞ୍ଜନ	-5059
▁ସାନ୍ତ	-5060
▁ଅତିକ୍ରମ	-5061
▁ବଙ୍ଗଳାଦେଶୀ	-5062
ଅର୍	-5063
ନିଶ	-5064
ପ୍ରଦ	-5065
ବିଧି	-5066
▁pro	-5067
▁ଭରତ	-5068
ଙ୍ଗୀର	-5069
ବାରିକ	-5070
▁ବଳିଆ	-5071
▁ସବୁଜ	-5072
▁ଥକ୍କା	-5073
▁ଇଂଲଣ୍ଡ	-5074
▁ଗାୟିକା	-5075
▁ଶକ୍ତିଶାଳୀ	-5076
ାମୂ	-5077
▁୪୭	-5078
▁ଦୋଳ	-5079
▁ପଲି	-5080
▁ସହଜ	-5081
▁ହାଉ	-5082
▁ଗୁଳି	-5083
▁ଝାଡ଼	-5084
▁ଭଟ୍ଟ	-5085
▁ଲାଗୁ	-5086
▁ସ୍ତନ	-5087
▁୧୯୪୨	-5088
▁୧୯୮୧	-5089
ଞ୍ଚଳରେ	-5090
▁ଯୋଗାଣ	-5091
ପ୍ରଦେଶର	-5092
▁କ୍ରନିକ	-5093
▁ଜୀବକୋଷ	-5094
▁ମୁଦ୍ରା	-5095
▁କାଶ୍ମୀର	-5096
▁ପ୍ରାଚୀର	-5097
▁ସୁରେନ୍ଦ୍ର	-5098
ug	-5099
େଇବା	-5100
ୋଜେନ	-5101
▁ଚୟନ	-5102
ନିହିତ	-5103
▁ଅନନ୍ୟ	-5104
▁ସାକ୍ଷାତ	-5105
▁ଦେଖାଯାଇଛି	-5106
▁୩୮	-5107
tive	-5108
ପ୍ତି	-5109
ରେସନ	-5110
▁ତ୍ର	-5111
▁କବିତ	-5112
▁ଲମ୍ବ	-5113
▁ଆକାରର	-5114
▁ଥିଏଟର	-5115
▁ଜାଣିବା	-5116
▁ଅଳଙ୍କାର	-5117
▁କହିଛନ୍ତି	-5118
▁ଜଳପ୍ରପାତ	-5119
▁ଟୋ	-5120
ଗଣିତ	-5121
ର୍ମୁ	-5122
▁ସିକ	-5123
▁ସୁଲ	-5124
▁ଜଗତର	-5125
▁ପରାଜ	-5126
▁ଆମ୍ବେ	-5127
▁ବଦଳରେ	-5128
▁ସମାଜର	-5129
ଦର୍ଶନରେ	-5130
▁ପ୍ରଣାଳ	-5131
▁ମିଳିଛି	-5132
▁ଉପସ୍ଥିତ	-5133
▁ଖ୍ରୀଷ୍ଟପୂର୍ବ	-5134
.)	-5135
▁ଅତ	-5136
▁ଲୌ	-5137
ଟେଣ୍ଟ	-5138
ଣ୍ଟିଆ	-5139
▁ଦେହର	-5140
▁୧୯୭୬	-5141
▁ଆଶ୍ରମ	-5142
▁ଶିବଙ୍କ	-5143
▁ରାଜନେତା	-5144
▁ମହିଳାମାନଙ୍କ	-5145
▁ଶ୍ୱାସକ୍ରିୟା	-5146
ଏବ	-5147
ମ୍ସ	-5148
ଚକ୍ର	-5149
ିକୋଣ	-5150
ୃଷ୍ଠ	-5151
▁ବୈଷ	-5152
▁ଶିର	-5153
ଯୋଗ୍ୟ	-5154
▁ଭେଟି	-5155
▁ଶୁଣା	-5156
ସେପ୍ଟର	-5157
▁ମରାଠୀ	-5158
▁ଯୁଗରେ	-5159
▁ଜ୍ୟୋତିଷ	-5160
▁ଆକାଶବାଣୀ	-5161
ଭୂଷଣ	-5162
▁ରାଧ	-5163
ୀମାନେ	-5164
▁ଅତୀତ	-5165
▁ବେସର	-5166
▁ମାଲା	-5167
▁ଶାହା	-5168
▁୧୯୭୩	-5169
ଥେରାପି	-5170
▁ଆସିଛି	-5171
▁ବଞ୍ଚି	-5172
▁କର୍ତ୍ତ	-5173
▁ବଳଭଦ୍ର	-5174
▁ଲେଖିକା	-5175
▁ଦେହାନ୍ତ	-5176
▁କଲରାପତ୍ରିଆ	-5177
▁ଅନ୍ତର୍ନିହିତ	-5178
▁ପରିବର୍ତ୍ତିତ	-5179
ଖଲ	-5180
ଝା	-5181
ରର	-5182
୬୬	-5183
ମକୁ	-5184
▁ଧାର	-5185
ତ୍ମିକ	-5186
▁ନିରା	-5187
▁ମୁକୁ	-5188
▁ଉଦ୍ଭାବ	-5189
▁ସନ୍ଧାନ	-5190
ଷ୍ଟିଚ୍ୟୁ	-5191
▁କାର୍ଯ୍ୟକ	-5192
ବାଘ	-5193
▁ନୈ	-5194
ନିର୍	-5195
ମାର୍	-5196
▁୧୬ଶ	-5197
▁ଅପରା	-5198
▁ନେଲେ	-5199
▁ବାଧା	-5200
ସ୍ୱାମୀ	-5201
▁ଦୁଇଥର	-5202
▁ବାନ୍ଧ	-5203
▁ଏସିଆରେ	-5204
▁ଭିତ୍ତି	-5205
▁ଆସୁଥିବା	-5206
▁ଦୈର୍ଘ୍ୟ	-5207
▁ଇଞ୍ଜିନିୟ	-5208
▁ବିଶେଷଜ୍ଞ	-5209
▁ପୁରୁଷୋତ୍ତମ	-5210
୩୯	-5211
କେଶ	-5212
▁ଏଲ	-5213
କ୍ଷକ	-5214
ତନ୍ୟ	-5215
ାରୋହ	-5216
▁ଏସ୍	-5217
▁ଚିଲ	-5218
ଫେୟାର	-5219
ଶ୍ଚାତ	-5220
▁ଗୋପୀ	-5221
▁ପରିଲ	-5222
ହିବିଟର	-5223
▁ଏସିଆର	-5224
▁ବୁଝାଏ	-5225
▁ସଚେତନ	-5226
▁ସୈନିକ	-5227
▁ନରସିଂହ	-5228
▁ହନୁମାନ	-5229
▁ଆମ୍ବେଦକର	-5230
▁ସମ୍ମିଳନୀ	-5231
▁ଅପେକ୍ଷାକୃତ	-5232
ip	-5233
ହୋ	-5234
ୁଦ	-5235
oun	-5236
ଖରୀ	-5237
▁ଯଶ	-5238
▁ଏକକ	-5239
▁ବହନ	-5240
କାଳରେ	-5241
▁ଚକ୍ଷ	-5242
▁ଚାହୁଁ	-5243
ାବର୍ତ୍ତ	-5244
▁ପ୍ରଶ୍ନ	-5245
▁disease	-5246
▁ବିଖ୍ୟାତ	-5247
▁ଉପେନ୍ଦ୍ର	-5248
▁ବ୍ୟବସାୟିକ	-5249
▁କାର୍ଯ୍ୟାଳୟ	-5250
▁ଦେଖାଯାଉଥିବା	-5251
ୈତ	-5252
ଖାଇ	-5253
ାବନ	-5254
▁ରନ	-5255
▁ପ୍ଲ	-5256
ଚ୍ଛେଦ	-5257
ର୍କରା	-5258
▁କାମୁ	-5259
▁କାରକ	-5260
▁ପୂରଣ	-5261
▁ବିନି	-5262
▁୧୯୫୮	-5263
▁ବିଶ୍ୱଯୁଦ୍ଧ	-5264
ଯୁଗ	-5265
ଶାଳ	-5266
୍ୱା	-5267
▁କପ	-5268
ାମଣି	-5269
େରାଲ	-5270
▁ଏଜେ	-5271
▁ଗାଈ	-5272
▁ବାଂ	-5273
▁ଚୀନର	-5274
▁ବାସୁ	-5275
▁ଷଷ୍ଠ	-5276
develop	-5277
▁ପ୍ରତିଦିନ	-5278
▁ପରିଲକ୍ଷିତ	-5279
କ୍ୟ	-5280
ଖିଳ	-5281
▁ବଧ	-5282
ସ୍ପି	-5283
▁ତିବ	-5284
ଡ଼ିବା	-5285
▁ତୁମେ	-5286
▁ପରମା	-5287
▁ସେକେ	-5288
ଦେବଙ୍କ	-5289
▁ଆକୃତି	-5290
▁ଆଧ୍ୟା	-5291
▁ପରଲୋକ	-5292
▁ପୋଷାକ	-5293
▁ଲୋହିତ	-5294
▁ସୌନ୍ଦ	-5295
▁ଦେଖିବା	-5296
▁କୁହନ୍ତି	-5297
▁ଦିଲ୍ଲୀର	-5298
▁ସହାୟତାରେ	-5299
og	-5300
ଳଖ	-5301
ଗାନ	-5302
ପଦା	-5303
ଚ୍ଛଦ	-5304
▁ରଚନ	-5305
▁ଶୋଇ	-5306
▁୧୩ଶ	-5307
▁୧୫ଶ	-5308
ଭୁକ୍ତ	-5309
▁ଅର୍ବ	-5310
▁ଆସାମ	-5311
▁ଫୁଲା	-5312
▁ମଝିରେ	-5313
▁ପରମ୍ପର	-5314
▁ସୁପାରି	-5315
୍ୟୁନିଷ୍ଟ	-5316
▁ଆକର୍ଷିତ	-5317
▁ସମ୍ପତ୍ତି	-5318
▁ଆତ୍ମହତ୍ୟା	-5319
▁କରିବାପାଇଁ	-5320
▁ପ୍ରୋଗ୍ରାମ	-5321
pl	-5322
ୂତ	-5323
୍ତି	-5324
▁ପଚ	-5325
▁ଅନି	-5326
▁ଇମେ	-5327
▁ମେକ	-5328
ଷ୍ଟମୀ	-5329
▁ଏକଦା	-5330
▁ରାଜୁ	-5331
▁world	-5332
▁ଉଚ୍ଚତମ	-5333
▁ମହକୁମା	-5334
▁ନିମୋନିଆ	-5335
▁ସଂଯୋଜନା	-5336
▁ଅଲିମ୍ପିକ	-5337
▁ବିଶ୍ୱନାଥ	-5338
▁ସମ୍ପାଦନା	-5339
▁ଡୁ	-5340
▁୩୯	-5341
▁କୀଟ	-5342
▁ଦାମ	-5343
ପେକ୍ଷ	-5344
▁୧୯୭୮	-5345
▁ଚିତ୍ତ	-5346
▁ବାଙ୍ଗ	-5347
▁ପ୍ରୟାସ	-5348
▁ଲେଖିବା	-5349
▁ଇନହିବିଟର	-5350
▁ଦିଲ୍ଲୀରେ	-5351
ଟୀ	-5352
▁?	-5353
anc	-5354
ଡ଼କ	-5355
ବେଲ	-5356
▁ମରୁ	-5357
▁ସେଲ	-5358
▁କ୍ଲା	-5359
▁ପ୍ରହ	-5360
▁ଯୋଗ୍ୟ	-5361
▁ଶିଷ୍ୟ	-5362
▁କରାଇବା	-5363
▁ଦେଇଥାଏ	-5364
▁ବିଶେଷତଃ	-5365
▁ଯୋଗାଯୋଗ	-5366
▁କଳାହାଣ୍ଡି	-5367
ଦିର	-5368
ୃତା	-5369
▁ରକ	-5370
ପ୍ରୋ	-5371
ମ୍ମୁ	-5372
ରଙ୍ଗ	-5373
ଶେଖର	-5374
▁ଦହି	-5375
▁ସାଲ	-5376
ଫୁଲ୍ଲ	-5377
▁ଖାଲି	-5378
▁ଟ୍ୟୁ	-5379
▁ଗାଡ଼ି	-5380
▁ମ୍ୟାନ	-5381
▁ଅନୁଗୋଳ	-5382
▁ନିଜସ୍ୱ	-5383
▁ସ୍ପର୍ଶ	-5384
▁ଖୋର୍ଦ୍ଧା	-5385
▁ଦକ୍ଷିଣରେ	-5386
▁ହୋଇପାରିବ	-5387
▁ପାରିବାରିକ	-5388
hy	-5389
୪୪	-5390
▁8	-5391
ପାଥି	-5392
ସମ୍ପ	-5393
▁କୋଠ	-5394
▁ଚର୍	-5395
▁ବ୍ଯ	-5396
▁ପଛରେ	-5397
▁୧୯୬୯	-5398
ୀର୍ତ୍ତ	-5399
ପ୍ରଜାତି	-5400
▁ଦେବଙ୍କ	-5401
▁ଥିବାବେଳେ	-5402
▁ଅଷ୍ଟ୍ରେଲିଆ	-5403
act	-5404
ନେଟ	-5405
ଲତା	-5406
▁୭ମ	-5407
କର୍ମ	-5408
ଭୂତି	-5409
ାନାଳ	-5410
▁ମୁନି	-5411
▁୪ର୍ଥ	-5412
▁ଏକାଠି	-5413
▁ଏଠାକୁ	-5414
▁ବନ୍ଦୀ	-5415
▁ନିରାପଦ	-5416
▁୨୦୧୦ରେ	-5417
▁ବୃହତ୍ତମ	-5418
▁ସମ୍ପର୍କିତ	-5419
if	-5420
▁7	-5421
▁ଦ୍	-5422
▁୫୧	-5423
ମ୍ପା	-5424
▁ଚେତ	-5425
▁ଦୁର	-5426
▁ସୁଦ	-5427
ିକାଲ୍	-5428
▁ଅନିୟ	-5429
▁ଇଞ୍ଚ	-5430
▁ଉଦ୍ୟମ	-5431
▁ବୃଦ୍ଧ	-5432
▁ସକ୍ଷମ	-5433
▁ଜାତିସଂ	-5434
▁ଅଧିନାୟକ	-5435
▁ଉତ୍ତରରେ	-5436
▁ଠାକୁରାଣୀ	-5437
ଯେ	-5438
ens	-5439
ାକ୍ତ	-5440
▁ଅମର	-5441
▁ଯୁଗର	-5442
▁ହରାଇ	-5443
▁୧୯୭୯	-5444
▁ଶର୍ମା	-5445
▁ୱିକେଟ	-5446
▁ପାଠ୍ୟକ୍ରମ	-5447
▁ଆଧ୍ୟାତ୍ମିକ	-5448
yl	-5449
▁କିଏ	-5450
▁ବକ୍ତ	-5451
▁ବଦଳି	-5452
▁ନିର୍ଗତ	-5453
▁ନୃସିଂହ	-5454
ct	-5455
୪୬	-5456
orm	-5457
ଡ଼ାର	-5458
ଭାଷା	-5459
ମୁଖୀ	-5460
▁ଓଷା	-5461
▁ମେଚ	-5462
▁୧୨ଶ	-5463
▁କାଗଜ	-5464
▁ପିଛା	-5465
▁ଲୀଳା	-5466
ଶସ୍ତ୍ର	-5467
▁ସେଠାରୁ	-5468
▁କ୍ୟାଲସି	-5469
▁ଥାଆନ୍ତି	-5470
▁ଅମାବାସ୍ୟା	-5471
▁ଫାଉଣ୍ଡେସନ	-5472
▁କରାଯାଇପାରିବ	-5473
ନାଗ	-5474
ଡ଼ାଇ	-5475
▁ଏପି	-5476
▁ପୋକ	-5477
▁ବେଲ	-5478
▁ମକର	-5479
▁୧୪ଶ	-5480
ଜୀଙ୍କ	-5481
▁କଣ୍ଟ	-5482
▁ପ୍ରବଳ	-5483
▁ବାଂଲା	-5484
▁ପରିଡ଼ା	-5485
▁ପର୍ବତମ	-5486
େଙ୍କାନାଳ	-5487
▁ସୁପାରିସ	-5488
▁ରଖାଯାଇଥିଲା	-5489
ide	-5490
ବ୍ର	-5491
▁ଏତ	-5492
▁ଯମ	-5493
ସୀମା	-5494
▁ଶରତ	-5495
▁ଗସ୍ତ	-5496
▁ଡକ୍ଟ	-5497
▁ଟ୍ରାଇ	-5498
▁ଦୂରତା	-5499
▁ରହିଲା	-5500
▁ଅଧିନରେ	-5501
▁ରକ୍ତରେ	-5502
▁କେନ୍ଦ୍ରରେ	-5503
ଦୁର	-5504
ହାଁ	-5505
ାୟୀ	-5506
▁ପଲ	-5507
ବଙ୍ଗ	-5508
ସ୍ୱର	-5509
▁ମଦନ	-5510
ଲେରିଆ	-5511
▁୧୯୪୬	-5512
▁୧୯୬୩	-5513
▁୧୯୬୮	-5514
▁୬ଷ୍ଠ	-5515
ପ୍ରଦେଶ	-5516
▁ଅତ୍ୟା	-5517
ଶ୍ରେଷ୍ଠ	-5518
▁ତିଥିରେ	-5519
▁ପ୍ରଚ୍ଛଦ	-5520
▁ବିସ୍ତୃତ	-5521
▁ଏକ୍ସପ୍ରେସ	-5522
▁ଗୀତଗୁଡ଼ିକ	-5523
▁ସଂଗ୍ରହାଳୟ	-5524
ଓଡ଼	-5525
ସଭା	-5526
ହରି	-5527
▁୫ମ	-5528
ଲିଟି	-5529
▁୧୦ମ	-5530
▁ଅଥବା	-5531
▁କ୍ଷତ	-5532
▁ଦତ୍ତ	-5533
▁ସାଧୁ	-5534
▁ଭିତରୁ	-5535
▁ଆର୍ଯ୍ୟ	-5536
▁ପରିବହନ	-5537
▁କରିସାରି	-5538
▁ପ୍ରଫୁଲ୍ଲ	-5539
▁ସମ୍ବନ୍ଧରେ	-5540
▁କାର୍ଯ୍ୟକଳାପ	-5541
ିଆଇ	-5542
ାସୁର	-5543
ୁରାମ	-5544
▁୨ଟି	-5545
▁ଗନ୍ଧ	-5546
▁ଦମ୍ପ	-5547
ୁଦ୍ରିକ	-5548
▁ପୂଜାର	-5549
▁ମଣ୍ଡଳ	-5550
ପୁରଠାରେ	-5551
▁ଗାନ୍ଧି	-5552
▁ପାଣ୍ଡବ	-5553
▁ଆବିଷ୍କୃତ	-5554
▁ମୟୂରଭଞ୍ଜ	-5555
୯୯	-5556
ଡରେ	-5557
ଫିନ୍	-5558
ୌପ୍ୟ	-5559
▁ଜରା	-5560
▁ପଠା	-5561
▁ବେଗ	-5562
▁ଭୁଲ	-5563
▁ସୁଖ	-5564
ଟ୍ରିକ	-5565
ନ୍ଦ୍ୱ	-5566
▁କପୁର	-5567
▁୧୯୨୦	-5568
▁କରିଦେଲେ	-5569
▁ଉତ୍ପତ୍ତି	-5570
▁ଦେଖାଯାନ୍ତି	-5571
▁J	-5572
▁sy	-5573
▁ଇତି	-5574
ଜନ୍ତୁ	-5575
▁ପାରୁ	-5576
▁ବାକି	-5577
▁ସମର୍	-5578
ପାରିବେ	-5579
ପ୍ରସାଦ	-5580
▁ରିସେପ୍ଟର	-5581
▁ସୌନ୍ଦର୍ଯ୍ୟ	-5582
୬୭	-5583
୮୮	-5584
ଗୁଣ	-5585
ଡାର	-5586
ତିତ	-5587
ମାଲ	-5588
▁or	-5589
▁tr	-5590
ଜ୍ଜା	-5591
▁ନାସ	-5592
▁ବରି	-5593
▁ଶାବ	-5594
▁ଧମନୀ	-5595
ପିଡ଼ିଆ	-5596
▁ଗୁଡିକ	-5597
▁ଆସନ୍ତି	-5598
▁ଦ୍ୱାରା	-5599
▁ରଖାଯାଏ	-5600
▁ଶୁଖିଲା	-5601
▁ସାଥିରେ	-5602
▁ଗଙ୍ଗାଧର	-5603
▁ସିଂହାସନ	-5604
▁ହାଇସ୍କୁ	-5605
▁ଦୃଷ୍ଟିକୋଣ	-5606
▁ଫିଲ୍ମଫେୟାର	-5607
▁୮ମ	-5608
ଞ୍ଜା	-5609
ସିଆଲ	-5610
ୃଶ୍ୟ	-5611
▁ବୋଧ	-5612
ାବଧାନ	-5613
ଶିକ୍ଷା	-5614
▁ନମ୍ବର	-5615
▁ବୈଷୟିକ	-5616
▁ପ୍ରଶାସନ	-5617
▁ସାମୁଦ୍ରିକ	-5618
ଳିଆ	-5619
ୋନୋ	-5620
▁୬୫	-5621
ସିନ୍	-5622
ସେନା	-5623
▁ଅଧା	-5624
ନାଲରେ	-5625
▁ଚିନି	-5626
▁ଦଳକୁ	-5627
▁୧୯୫୪	-5628
ସ୍ଥାୟୀ	-5629
▁ଅକ୍ଷର	-5630
▁ଦିନକୁ	-5631
▁ସଂଶୋଧନ	-5632
▁ପରିସ୍ରା	-5633
▁ପ୍ରସନ୍ନ	-5634
▁ରାଉତରାୟ	-5635
▁ପ୍ରାରମ୍ଭରେ	-5636
▁ମହାପ୍ରଭୁଙ୍କ	-5637
ମିର	-5638
ାଂଶ	-5639
ଲମ୍ବ	-5640
୍ୱିକ	-5641
▁ଏଲି	-5642
▁ଭଜନ	-5643
ଉତ୍କଳ	-5644
ତାଙ୍କ	-5645
▁ନିମ୍	-5646
▁ଭଙ୍ଗା	-5647
▁ସାର୍ବ	-5648
▁ଅଭ୍ୟାସ	-5649
▁କଳ୍ପନା	-5650
▁ନାଟକରେ	-5651
▁ପୂର୍ବକ	-5652
▁ଯୁକ୍ତି	-5653
▁୨୦୦୯ରେ	-5654
▁ବିଜ୍ଞାନୀ	-5655
ଂକ	-5656
ୀଣ	-5657
ଲିଉ	-5658
ସର୍	-5659
▁ଏଡ	-5660
ଦାତା	-5661
ହେତୁ	-5662
ିରଏଡ	-5663
▁ଶାଳ	-5664
ଶିଷ୍ଟ	-5665
▁ଫକୀର	-5666
▁ଫୁଟ୍	-5667
▁ବୟସର	-5668
▁ଖୋଦିତ	-5669
▁ଦ୍ରୁତ	-5670
▁ପାଢ଼ୀ	-5671
▁ପୋଷ୍ଟ	-5672
▁ରକ୍ଷଣ	-5673
▁ରୋଗକୁ	-5674
▁ସିଙ୍ଗ	-5675
▁ଅଧ୍ୟାୟ	-5676
▁ଶବ୍ଦଟି	-5677
▁ସନ୍ଦେହ	-5678
▁ସମାଜରେ	-5679
▁ଜର୍ମାନୀ	-5680
ha	-5681
ଫୁଟ	-5682
ମିଶ	-5683
ମ୍ୟ	-5684
ିଆଲ	-5685
▁୫୨	-5686
ଳେଷଣ	-5687
ଶାଳା	-5688
▁ମହୋ	-5689
ପାଟଣା	-5690
▁ଠିକ୍	-5691
▁ଥାଇର	-5692
କ୍ରମିକ	-5693
▁ଚୁମ୍ବ	-5694
▁ଜାହାଜ	-5695
▁ସଂସଦର	-5696
▁ଶର୍କରା	-5697
▁ଅଧିବାସୀ	-5698
▁କମ୍ପାନୀର	-5699
▁ସୁରକ୍ଷିତ	-5700
▁ଶିକ୍ଷାଦାନ	-5701
▁ପର୍ଯ୍ୟାୟରେ	-5702
▁ପାରମ୍ପାରିକ	-5703
ous	-5704
ଷେକ	-5705
ାଳନ	-5706
ିନର	-5707
▁ପୃଥ	-5708
▁ଭ୍ର	-5709
▁ଅଞ୍ଜ	-5710
▁ଆଗକୁ	-5711
▁ପଢ଼ି	-5712
▁ସାମ୍	-5713
▁୧୯୪୦	-5714
▁ମାସିକ	-5715
▁ରୌପ୍ୟ	-5716
▁ଅର୍ବୁଦ	-5717
▁ଆଞ୍ଚଳିକ	-5718
▁ଆରମ୍ଭରେ	-5719
▁ପରିଗଣିତ	-5720
▁ଫ୍ରାନ୍ସ	-5721
▁କରିଦେଇଥିଲେ	-5722
▁ଚନ୍ଦ୍ରଶେଖର	-5723
ହୀ	-5724
ଆର୍	-5725
ବୃହ	-5726
ୋଚନ	-5727
▁ଇକ	-5728
▁ଚୂ	-5729
ଣ୍ଡ୍	-5730
ଲିସ୍	-5731
ସାୟନ	-5732
ାଇନୋ	-5733
ାସିତ	-5734
▁ପାତ	-5735
▁୫ଟି	-5736
ିତ୍ରୀ	-5737
▁ନିଆଁ	-5738
▁ସମ୍ଭ	-5739
▁ସିଟି	-5740
▁କାନ୍ଥ	-5741
▁କୁମ୍ଭ	-5742
▁ଗୀତରେ	-5743
▁ବଲ୍ଲଭ	-5744
▁ଜଟିଳତା	-5745
▁ଅନୁମୋଦନ	-5746
▁ଚିନ୍ତାଧ	-5747
▁ଗଣତନ୍ତ୍ର	-5748
▁ଟେଲିଭିଜନ	-5749
▁ସମ୍ମାନରେ	-5750
20	-5751
ଏଫ୍	-5752
ନାଇ	-5753
ଭେଦ	-5754
▁to	-5755
▁ଗୟ	-5756
ବର୍ତ	-5757
ହ୍ନା	-5758
▁ଛବି	-5759
▁ଡିସ	-5760
▁ବତି	-5761
▁ଆରାଧ	-5762
▁ଆର୍ଥ	-5763
▁କାରା	-5764
▁ମାଧବ	-5765
▁ଅଷ୍ଟମ	-5766
▁ଆସୋସି	-5767
▁ଘୋଡ଼ା	-5768
▁ପୁଷ୍ପ	-5769
ନେଇଥିଲେ	-5770
▁ବଙ୍ଗଳାଦେଶ	-5771
ୃଶ	-5772
ଗାମୀ	-5773
ଡ଼ିର	-5774
ପ୍ଲା	-5775
ୃକ୍ତ	-5776
ମ୍ୟାନ	-5777
▁ତନ୍ମ	-5778
▁ଧାତୁ	-5779
▁ନବୀନ	-5780
▁ଅସ୍ୱା	-5781
▁ଋତୁରେ	-5782
▁ଗବେଷକ	-5783
▁ହେପାଟ	-5784
▁ଦ୍ୱାଦଶ	-5785
▁ବର୍ଷକୁ	-5786
▁ଶ୍ରମିକ	-5787
▁ପିଲାଙ୍କ	-5788
▁ପ୍ରେରଣା	-5789
▁ବିଷାକ୍ତ	-5790
▁ଭିଟାମିନ	-5791
▁ଶ୍ରୀରାମକୃଷ୍ଣ	-5792
yc	-5793
ଅସ	-5794
୪୩	-5795
ରାଗ	-5796
▁ୟେ	-5797
େଷ୍ଠ	-5798
▁ମିଳ	-5799
▁୧୧ଶ	-5800
ଜ୍ଜିତ	-5801
ନ୍ଦରୀ	-5802
▁ଯୋଜନ	-5803
▁ହାର୍	-5804
▁ଚକ୍ଷୁ	-5805
▁ପାର୍କ	-5806
▁ଯେହେତୁ	-5807
▁ସ୍ୱପ୍ନ	-5808
▁କାନ୍ଥରେ	-5809
▁ଯାଆନ୍ତି	-5810
▁ରହିପାରେ	-5811
▁ସମ୍ଭାବ୍ୟ	-5812
developing	-5813
ବୋଧ	-5814
▁ଆଳ	-5815
କ୍ଟି	-5816
ଲିନ୍	-5817
▁ଡଲ୍	-5818
▁ଶରଣ	-5819
ଖଣ୍ଡର	-5820
ବେଳକୁ	-5821
▁ତଳକୁ	-5822
▁ସନ୍ନ	-5823
▁କାହିଁ	-5824
▁ପାରିବ	-5825
▁ଯାତ୍ର	-5826
▁ଯୋଡ଼ି	-5827
▁ସବୁଠୁ	-5828
▁ଉତ୍ତାପ	-5829
▁ନୟାଗଡ଼	-5830
▁ବିଦେଶୀ	-5831
▁ଛତିଶଗଡ଼	-5832
▁ରାସ୍ତାରେ	-5833
ଟିସ	-5834
▁ପଇ	-5835
▁ଉଦର	-5836
▁ଜୈବ	-5837
ଷ୍ଟିକ	-5838
▁ଗୋଟେ	-5839
▁ଜର୍ଜ	-5840
▁ଜାନୁ	-5841
▁ଭାବି	-5842
▁ଭୂଷଣ	-5843
▁ବେଶରେ	-5844
▁ହଠାତ୍	-5845
▁ଉପଯୋଗୀ	-5846
▁ନିଦ୍ରା	-5847
▁ଚେନ୍ନାଇ	-5848
▁ଆଫ୍ରିକୀୟ	-5849
▁ଉପସ୍ଥିତି	-5850
▁ସଙ୍ଗୀତକାର	-5851
▁ଦୂରଦର୍ଶନରେ	-5852
▁ଚକ୍ରବର୍ତ୍ତୀ	-5853
ud	-5854
ୋବ	-5855
୪୯	-5856
ପ୍ଳ	-5857
କାଳୀ	-5858
ଳମ୍ବ	-5859
▁ଟୋକ	-5860
▁ବାଜ	-5861
▁ସନ୍ଥ	-5862
▁ହେବେ	-5863
▁ଦର୍ଶା	-5864
▁ବଳରାମ	-5865
▁କ୍ୟାରି	-5866
▁ନିୟୋଜିତ	-5867
▁ପ୍ରଦୂଷଣ	-5868
▁ଯକ୍ଷ୍ମା	-5869
▁ଆନ୍ଦୋଳନର	-5870
▁ନିର୍ମାତା	-5871
▁ମହିଳାଙ୍କର	-5872
▁ଇନଷ୍ଟିଚ୍ୟୁ	-5873
▁ଶ୍ରୀକ୍ଷେତ୍ର	-5874
ରୋପ	-5875
ାଦେଶ	-5876
ାଦ୍ର	-5877
▁inf	-5878
▁ଗୁଆ	-5879
▁ବାନ	-5880
▁ଲଭ୍	-5881
▁ଲୌହ	-5882
ସ୍ତଫା	-5883
▁ବସ୍ତ	-5884
ନ୍ଦିରା	-5885
ବାହିନୀ	-5886
ୋନେସିଆ	-5887
▁ପିନ୍ଧ	-5888
ତାରିଖରେ	-5889
▁ଉପଗ୍ରହ	-5890
▁କଲେଜରୁ	-5891
▁ମୃତ୍ୟୁର	-5892
▁ରାୟଗଡ଼ା	-5893
▁ପାକିସ୍ତାନର	-5894
▁ଭୁବନେଶ୍ୱରର	-5895
▁ପ୍ରେସକ୍ରିପସନ	-5896
୬୫	-5897
apy	-5898
ers	-5899
ଟାନ	-5900
ୋନ୍	-5901
▁ଇର	-5902
▁ନିଶ	-5903
▁ଭେଦ	-5904
▁ଲବଣ	-5905
ଖ୍ୟାର	-5906
▁ଅଜ୍ଞ	-5907
▁ଲଗାଇ	-5908
ାତାଙ୍କ	-5909
▁ଅପରାଜ	-5910
▁ଭାଙ୍ଗ	-5911
▁ସ୍ଥଳୀ	-5912
▁ସ୍ମରଣ	-5913
▁ଜାପାନୀ	-5914
▁ନିର୍ମଳ	-5915
▁ମାଧ୍ୟମ	-5916
▁ରୋଗୀଙ୍କ	-5917
▁ସମ୍ପନ୍ନ	-5918
▁ଢେଙ୍କାନାଳ	-5919
▁ପ୍ରଯୁକ୍ତି	-5920
▁ଦ୍ୱୀପପୁଞ୍ଜ	-5921
▁ମହାରାଷ୍ଟ୍ରର	-5922
ଏଫ	-5923
▁୯ମ	-5924
ୋକ୍ସ	-5925
▁କଟି	-5926
▁କପ୍	-5927
▁ବେତ	-5928
କିଶୋର	-5929
▁ଆଗରେ	-5930
▁କେରଳ	-5931
▁ମନୋଜ	-5932
▁ସ୍ୱି	-5933
▁ହରିଣ	-5934
▁ହୀରା	-5935
▁ଉଚିତ୍	-5936
▁ଶୂନ୍ୟ	-5937
▁ପରିଷଦର	-5938
▁ବାବଦରେ	-5939
▁ସଂପର୍କ	-5940
▁ଇଞ୍ଜେକ୍ସ	-5941
▁ନ୍ୟାସନାଲ	-5942
▁ନିକଟବର୍ତ୍ତୀ	-5943
ମଦ	-5944
ାଧୀ	-5945
▁ଗଲା	-5946
▁ସେର	-5947
▁ବଳରେ	-5948
▁ବାସି	-5949
▁ଶୀତଳ	-5950
▁୧୯୪୫	-5951
▁୧୯୬୬	-5952
▁ଉପମହା	-5953
▁ଦୁଇଜଣ	-5954
▁ବୃନ୍ଦ	-5955
▁ସ୍ୱାମ	-5956
▁ଅସୁସ୍ଥ	-5957
▁ସୀମାରେ	-5958
▁ଲୋକମାନଙ୍କ	-5959
▁ଇଞ୍ଜିନିୟରିଂ	-5960
ିଓ	-5961
ଦେଓ	-5962
ସେଫ	-5963
▁୧ମ	-5964
କ୍ସନ	-5965
ସାଇଟ	-5966
ାଲୋର	-5967
▁କବା	-5968
▁ଘାଟ	-5969
▁ଚିର	-5970
▁ପଟେ	-5971
ଛିନ୍ନ	-5972
▁ଆମ୍ବ	-5973
▁ଆର୍ଟ	-5974
▁କାରି	-5975
▁ଝୁମର	-5976
▁ଫ୍ୟା	-5977
▁ବିସ୍	-5978
▁ବେଶୀ	-5979
▁ଶତପଥ	-5980
ଧିକାରୀ	-5981
ାର୍ଦ୍ଧ	-5982
▁ଅରଣ୍ୟ	-5983
▁ବିବିଧ	-5984
▁ମେହେର	-5985
▁ପରମାଣୁ	-5986
▁୨୦୦୮ରେ	-5987
▁ପ୍ରକ୍ରିୟ	-5988
▁ଭକ୍ତମାନେ	-5989
▁ରହିଥାନ୍ତି	-5990
▁ଆନ୍ତର୍ଜାତିକ	-5991
||	-5992
ଡିତ	-5993
▁ବସୁ	-5994
▁ଶତକ	-5995
▁ଗୌତମ	-5996
▁ରେଡିଓ	-5997
▁ଲଣ୍ଡନ	-5998
▁ଖେଳାଳୀ	-5999
▁ନେବାକୁ	-6000
▁ବାହିନୀ	-6001
▁ଷ୍ଟାଡି	-6002
▁ଭର୍ତ୍ତି	-6003
▁କେନ୍ଦ୍ରାପଡ଼ା	-6004
ass	-6005
ଶିର	-6006
କଳ୍ପ	-6007
▁ଅଣା	-6008
▁ନିବ	-6009
▁ଭାତ	-6010
▁ଟାଇପ	-6011
▁ସାଥୀ	-6012
▁ସ୍ନେ	-6013
ାମେଣ୍ଟ	-6014
▁କଟକରେ	-6015
▁ନଦୀରେ	-6016
▁ଆୱାର୍ଡ	-6017
▁ବିଳମ୍ବ	-6018
▁ହାଇଦ୍ରା	-6019
▁ସଂପୂର୍ଣ୍ଣ	-6020
▁ବଙ୍ଗଳାଦେଶର	-6021
▁ଶିରାଭ୍ୟନ୍ତର	-6022
)।	-6023
ଶିବ	-6024
ିନୋ	-6025
▁ଏହ	-6026
ular	-6027
୦୦ରୁ	-6028
▁ବିନ	-6029
▁ସହି	-6030
ପାଖରେ	-6031
ଭଦ୍ରା	-6032
▁ଦ୍ୱୀ	-6033
▁ପତଳା	-6034
▁ସେଠୀ	-6035
▁ଚ୍ୟାନ	-6036
ସିଂହପୁର	-6037
▁ଉଦ୍ୟୋଗ	-6038
▁ମୁଣ୍ଡବ	-6039
୯୬	-6040
ill	-6041
କବି	-6042
▁ଦଶମ	-6043
▁ଯାନ	-6044
▁ମନରେ	-6045
▁ସୁଧା	-6046
▁ଉପକୂଳ	-6047
▁କହିବା	-6048
▁ବନ୍ୟା	-6049
▁ବୋର୍ଡ	-6050
▁ସଂହିତ	-6051
▁ଚୈତନ୍ୟ	-6052
▁ନିକଟକୁ	-6053
▁ପ୍ରୋତ୍	-6054
▁ଖବରକାଗଜ	-6055
▁ମଣ୍ଡେଲା	-6056
▁ତାଲିକାରେ	-6057
▁ମୁଣ୍ଡବଥା	-6058
▁ଲିପିବଦ୍ଧ	-6059
▁କୁହାଯାଇଛି	-6060
▁କମ୍ୟୁନିଷ୍ଟ	-6061
-1	-6062
ଏଁ	-6063
୭୭	-6064
ଏନ୍	-6065
ଡେନ	-6066
ୋଳନ	-6067
▁ଖଳ	-6068
▁ନଅ	-6069
ଲୋଚନ	-6070
ାବରଣ	-6071
▁କଟା	-6072
▁ଗୋଦ	-6073
▁ହେମ	-6074
erapy	-6075
ମିଟର୍	-6076
▁ଇଟାଲ	-6077
▁ପର୍ଶ	-6078
▁ବିନୋ	-6079
▁ଯୋନୀ	-6080
▁ଷ୍ଟି	-6081
ବର୍ଣ୍ଣ	-6082
▁ନିବେଶ	-6083
▁ବୈଦିକ	-6084
▁ଶ୍ରବଣ	-6085
▁ସମସ୍ୟ	-6086
▁ହରମୋନ	-6087
▁ଆନିମିଆ	-6088
▁ଦିଆଯାଇ	-6089
▁ଭୂତାଣୁ	-6090
▁ଗାଇଥିଲେ	-6091
▁ବେସରକାରୀ	-6092
▁ରାଜେନ୍ଦ୍ର	-6093
ତାନ	-6094
ମତୀ	-6095
ହୋର	-6096
▁ଆଟ	-6097
inal	-6098
ପଥରେ	-6099
▁କାଉ	-6100
▁ଚଳା	-6101
▁ଠିଆ	-6102
▁ଦୋକ	-6103
▁ବାଣୀ	-6104
▁ଚାକିର	-6105
ବର୍ତ୍ତନ	-6106
▁ଜେନେରାଲ	-6107
▁ସୁଦର୍ଶନ	-6108
▁କୁହାଯାଉଥିଲା	-6109
▁ସ୍ଥାନାନ୍ତରିତ	-6110
ଢା	-6111
େସନ୍	-6112
▁ପବନ	-6113
▁ନିଷ୍	-6114
▁ଆଙ୍ଗୁ	-6115
▁ରସାୟନ	-6116
▁ଶୁଦ୍ଧ	-6117
▁ପ୍ରଣୟନ	-6118
ବର୍ତ୍ତମାନ	-6119
ଭୋ	-6120
୯୭	-6121
▁In	-6122
▁ଏକର	-6123
▁ଛଡା	-6124
▁ଶୋଷ	-6125
▁ସୋପ	-6126
▁ଅଖିଳ	-6127
▁ଗରିବ	-6128
▁ଭୋଜନ	-6129
▁ଲାଲ୍	-6130
କୁମାରୀ	-6131
▁ଧ୍ୱଂସ	-6132
▁ଲଙ୍କା	-6133
▁ରୋକିବା	-6134
▁ହିମାଳୟ	-6135
▁୨୦୦୭ରେ	-6136
▁୨୦୧୯ରେ	-6137
▁ପାଶ୍ଚାତ	-6138
▁ସର୍ବବୃହ	-6139
▁ହ୍ୟୁମାନ	-6140
▁ଏମାନଙ୍କୁ	-6141
▁ଗର୍ଭାବସ୍ଥା	-6142
୮୬	-6143
ଏଲ୍	-6144
ତୁର	-6145
ିୟନ	-6146
▁ମର	-6147
ସ୍କର	-6148
▁ନେଟ	-6149
ଟିଙ୍ଗ	-6150
ନିମ୍ନ	-6151
ପାରିନ	-6152
ଲିଷ୍ଟ	-6153
▁କମଳା	-6154
▁ଗୋଷ୍ଠ	-6155
▁ସ୍ତରର	-6156
▁ମୁସଲିମ	-6157
▁ସାଧାରଣତ	-6158
▁ସ୍ଥାନରୁ	-6159
▁ନ୍ୟାୟାଳୟର	-6160
▁ଖ୍ରୀଷ୍ଟାବ୍ଦ	-6161
ଉପ	-6162
୫୫	-6163
ect	-6164
inf	-6165
ଏଡ୍	-6166
ାଦୁ	-6167
ଧାରା	-6168
ବିତା	-6169
ଲେସନ	-6170
▁କରଣ	-6171
▁ଫରା	-6172
▁ଶାହ	-6173
▁ସନ୍	-6174
ରିକ୍ତ	-6175
▁ଧିରେ	-6176
▁ଫ୍ଲୋ	-6177
▁ଭଙ୍ଗ	-6178
▁ହିମା	-6179
▁ଅନ୍ତି	-6180
▁ଗୁଣ୍ଡ	-6181
▁ନଥିବା	-6182
▁ନିର୍ବାହ	-6183
▁ପୁରାଣରେ	-6184
▁ପ୍ରଶଂସା	-6185
▁ବ୍ୟାପ୍ତ	-6186
▁ମନ୍ତ୍ରଣ	-6187
▁ସମ୍ମାନୀତ	-6188
ଠନ	-6189
୩୧	-6190
000	-6191
ଫ୍ଲ	-6192
ରେନ	-6193
▁ଖି	-6194
ଣ୍ଟୁ	-6195
ବାହୀ	-6196
▁Ind	-6197
▁ଇସ୍	-6198
▁ବାଜି	-6199
▁୧୯୪୯	-6200
▁କୋଇଲା	-6201
▁କୋଷ୍ଠ	-6202
▁ଗାଁରେ	-6203
▁ଭବାନୀ	-6204
▁ଭାରତୀ	-6205
▁ରୁଦ୍ର	-6206
ational	-6207
ପାର୍ଶ୍ୱ	-6208
▁ଅଭିଶାପ	-6209
▁ଜନସାଧାରଣ	-6210
▁କାର୍ଯ୍ୟରତ	-6211
▁ପତ୍ରିକାରେ	-6212
▁ଅସ୍ୱାଭାବିକ	-6213
୪୧	-6214
ies	-6215
କାଉ	-6216
rome	-6217
ଦିନୀ	-6218
ସୂଦନ	-6219
▁ମୀନ	-6220
▁ସମୃ	-6221
ଞ୍ଜିଓ	-6222
୍ରୁତି	-6223
▁ଅବଧି	-6224
▁ଉଜ୍ଜ	-6225
▁କକ୍ଷ	-6226
▁ଜେନେ	-6227
▁ସର୍ଭ	-6228
▁ସେମି	-6229
▁ଚଢ଼େଇ	-6230
▁ପାଇଲା	-6231
▁ରୋମାନ	-6232
▁ସଞ୍ଜୟ	-6233
▁କରିହୁଏ	-6234
▁ପ୍ରଦୀପ	-6235
▁ବିହାରୀ	-6236
▁ସଙ୍କେତ	-6237
▁ସେନାପତି	-6238
▁ଠାକୁରଙ୍କ	-6239
▁କଥାଚିତ୍ରର	-6240
ଯୋ	-6241
୮୫	-6242
ory	-6243
ମେନ	-6244
ରାବ	-6245
ଂଶିକ	-6246
ବ୍ରହ	-6247
୍ରେଟ	-6248
▁ଖନନ	-6249
▁ଗଲୁ	-6250
▁ଜୟୀ	-6251
▁ବଢି	-6252
▁ବଲା	-6253
▁ଜେଜେ	-6254
▁ସିଧା	-6255
କ୍ଷେପଣ	-6256
ାଇବାକୁ	-6257
▁ତୁର୍କ	-6258
▁ସମାଧି	-6259
▁ସହଯୋଗୀ	-6260
▁କୋଣାର୍କ	-6261
▁ପରିସରରେ	-6262
▁ପେଟେଣ୍ଟ	-6263
▁ରହିବାକୁ	-6264
▁ପୁନରୁଦ୍ଧ	-6265
▁ଗୀତିକାରମାନେ	-6266
ବୈ	-6267
ବଲ୍	-6268
▁de	-6269
ତ୍ରି	-6270
▁ଆଳୁ	-6271
▁ତୁର	-6272
▁ପତା	-6273
▁ଫଟୋ	-6274
ଚ୍ୟୁତ	-6275
▁ନାଲି	-6276
▁ପିଠା	-6277
▁ବଜାୟ	-6278
▁ହୋଇନ	-6279
▁୧୯୫୯	-6280
▁ଅବଶେଷ	-6281
▁ଯୋଡ଼ା	-6282
▁ରାଜ୍ଯ	-6283
▁ଆର୍ଦ୍ର	-6284
▁ଶକ୍ତିର	-6285
▁ଅନିୟମିତ	-6286
▁ଡଲ୍ଫିନ୍	-6287
▁ପ୍ରାନ୍ତ	-6288
▁ଦେବୀଙ୍କର	-6289
▁ରାଜ୍ୟପାଳ	-6290
▁ଲୋକପ୍ରିୟତା	-6291
▁ସାମ୍ରାଜ୍ୟର	-6292
end	-6293
ତରଣ	-6294
ନ୍ଥା	-6295
ୌଣସି	-6296
▁ଯେକ	-6297
▁ରବୀ	-6298
▁୧୮୦	-6299
ବ୍ଲିକ	-6300
▁ଅକ୍ସ	-6301
▁ଡୋଜର	-6302
▁ନବଜାତ	-6303
▁ଇସ୍ତଫା	-6304
▁ବିନ୍ଧା	-6305
ାନୁଷ୍ଠାନ	-6306
▁ପୁରୁଷଙ୍କ	-6307
▁ପରୀକ୍ଷାରେ	-6308
▁ପ୍ରତିମୂର୍ତ୍ତି	-6309
ue	-6310
୮୭	-6311
ble	-6312
ଜୁମ	-6313
ୋକୋକ	-6314
▁ଆମର	-6315
▁ଦୃତ	-6316
▁ବଗି	-6317
ାମୂଳକ	-6318
▁ଗାର୍	-6319
▁ଫେଲୋ	-6320
▁ଶିବା	-6321
▁ଜାପାନ	-6322
▁ଅନ୍ତିମ	-6323
▁ପୂର୍ବରେ	-6324
▁ବାହାରକୁ	-6325
▁ଅତିରିକ୍ତ	-6326
▁ମ୍ୟାଲେରିଆ	-6327
▁ପିଲାମାନଙ୍କ	-6328
ତୋ	-6329
ପାଲ	-6330
ୋପଣ	-6331
▁ଔପ	-6332
▁୫୫	-6333
ବ୍ରା	-6334
▁ଗୌର	-6335
▁ତେଜ	-6336
ନାଣ୍ଟ	-6337
▁ତିଥି	-6338
▁ବଜ୍ର	-6339
▁ମାନକ	-6340
▁ରୀତି	-6341
▁ତୁଳନା	-6342
▁ସ୍କୋର	-6343
▁ସ୍ୱାଦ	-6344
▁ଅନ୍ତନଳୀ	-6345
▁ଇନ୍ଦିରା	-6346
▁ଦେଉଥିଲେ	-6347
▁ପାଞ୍ଚଟି	-6348
▁ଦେବୀଙ୍କୁ	-6349
▁ପର୍ଶୁରାମ	-6350
▁ବିଶ୍ଳେଷଣ	-6351
▁ଇଲେକ୍ଟ୍ରୋ	-6352
▁ପ୍ରତିଦ୍ୱନ୍ଦୀ	-6353
log	-6354
ଜେନ	-6355
▁ଉଷ	-6356
ନାକୁ	-6357
ମାନା	-6358
ାତ୍ତ	-6359
ୋଧିତ	-6360
▁ଆଲ୍	-6361
▁ଧାମ	-6362
▁ଆକଳନ	-6363
▁ଗଢ଼ି	-6364
▁ହୃଦୟ	-6365
▁ଟେକ୍ନ	-6366
▁ଶତପଥୀ	-6367
▁ଶୃଙ୍ଖ	-6368
▁ସୋଭିଏ	-6369
▁ଆସିଥାଏ	-6370
▁କମିଟିର	-6371
▁ଦକ୍ଷତା	-6372
▁ରାଜକୀୟ	-6373
▁ମଧୁସୂଦନ	-6374
▁ଗୁଣ୍ଡିଚା	-6375
▁ପଟ୍ଟନାୟକଙ୍କ	-6376
ଖୀ	-6377
ରୁଣ	-6378
▁ନଗ	-6379
ଫ୍ରେ	-6380
▁କିଲ	-6381
▁ଜନକ	-6382
▁ସଫା	-6383
▁ଗଣ୍ଡ	-6384
▁ଫିଲି	-6385
▁ମାଲେ	-6386
▁ଶିଖର	-6387
ମଧ୍ୟରୁ	-6388
▁ରାକ୍ଷ	-6389
▁ସମୟରୁ	-6390
▁ଉପାୟରେ	-6391
▁ଇଣ୍ଡିଆନ	-6392
▁ରଖାଯାଇଛି	-6393
▁ପ୍ରତିଷ୍ଠାନ	-6394
ଜିକ	-6395
ରାଳ	-6396
ଗାନି	-6397
ପଞ୍ଚ	-6398
▁ଖିଆ	-6399
▁ହେଁ	-6400
ଲମ୍ବୀ	-6401
ଷ୍କାର	-6402
▁କୃତି	-6403
▁ଜମାଟ	-6404
▁ଦିନର	-6405
▁ମହେଶ	-6406
▁ହଳଦୀ	-6407
ଦାନନ୍ଦ	-6408
▁ଅତିଥି	-6409
▁ଆଣିବା	-6410
▁କାମରେ	-6411
▁ଜୟପୁର	-6412
▁ବ୍ଲକର	-6413
▁୨୦୧୮ରେ	-6414
▁ଗୁଜରାଟର	-6415
▁ପାଇଛନ୍ତି	-6416
▁କ୍ଷେତ୍ରଫଳ	-6417
▁ପୁନରୁଦ୍ଧାର	-6418
▁ଡାକ୍ତରଖାନାରେ	-6419
▁(;	-6420
▁ଭୈ	-6421
ବାବା	-6422
ମ୍ବି	-6423
ଲାତି	-6424
ୁଲାର	-6425
▁ପଜି	-6426
▁ଫୋଟ	-6427
▁ବାଲ	-6428
▁ମାଦ	-6429
▁ସ୍ର	-6430
▁ଉନ୍ମ	-6431
▁ଏହାଛ	-6432
▁ଗୌରବ	-6433
▁ମିସ୍	-6434
▁ଶିଖି	-6435
ମାନନ୍ଦ	-6436
▁ଆଂଶିକ	-6437
▁କାଳରୁ	-6438
▁ଦୂରେଇ	-6439
▁ଲାହୋର	-6440
ଈଂରାଜୀରେ	-6441
▁ବିଶ୍ୱାଳ	-6442
▁ୟୁରୋପୀୟ	-6443
▁ଗର୍ଭଧାରଣ	-6444
▁ରବୀନ୍ଦ୍ର	-6445
▁ଉପପ୍ରଜାତି	-6446
▁ବ୍ୟବହାରରେ	-6447
▁ପ୍ରତିରକ୍ଷା	-6448
▁ରୋଗମାନଙ୍କର	-6449
▁ସର୍ବସାଧାରଣ	-6450
୭୨	-6451
ୱି	-6452
▁!	-6453
ମୀର	-6454
ଶ୍ମ	-6455
ହରା	-6456
୍ଟି	-6457
ୟାନ	-6458
▁ହଜ	-6459
▁୪୧	-6460
▁med	-6461
▁ଅହି	-6462
▁ନାଟ	-6463
▁ମାଘ	-6464
▁ସିଧ	-6465
ଜୀବନୀ	-6466
▁ଇଣ୍ଟ	-6467
▁ମୋତେ	-6468
▁ରମେଶ	-6469
▁ଲିମ୍	-6470
▁୧୯୫୩	-6471
▁ଦର୍ଶକ	-6472
▁ପୋଖରୀ	-6473
ବିଶିଷ୍ଟ	-6474
▁ଚାଲିଛି	-6475
▁ସଂଗଠନର	-6476
▁ଅସାଧାରଣ	-6477
▁ସଙ୍ଗୀତର	-6478
▁ପ୍ରମାଣିତ	-6479
ମାନଙ୍କଠାରୁ	-6480
▁ଚତୁର୍ଦ୍ଦଶୀ	-6481
ov	-6482
ଶୈ	-6483
୮୯	-6484
ଉଛି	-6485
ୋସ୍	-6486
▁ଉତ	-6487
ସେବା	-6488
▁ଆଲେ	-6489
▁ଘିଅ	-6490
▁ନାଁ	-6491
▁ଭୋଇ	-6492
▁ସୁଶ	-6493
▁ସେନ	-6494
▁ଦାର୍	-6495
▁ଫୁଲି	-6496
▁ବେଳା	-6497
ndrome	-6498
▁ଅନ୍ତଃ	-6499
▁କଣ୍ଟା	-6500
▁ସ୍ରୋତ	-6501
▁ଅଜ୍ଞାତ	-6502
▁ଫେରିବା	-6503
▁ମହାନଦୀ	-6504
▁ମ୍ୟାଚ୍	-6505
▁କରିବାରୁ	-6506
▁ତନ୍ମଧ୍ୟ	-6507
▁ବିଶ୍ରାମ	-6508
▁ରେକର୍ଡ଼	-6509
▁ମିଳୁଥିବା	-6510
▁ସମ୍ମୁଖୀନ	-6511
▁ମୁମ୍ବାଇରେ	-6512
▁ହେଉଥିବାରୁ	-6513
କଲ	-6514
ଘା	-6515
ଦୂର	-6516
୍ୱି	-6517
ୱେର	-6518
▁୪୨	-6519
ପିକା	-6520
▁ଏନ୍	-6521
▁କାକ	-6522
▁ଝାର	-6523
▁ପାଣ	-6524
▁ସୁନ	-6525
▁ପିତୃ	-6526
▁ମେନି	-6527
▁ଆଖିରେ	-6528
▁ଆତଙ୍କ	-6529
▁ମଞ୍ଜି	-6530
▁ଜୀବନ୍ତ	-6531
▁ଧର୍ମରେ	-6532
▁ରାଜତ୍ୱ	-6533
▁ସମାରୋହ	-6534
▁ମସ୍ତିଷ୍	-6535
▁ପାକସ୍ଥଳୀ	-6536
▁ଦିଆଯାଇଥାଏ	-6537
con	-6538
ନିର	-6539
▁ଚୀ	-6540
ର୍ଜା	-6541
▁ଧୀର	-6542
▁୬ଟି	-6543
▁ଗ୍ଲୋ	-6544
▁ଛାଡ଼	-6545
▁ବ୍ରେ	-6546
▁ସଚିବ	-6547
▁ରଖିଲେ	-6548
▁ତୁରନ୍ତ	-6549
▁କ୍ୱାଣ୍ଟ	-6550
▁ବନ୍ଧୁତା	-6551
▁ଶ୍ରଦ୍ଧା	-6552
▁ପଦ୍ଧତିରେ	-6553
▁ମୁମ୍ବାଇର	-6554
▁ଆଫ୍ରିକାରେ	-6555
▁ସଂସ୍କୃତିର	-6556
▁ସର୍ବନିମ୍ନ	-6557
ମହ	-6558
order	-6559
▁ବଂଶୀ	-6560
▁ମିଠା	-6561
ପ୍ରକାର	-6562
▁ଆବେଦନ	-6563
▁ଉତ୍ତେଜ	-6564
▁ଚାକିରୀ	-6565
▁ବର୍ଦ୍ଧ	-6566
▁ବାଳିକା	-6567
▁ବିକଳ୍ପ	-6568
▁ମୂତ୍ରା	-6569
▁ଶିଳ୍ପୀ	-6570
▁ପ୍ରକୃତରେ	-6571
▁ବର୍ଗୀକରଣ	-6572
▁ମିଳିଥିବା	-6573
▁ହୁଏନାହିଁ	-6574
▁ଇଣ୍ଡୋନେସିଆ	-6575
▁ନିର୍ଦ୍ଧାରଣ	-6576
ox	-6577
ts	-6578
ଶଃ	-6579
କିକ	-6580
ଫିକ	-6581
ାଇଲ	-6582
ାବୁ	-6583
ୀୟା	-6584
▁ବଡ	-6585
▁୪୬	-6586
▁୮୫	-6587
ନ୍ତର	-6588
ଲାଇନ	-6589
▁ଶୈବ	-6590
କାଠିନ	-6591
ନିବେଶ	-6592
ଯିବାର	-6593
ରାଜ୍ୟ	-6594
▁ଆଡକୁ	-6595
▁କନ୍ଧ	-6596
▁କାରୁ	-6597
▁କାଳି	-6598
▁କେନେ	-6599
▁ଜଳରେ	-6600
▁ମହାକ	-6601
▁ଲଳିତ	-6602
▁ହାଲୁ	-6603
▁ଆସିଲା	-6604
▁ଚୈତ୍ର	-6605
▁ବାଉଁଶ	-6606
▁ସାଧନା	-6607
▁ନିରୀକ୍ଷଣ	-6608
▁ଭୁବନେଶ୍ୱରରେ	-6609
୪୨	-6610
୯୩	-6611
୍ଯା	-6612
osis	-6613
ବେଦୀ	-6614
ାଇଡ୍	-6615
ିବେଶ	-6616
ୋଲୋଜ	-6617
▁ଉପନ	-6618
▁ଉପା	-6619
▁ଘରର	-6620
▁୧୫୦	-6621
▁ଗ୍ଲୁ	-6622
▁ମୋଟର	-6623
▁ସ୍ପେ	-6624
ର୍ଦ୍ଦୁ	-6625
▁ପୁସ୍ତ	-6626
▁ବିପ୍ଳ	-6627
▁ଉନ୍ନୟନ	-6628
▁ନେପାଳର	-6629
▁କରିପାରିବ	-6630
▁କରିପାରନ୍ତି	-6631
▁ପରିବର୍ତ୍ତେ	-6632
▁ପାକିସ୍ତାନୀ	-6633
ms	-6634
ଂଶୁ	-6635
ହିନ	-6636
ଧାରୀ	-6637
ପାଣି	-6638
ଫ୍ୟୁ	-6639
ଭାଷୀ	-6640
୍ୟୁଟ	-6641
▁ଭିଏ	-6642
▁କୃଷକ	-6643
▁ଖାନ୍	-6644
▁ଗାଁର	-6645
▁ବିରା	-6646
▁୧୦୦୦	-6647
▁ପ୍ରଚେ	-6648
▁ସାରଳା	-6649
▁ଗୋପୀନାଥ	-6650
▁ଦେଇଥିବା	-6651
▁ପଞ୍ଜାବର	-6652
▁syndrome	-6653
▁ଜ୍ୟୋତିର୍	-6654
▁ଶ୍ରୀମନ୍ଦିରରେ	-6655
oth	-6656
ପାଖ	-6657
ଫିଲ	-6658
ମଳା	-6659
ାମକ	-6660
ୋରା	-6661
▁ch	-6662
▁ଆନ	-6663
▁୭୭	-6664
କ୍ଲୋ	-6665
କ୍ଷର	-6666
ଡାରେ	-6667
ଫର୍ମ	-6668
ଗୁଡ଼ା	-6669
▁ଓକିଲ	-6670
▁ରାଜି	-6671
▁୧୯୩୪	-6672
▁ବିରାଜ	-6673
▁ଯମୁନା	-6674
▁ବୃଷ୍ଟି	-6675
▁କଲାବେଳେ	-6676
▁କାହିଁକି	-6677
▁ପ୍ରଯୋଜକ	-6678
▁ସଂସ୍ଥାନ	-6679
▁ପୁରସ୍କୃତ	-6680
▁ଉଇକିପିଡ଼ିଆ	-6681
କିଆ	-6682
ଜିନ	-6683
ଭିନ	-6684
ଯାବ	-6685
▁),	-6686
ସିଅମ	-6687
▁199	-6688
▁କୁଶ	-6689
▁ବସା	-6690
ଶଙ୍କର	-6691
▁ପଥରେ	-6692
▁ମେରି	-6693
▁ଟ୍ରଫି	-6694
▁ସତ୍ୟା	-6695
ାବଲମ୍ବୀ	-6696
▁ବ୍ୟତିତ	-6697
▁ଜ୍ୟେଷ୍ଠ	-6698
▁ବ୍ୟାଘ୍ର	-6699
▁ମଦ୍ୟପାନ	-6700
▁ସମ୍ବନ୍ଧିତ	-6701
ଲଟ	-6702
୦୫	-6703
୬୮	-6704
୯୮	-6705
ଅନୁ	-6706
ପ୍ଲ	-6707
ବୀୟ	-6708
▁Ch	-6709
▁ଏପ	-6710
▁ହୈ	-6711
itis	-6712
ତ୍ତନ	-6713
ରୀରେ	-6714
ଲାଗି	-6715
▁ପହଁ	-6716
କ୍ଷିଣ	-6717
ଭାବରେ	-6718
ସାଇଟି	-6719
ାର୍ଥୀ	-6720
▁ଖୁସି	-6721
▁ଚିଠି	-6722
▁ବରାହ	-6723
▁ରାହୁ	-6724
▁ସମତଳ	-6725
▁୧୯୩୬	-6726
ଗୁଡିକର	-6727
ାବଶ୍ୟକ	-6728
▁ପୁର୍ବ	-6729
▁କ୍ରମଶଃ	-6730
▁ସ୍ୱଚ୍ଛ	-6731
▁ପହଞ୍ଚିବା	-6732
▁ସେଗୁଡ଼ିକ	-6733
iv	-6734
usc	-6735
ଫୁଲ	-6736
େକ୍	-6737
ୋହଣ	-6738
▁("	-6739
▁he	-6740
ହାନୀ	-6741
ାଇଟ୍	-6742
▁ଅସମ	-6743
▁ନବା	-6744
▁ଯାତ	-6745
▁ରାତ	-6746
▁ଶୈଳ	-6747
ଣିତିକ	-6748
▁ଅପରି	-6749
▁କୁରୁ	-6750
▁କୌଶଳ	-6751
▁ପୋଟା	-6752
▁ମୋଟା	-6753
ସ୍ମିତା	-6754
▁କୈଳାସ	-6755
▁ଖାଇଲେ	-6756
▁ହିଂସା	-6757
▁ଆଣ୍ଟିବ	-6758
▁କରିଦେଇ	-6759
▁ତପସ୍ୟା	-6760
ାତ୍ତ୍ୱିକ	-6761
▁ସ୍ୱୀକାର	-6762
▁ଗୋପବନ୍ଧୁ	-6763
▁ଚାମ୍ପିୟନ	-6764
▁ତନ୍ମଧ୍ୟରୁ	-6765
▁ବାଙ୍ଗାଲୋର	-6766
▁କୋଷ୍ଠକାଠିନ	-6767
▁ଉତ୍ତରାଧିକାରୀ	-6768
ଦଳ	-6769
୯୪	-6770
ପଥର	-6771
େଲ୍	-6772
▁୭୬	-6773
▁୭୮	-6774
ମାଗତ	-6775
ିଆନ୍	-6776
▁ବେସ	-6777
▁ଶାଗ	-6778
▁ସାଉ	-6779
ମୁଖ୍ୟ	-6780
▁କ୍ଲବ	-6781
▁ନାଇଟ	-6782
▁ମାମୁ	-6783
▁ସଦୃଶ	-6784
▁୧୯୩୨	-6785
ସଂଖ୍ୟା	-6786
▁ଅଫିସର	-6787
▁କେଦାର	-6788
▁କୋରିଆ	-6789
▁ଚାହିଁ	-6790
▁ବତିଘର	-6791
▁ଭିଡିଓ	-6792
▁ଆଧାରରେ	-6793
▁ଉପକାରୀ	-6794
▁କନ୍ନଡ଼	-6795
▁କରିଦିଏ	-6796
▁ନର୍ତ୍ତ	-6797
▁ପଜିଟିଭ	-6798
▁ପିନ୍ଧି	-6799
▁ପୁଷ୍ଟି	-6800
▁ବିହାରର	-6801
▁ସନ୍ତୋଷ	-6802
▁୨୦୦୬ରେ	-6803
▁ମୁଣ୍ଡରେ	-6804
▁ସ୍ମାରକୀ	-6805
▁ଜାନୁୟାରୀ	-6806
▁ଦୁର୍ବଳତା	-6807
▁ନାଟ୍ୟକାର	-6808
▁ନିଷ୍କାସନ	-6809
▁ପଶ୍ଚିମରେ	-6810
▁ବ୍ରିଟିଶ୍	-6811
▁ଇଞ୍ଜେକ୍ସନ	-6812
▁ବ୍ୟକ୍ତିତ୍ୱ	-6813
▁ପ୍ରତ୍ନତତ୍ତ୍ୱ	-6814
los	-6815
ଡାଇ	-6816
ମୂହ	-6817
ୋଡ଼	-6818
ଖ୍ରୀ	-6819
ଟ୍ରା	-6820
ପୂଜା	-6821
ରଙ୍କ	-6822
▁କୋଟ	-6823
▁ତୁମ	-6824
▁ଷଡ଼	-6825
ୁଥିଲା	-6826
▁ଆୟତନ	-6827
▁ଆୟୋଗ	-6828
▁ଜାଭା	-6829
▁ଦୀପକ	-6830
▁ନକରି	-6831
▁ମାଇଲ	-6832
▁ଲିମି	-6833
▁ସ୍ୱେ	-6834
ବର୍ଦ୍ଧ	-6835
▁ନିରୂପ	-6836
▁ପୁନର୍	-6837
▁ଫରାସୀ	-6838
▁ମାଣିକ	-6839
▁ସମନ୍ୱ	-6840
▁ପହଣ୍ଡି	-6841
▁କାରଖାନା	-6842
▁କ୍ରମାଗତ	-6843
▁ଗାଣିତିକ	-6844
▁ପାଆନ୍ତି	-6845
▁ପାଇଥିବା	-6846
▁ବଙ୍ଗାଳୀ	-6847
▁ଅପରାଜିତା	-6848
▁ନିୟନ୍ତ୍ରିତ	-6849
ମୂଳ	-6850
ୋରେ	-6851
ୋଲି	-6852
▁ଇସ	-6853
ଳେବର	-6854
ୀକୃତ	-6855
▁The	-6856
▁ଆମି	-6857
▁ଜ୍ୱ	-6858
▁ସେକ	-6859
ୋଗ୍ଲୋ	-6860
▁ଅଣସର	-6861
▁କରୋନ	-6862
▁ଟାଇମ	-6863
▁ଦୌଡ଼	-6864
▁ମିଶା	-6865
▁କେଶରୀ	-6866
▁କୋର୍ଟ	-6867
▁ମୁଖ୍ଯ	-6868
▁ସେଣ୍ଟର	-6869
▁ନିମ୍ନରେ	-6870
▁ବିଜ୍ଞାପନ	-6871
▁କ୍ଷୁଦ୍ରଗଳ୍ପ	-6872
▁ଦେଖାଯାଇପାରେ	-6873
ob	-6874
ଏଟ	-6875
କରୁ	-6876
ଭୁତ	-6877
ାକୁ	-6878
▁15	-6879
▁୪୪	-6880
କୋର୍	-6881
ଟେସନ	-6882
ବସିତ	-6883
▁ଦମନ	-6884
▁ଧୋଇ	-6885
▁ଭୂତ	-6886
ପ୍ରାୟ	-6887
▁ଟ୍ୟା	-6888
▁ପୃଥକ	-6889
▁ବାରଣ	-6890
▁ୱାର୍	-6891
▁ଭାଦ୍ର	-6892
ାବର୍ତ୍ତନ	-6893
▁ଚାରିପଟେ	-6894
▁ଚିତାବାଘ	-6895
▁ପଡ଼ିଥାଏ	-6896
▁ମାନଙ୍କୁ	-6897
▁ଜନସଂଖ୍ୟାର	-6898
୬୪	-6899
▁k	-6900
erg	-6901
ith	-6902
ଲାନ	-6903
େବୀ	-6904
▁ସୁଧ	-6905
ାଇସିନ	-6906
▁ଟାଟା	-6907
▁ଦାବୀ	-6908
▁ଜରାୟୁ	-6909
▁ପଡ଼ିଆ	-6910
▁ବିବେକ	-6911
▁ଏହିଭଳି	-6912
▁ମାଷ୍ଟର	-6913
▁ଖାଇବାକୁ	-6914
▁ଥାଇପାରେ	-6915
▁ପ୍ରସାରଣ	-6916
▁ପ୍ରୋଟିନ	-6917
▁ସେକେଣ୍ଡ	-6918
▁ଗୋସ୍ୱାମୀ	-6919
▁ରାଷ୍ଟ୍ରରେ	-6920
ym	-6921
ଶକ	-6922
ସ୍ଟି	-6923
▁ଥାନ	-6924
▁ପିଆ	-6925
▁ମହେ	-6926
▁ମୋହ	-6927
କ୍ରମା	-6928
ଦ୍ୱୀପ	-6929
ପର୍ବା	-6930
▁ଖୋଜି	-6931
▁ଧ୍ରୁ	-6932
▁ପାଇକ	-6933
▁ପାନୀୟ	-6934
▁ବିଦେଶ	-6935
▁ରହସ୍ୟ	-6936
ଦ୍ଧିଷ୍ଟ	-6937
▁କରନ୍ତୁ	-6938
▁ବୁଦ୍ଧି	-6939
▁ଯେଉଁଠି	-6940
▁ସେବାରେ	-6941
▁ସ୍ଥଳରେ	-6942
▁ଉଦ୍ଭାବନ	-6943
▁ଚ୍ୟାନେଲ	-6944
▁ଫିଲ୍ମରେ	-6945
▁ମାଇକ୍ରୋ	-6946
▁disorder	-6947
▁ମନୋରଞ୍ଜନ	-6948
▁ପ୍ରଣାଳୀରେ	-6949
▁ଅଲିମ୍ପିକ୍ସ	-6950
▁କୋଷ୍ଠକାଠିନ୍ୟ	-6951
ଛୁ	-6952
ଜଳ	-6953
କାନ	-6954
▁(:	-6955
▁ପମ	-6956
ଲଗ୍ନ	-6957
▁ଆହତ	-6958
▁ଐତି	-6959
▁ଗୟଳ	-6960
▁ତୃଣ	-6961
ଭେଣ୍ଟ	-6962
ିନିୟର	-6963
▁ଦାରି	-6964
▁ଧ୍ୱନି	-6965
▁ସିନ୍ଦ	-6966
▁ଜମିଦାର	-6967
▁ପାଣ୍ଡୁ	-6968
▁୨୦୦୫ରେ	-6969
▁ସୁଭଦ୍ରା	-6970
▁ଦୁର୍ଘଟଣା	-6971
▁ଶିବଲିଙ୍ଗ	-6972
▁ଦେଇଥାନ୍ତି	-6973
▁ପାଶ୍ଚାତ୍ୟ	-6974
▁ପ୍ରତ୍ୟକ୍ଷ	-6975
▁ନିମ୍ନଲିଖିତ	-6976
yp	-6977
୫୮	-6978
The	-6979
ଏମ୍	-6980
ଡିନ	-6981
ବୁଲ	-6982
ଭେନ	-6983
ମୋଟ	-6984
ିଶୁ	-6985
ଯାହା	-6986
ଲୋମା	-6987
▁ଘାଆ	-6988
▁ବାଗ	-6989
ମାଧ୍ୟ	-6990
ମୁକ୍ତ	-6991
▁କମେଇ	-6992
▁ଛତ୍ର	-6993
ପକ୍ଷରେ	-6994
▁ନୂଆଦି	-6995
▁ବିକିର	-6996
ନିଶ୍ୱାସ	-6997
▁ଜାପାନର	-6998
▁ଟିଭିରେ	-6999
▁ଦର୍ଶାଇ	-7000
▁କୃତ୍ରିମ	-7001
▁ବାସୁଦେବ	-7002
▁ଯେକୌଣସି	-7003
▁ରଖିବାକୁ	-7004
▁ସବୁବେଳେ	-7005
▁ହୃଦ୍ପାତ	-7006
▁ଇମେଜିଙ୍ଗ	-7007
▁ବ୍ୟାଖ୍ୟା	-7008
▁ସାମନ୍ତରାୟ	-7009
▁ଜଗତସିଂହପୁର	-7010
▁ସମ୍ପ୍ରଦାୟର	-7011
SA	-7012
୭୬	-7013
ଏସନ	-7014
ଟିନ୍	-7015
ତିକି	-7016
ିକରଣ	-7017
▁କିଶ	-7018
▁ଛାତ	-7019
▁ଭିକ	-7020
ନବିଂଶ	-7021
▁କେମୋ	-7022
▁ଚଉତି	-7023
▁ନୁହଁ	-7024
▁ରଥରେ	-7025
▁ରାଉର	-7026
▁ଚତୁର୍	-7027
▁ପୁଲିସ	-7028
▁ସାମ୍ପ	-7029
▁ସିଧାସ	-7030
ଦେବୀଙ୍କ	-7031
୍ରାଇଟିସ	-7032
▁ଜୟୀରାମ	-7033
▁୨୦୦୪ରେ	-7034
▁କେନେଡ଼ି	-7035
▁ଜଣାପଡ଼ି	-7036
▁ବ୍ୟଞ୍ଜନ	-7037
▁ବ୍ୟବସାୟୀ	-7038
▁ସମ୍ବିଧାନର	-7039
▁କୃଷ୍ଣଚନ୍ଦ୍ର	-7040
୯୨	-7041
▁+	-7042
ବେଳ	-7043
▁ଡଃ	-7044
▁ନମ	-7045
▁୫୩	-7046
ଥାଇର	-7047
ପରୀତ	-7048
ମ୍ମା	-7049
ାବିନ	-7050
▁ପୋଲ	-7051
ର୍ଡ଼ର	-7052
ାସନଳୀ	-7053
▁ଅଗ୍ନ	-7054
▁ଆହ୍ୱ	-7055
▁ଇଚ୍ଛ	-7056
▁ଜୁନି	-7057
▁ମିଶନ	-7058
▁ପରଦିନ	-7059
▁ସ୍ଥଳେ	-7060
ଷ୍ଠାନିକ	-7061
▁ଆଫଗାନି	-7062
▁କୀର୍ତ୍ତ	-7063
▁ପାରନ୍ତି	-7064
▁ସୋସାଇଟି	-7065
ରାଷ୍ଟ୍ରୀୟ	-7066
▁ରାମକୃଷ୍ଣ	-7067
▁ମହିଳାଙ୍କୁ	-7068
▁ଚିନ୍ତାଧାରା	-7069
▁ପର୍ଯ୍ୟବସିତ	-7070
ରଥ	-7071
ୁବ	-7072
୭୪	-7073
▁।.	-7074
▁ୟା	-7075
ସିସି	-7076
▁ଇରା	-7077
▁ପଡେ	-7078
▁ଅଦ୍ୟ	-7079
▁କେଳୁ	-7080
▁କୋଭି	-7081
▁ଗୋରୁ	-7082
▁ରେଜି	-7083
▁ୱେବସ	-7084
▁ଜୟଦେବ	-7085
▁ଥିବାର	-7086
▁ନିଦ୍ର	-7087
▁ସେନାର	-7088
ଚ୍ଛିନ୍ନ	-7089
▁ପକ୍ଷରେ	-7090
▁ଲେଙ୍କା	-7091
▁ଉର୍ଦ୍ଦୁ	-7092
▁ମହାସାଗର	-7093
▁ଶିକ୍ଷାବ	-7094
▁ପିଲାଙ୍କୁ	-7095
ହୂ	-7096
୭୮	-7097
age	-7098
ish	-7099
ସମା	-7100
▁10	-7101
▁ତଦ	-7102
▁ମୈ	-7103
ଉଡ଼ି	-7104
ବାହର	-7105
ସନ୍ତ	-7106
ାବେଶ	-7107
▁con	-7108
▁ଆଷା	-7109
▁ଓପି	-7110
▁ସୁଗ	-7111
ପ୍ରଥମ	-7112
▁ଏସବୁ	-7113
▁କଳାର	-7114
▁ବ୍ଲା	-7115
▁୧୯୨୮	-7116
▁୧୯୩୮	-7117
ଚସ୍ପତି	-7118
▁ଅତୀତରେ	-7119
▁ଆରାଧନା	-7120
▁ଦେବଦାସ	-7121
▁ଅରବିନ୍ଦ	-7122
▁ଏଗୁଡ଼ିକ	-7123
▁ସ୍ଥାନିତ	-7124
ଚଳଚ୍ଚିତ୍ର	-7125
▁ଆଣ୍ଟିବଡି	-7126
▁ଜାଣିବାକୁ	-7127
▁ଦୃଶ୍ୟମାନ	-7128
▁ପରିକ୍ରମା	-7129
▁ପୂଜାର୍ଚ୍ଚ	-7130
...	-7131
ବଡ଼	-7132
ିପ୍ତ	-7133
▁ଅନ୍	-7134
▁ଫର୍	-7135
▁ଅଭିବ	-7136
▁୧୯୩୫	-7137
ବ୍ରହ୍ମ	-7138
▁କାନ୍ଧ	-7139
▁କୋଇଲି	-7140
▁ଗ୍ରୀକ	-7141
▁ପୁରୀର	-7142
▁ଷଷ୍ଠୀ	-7143
▁ହାସ୍ୟ	-7144
▁ଗ୍ରୀକ୍	-7145
▁ରାମଙ୍କ	-7146
▁ସିଧାସଳଖ	-7147
▁ପର୍ବପର୍ବା	-7148
▁ସ୍ୱାଭାବିକ	-7149
▁medication	-7150
▁ସ୍ଥାନାନ୍ତର	-7151
▁ଅନ୍ନପୂର୍ଣ୍ଣ	-7152
ge	-7153
ଡକ	-7154
ହଳ	-7155
୮୧	-7156
▁9	-7157
ind	-7158
ଧ୍ୱ	-7159
▁ତଟ	-7160
ାବରୀ	-7161
▁ଲତା	-7162
ଭିତ୍ତ	-7163
▁ତ୍ରୟ	-7164
▁ବୁଝି	-7165
▁ଖେଳରେ	-7166
▁ଗ୍ୟାସ	-7167
▁ନୋବେଲ	-7168
▁ପଏଣ୍ଟ	-7169
ଦ୍ୟୁତିକ	-7170
▁ଏହିଦିନ	-7171
▁ଚର୍ମରେ	-7172
▁ପଦବୀରେ	-7173
▁ପୃଷ୍ଠା	-7174
▁ବିପରୀତ	-7175
▁ଯେଉଁଥି	-7176
▁କ୍ଷେତ୍ରର	-7177
▁ସାବିତ୍ରୀ	-7178
▁ପ୍ରତ୍ୟାହାର	-7179
▁ବ୍ୟକ୍ତିଙ୍କୁ	-7180
▁ଖ୍ରୀଷ୍ଟାବ୍ଦରେ	-7181
lu	-7182
sp	-7183
ort	-7184
କେଲା	-7185
ହେବା	-7186
▁ଗୁଳ	-7187
▁ପାଗ	-7188
ଳକଣ୍ଠ	-7189
▁ଆକବର	-7190
▁କାଶୀ	-7191
▁ଥ୍ରୋ	-7192
▁ପାଠପ	-7193
▁ପେରି	-7194
▁ବାଲୁ	-7195
▁ବେଗମ	-7196
▁ବୈଶା	-7197
▁ଚାଳନା	-7198
▁ମିଡିଆ	-7199
▁ଅଧିନିୟ	-7200
▁ଅଭିହିତ	-7201
▁ଆନାଫାଇ	-7202
▁ବଜାରରେ	-7203
▁ବରିଷ୍ଠ	-7204
▁ଭଣ୍ଡାର	-7205
▁ଓକିଲାତି	-7206
▁ଇଂଲଣ୍ଡରେ	-7207
▁ଉଦ୍ଦିଷ୍ଟ	-7208
▁ହାଇସ୍କୁଲ	-7209
▁ଅଣନିଶ୍ୱାସ	-7210
))	-7211
୍କ	-7212
୭୯	-7213
yst	-7214
ପୂର	-7215
ଟ୍ରୋ	-7216
ଦାରୀ	-7217
ମୂଳକ	-7218
▁କନକ	-7219
▁ମିଥ	-7220
▁ହର୍	-7221
▁କଦଳୀ	-7222
▁ଦେବୁ	-7223
▁ଦେବେ	-7224
ଭୂମିରେ	-7225
▁ଈଶ୍ୱର	-7226
▁ପାଉଁଶ	-7227
▁ଥାଇରଏଡ	-7228
▁୧୯୯୦ରେ	-7229
▁ମାମଲାରେ	-7230
▁ସଂସ୍ଥାର	-7231
▁ଶିକ୍ଷାଲାଭ	-7232
ଚୟ	-7233
alc	-7234
pro	-7235
ଏଲର	-7236
ଜନ୍	-7237
ଜୀଉ	-7238
ଜ୍ଯ	-7239
ଠୋର	-7240
ଧୀନ	-7241
ମାଟ	-7242
▁ଟନ	-7243
ାମିଲ	-7244
▁ଆରି	-7245
▁ଦାଦ	-7246
▁ସଦନ	-7247
ଣୀଙ୍କ	-7248
ଣ୍ଡିଆ	-7249
▁କ୍ରୟ	-7250
ତେଲୁଗୁ	-7251
ରିମାନା	-7252
୍ୟାଣ୍ଡ	-7253
▁ଅଗ୍ନା	-7254
▁ଅବଶ୍ୟ	-7255
▁ଆୟୁର୍	-7256
▁ଉପଚାର	-7257
▁ଭୌତିକ	-7258
ବ୍ୟବହାର	-7259
▁କରିଆସୁ	-7260
▁ପ୍ରଦ୍ୟୁ	-7261
▁ବିଶ୍ୱକପ	-7262
▁ଭିତ୍ତିକ	-7263
▁ପତ୍ରିକାର	-7264
▁ପିଲାମାନେ	-7265
▁ବିଜ୍ଞାନର	-7266
▁କରିଥିବାରୁ	-7267
▁ରାଜସ୍ଥାନର	-7268
▁ସର୍ବେକ୍ଷଣ	-7269
ବହୁ	-7270
େଟର	-7271
ୋରି	-7272
ବ୍ରେ	-7273
ବ୍ୟୁ	-7274
▁କଥକ	-7275
▁ଗରୁ	-7276
▁ହରେ	-7277
ଚନ୍ଦନ	-7278
▁ଦଶମୀ	-7279
▁ବିଟା	-7280
▁ବୋହି	-7281
▁ଯୋଡି	-7282
▁ଲାଇନ	-7283
▁ସଡ଼କ	-7284
▁ଗୃହରେ	-7285
▁ବନ୍ଧା	-7286
▁ପୁନଶ୍ଚ	-7287
▁ପ୍ରାକ୍	-7288
▁ଲେଖାଏଁ	-7289
▁ହାଇଡ୍ର	-7290
▁କେଳୁଚରଣ	-7291
▁ଗର୍ଭପାତ	-7292
▁ମାଲେସିଆ	-7293
▁ପ୍ରସିଦ୍ଧି	-7294
▁ଯାନ୍ତ୍ରିକ	-7295
▁ସମ୍ବଲପୁରୀ	-7296
▁ଆନୁଷ୍ଠାନିକ	-7297
▁ଶ୍ରୀଲଙ୍କାର	-7298
ଅଁ	-7299
ସାହ	-7300
ସୁଲ	-7301
▁ଓହ	-7302
ମାଳା	-7303
ର୍ଷି	-7304
ସାରା	-7305
ସ୍ରେ	-7306
୨୦୧୧	-7307
▁ଆଲୁ	-7308
▁ବୋଇ	-7309
ଦିତ୍ୟ	-7310
ିବାରୁ	-7311
▁କାଲି	-7312
▁ନୀଳା	-7313
▁ପ୍ରବ	-7314
▁ଫ୍ରା	-7315
▁ଶସ୍ୟ	-7316
▁ଶେଖର	-7317
▁ଇଉରୋପ	-7318
▁ଗୃହୀତ	-7319
▁ଦର୍ପଣ	-7320
▁ଭାବନା	-7321
▁ଐତିହ୍ୟ	-7322
▁ଜାଗାରେ	-7323
▁ଭୟଙ୍କର	-7324
▁ଉତ୍ତୋଳନ	-7325
▁ଉତ୍ସାହିତ	-7326
▁ସେବକମାନେ	-7327
▁ହୋଇଥିବାର	-7328
▁infection	-7329
▁ଅବସ୍ଥାପିତ	-7330
▁ଜୀବବିଜ୍ଞାନ	-7331
▁ଭାଗନେଇଥିଲେ	-7332
▁ଲୋକମାନଙ୍କୁ	-7333
▁ନୃତ୍ୟଶିଳ୍ପୀ	-7334
▁ସର୍ବଶ୍ରେଷ୍ଠ	-7335
ma	-7336
ଶନ	-7337
ପୁତ	-7338
ଫିନ	-7339
▁st	-7340
▁ଟୀ	-7341
▁ଡକ	-7342
▁ବଲ	-7343
ସେଲୋ	-7344
ାତାର	-7345
▁ମହଲ	-7346
▁ରମା	-7347
▁୪୦୦	-7348
କ୍ସିସ	-7349
ତ୍ସ୍ୟ	-7350
ସ୍ନାନ	-7351
▁କଙ୍କ	-7352
▁୧୯୨୯	-7353
୍ରାଦ୍ଧ	-7354
▁ଶ୍ରୀନ	-7355
▁ସୁଟିଂ	-7356
▁ସାକ୍ଷୀ	-7357
▁ଟୁର୍ଣ୍ଣ	-7358
▁ବ୍ୟାପାର	-7359
▁ମାଟ୍ରିକ	-7360
▁ଅତ୍ୟାଚାର	-7361
▁ଝାଡ଼ଖଣ୍ଡ	-7362
▁ପୁସ୍ତକରେ	-7363
▁କ୍ରୀଡ଼ାରେ	-7364
▁ପ୍ରଦ୍ୟୁମ୍ନ	-7365
▁ହେପାଟାଇଟିସ	-7366
▁ପରିସ୍ଥିତିରେ	-7367
୫୬	-7368
erv	-7369
ବିର	-7370
ରାଓ	-7371
ୁଆର	-7372
▁୪୩	-7373
▁ଅପସ	-7374
▁ଆପେ	-7375
▁ବଦଳ	-7376
▁ମୁର	-7377
▁ଜଡିତ	-7378
▁ରୁକ୍	-7379
▁୧୯୩୭	-7380
ମଲ୍ଲିକ	-7381
ମୁଣ୍ଡି	-7382
▁ଏମିତି	-7383
▁ଦୁହେଁ	-7384
▁ବକ୍ସି	-7385
▁ମୋବାଇ	-7386
▁ଶୈଳୀର	-7387
▁କେତୋଟି	-7388
▁ମାଟିରେ	-7389
▁ହେବାରେ	-7390
▁ରାଜବଂଶର	-7391
▁ମାଧ୍ୟମିକ	-7392
▁ବିଷୟବସ୍ତୁ	-7393
▁ରୋଗମାନଙ୍କ	-7394
▁କେମୋଥେରାପି	-7395
▁ହାଇଦ୍ରାବାଦ	-7396
▁ଶ୍ରୀଜଗନ୍ନାଥଙ୍କ	-7397
ଜୟ	-7398
ୁକ	-7399
ace	-7400
oid	-7401
ାସୀ	-7402
▁ac	-7403
▁ଋଣ	-7404
▁ଭୋ	-7405
କାରି	-7406
ୋସିସ	-7407
▁ପକା	-7408
▁ବରଫ	-7409
▁୩୦୦	-7410
▁୭ଟି	-7411
▁ଅପରେ	-7412
▁ଅଦାଲତ	-7413
▁ଗର୍ଭା	-7414
▁ଚଣ୍ଡୀ	-7415
▁ନିରୋଧ	-7416
▁ମହିମା	-7417
▁ଶୃଙ୍ଗ	-7418
▁ସହରକୁ	-7419
▁ଅଙ୍କିତ	-7420
ଜାତନ୍ତ୍ର	-7421
▁ଉଦ୍ୟାନର	-7422
▁ସାକ୍ଷ୍ୟ	-7423
▁ପ୍ରଦେଶରେ	-7424
▁ବାର୍ତ୍ତା	-7425
▁ନିମନ୍ତ୍ରଣ	-7426
▁ସଂସ୍କୃତିରେ	-7427
▁ପର୍ବପର୍ବାଣି	-7428
▁ପୂଜାର୍ଚ୍ଚନା	-7429
▁ପ୍ରତ୍ୟାଖ୍ୟାନ	-7430
ଧନ	-7431
୮୨	-7432
୮୩	-7433
int	-7434
ଫୋନ	-7435
▁le	-7436
ଙ୍ଗଳ	-7437
ଜ୍ମା	-7438
ଦ୍ୱୀ	-7439
▁ଜିନ	-7440
▁ନିଃ	-7441
▁ରୁଷ	-7442
ର୍ବାଦ	-7443
▁ଆଦିର	-7444
▁କିରଣ	-7445
▁ଝରଣା	-7446
▁ଦଶକର	-7447
▁ନିଶା	-7448
▁୧୯୪୩	-7449
▁ଅଂଶରେ	-7450
▁ଜବାହର	-7451
▁ଜଳାଶୟ	-7452
▁ଡିଜିଜ	-7453
▁ପାହାଚ	-7454
▁ବନ୍ଧନ	-7455
▁ସୁରେଶ	-7456
▁ଦଶନ୍ଧି	-7457
▁ବାସ୍ତବ	-7458
ଶ୍ଚର୍ଯ୍ୟ	-7459
▁ଉପତ୍ୟକା	-7460
▁ଆବଶ୍ୟକୀୟ	-7461
▁ମାନଙ୍କରେ	-7462
▁ସମସ୍ତଙ୍କ	-7463
୫୨	-7464
ୀତା	-7465
▁ଏଫ	-7466
ଞ୍ଜର	-7467
ଦାୟକ	-7468
ସୁମୀ	-7469
ୋଜିୟ	-7470
▁ନବମ	-7471
▁ରିସ	-7472
ଷ୍ଟିଓ	-7473
▁ଆଶ୍ୱ	-7474
▁ତୃଟି	-7475
▁ନବମୀ	-7476
ଓଡ଼ିଶା	-7477
▁ଆଷାଢ଼	-7478
▁ବାରିକ	-7479
▁ଷ୍ଟ୍ର	-7480
▁ସ୍ୱତଃ	-7481
ମଣ୍ଡଳରେ	-7482
▁ପାର୍ଥକ	-7483
▁ସ୍ଟ୍ରେ	-7484
▁ନେଇଥିଲା	-7485
▁ପାଠାଗାର	-7486
▁ମେନିଞ୍ଜ	-7487
▁ହୃଦ୍ଘାତ	-7488
▁କ୍ରମାଙ୍କ	-7489
▁ବୃଷ୍ଟିପାତ	-7490
▁ସ୍ୱାମୀଙ୍କ	-7491
▁ପ୍ରତ୍ୟାବର୍ତ୍ତନ	-7492
୮୪	-7493
ସାନ	-7494
ness	-7495
ଲ୍ଟି	-7496
ସିକା	-7497
ହ୍ନି	-7498
▁ତୀର	-7499
▁ବାଏ	-7500
ଗୁପ୍ତ	-7501
ପୃଷ୍ଠ	-7502
▁ବାଛି	-7503
▁ସାନ୍	-7504
▁ଆସୁଛି	-7505
▁ଦିନରୁ	-7506
▁ଦେଖାଦ	-7507
▁ପଚାରି	-7508
▁ଅଭିଜିତ	-7509
▁ଟ୍ରଷ୍ଟ	-7510
▁ନିଆଯାଏ	-7511
▁ପରାଜିତ	-7512
▁ଲିମ୍ଫୋ	-7513
ଯାଇଛନ୍ତି	-7514
▁ଅଞ୍ଚଳରୁ	-7515
▁ଅଧ୍ୟାପନା	-7516
▁ଋତୁସ୍ରାବ	-7517
▁ପିତାମାତା	-7518
▁ବ୍ୟବହାରକାରୀ	-7519
ly	-7520
com	-7521
ଫର୍	-7522
ବାଲ	-7523
ରୋଗ	-7524
ାଦବ	-7525
▁(1	-7526
▁ar	-7527
ଚେରୀ	-7528
ଶାସନ	-7529
୨୦୧୦	-7530
▁for	-7531
▁ଆରା	-7532
▁ଏରି	-7533
▁ଭବନ	-7534
▁ମିନ	-7535
blood	-7536
କ୍ଷାର	-7537
ଡ୍ରାସ	-7538
୍ତ୍ରୀ	-7539
▁ଆଗମନ	-7540
▁ଜଳସେ	-7541
▁ମାୟା	-7542
▁ସଚ୍ଚ	-7543
▁ହୋଇପ	-7544
ନାରାୟଣ	-7545
ାଇନୋସର	-7546
ୀର୍ଣ୍ଣ	-7547
▁ସମ୍ବଳ	-7548
▁କନିଷ୍ଠ	-7549
▁କରିହେବ	-7550
▁ଗୁଡିକୁ	-7551
▁ବାଘଙ୍କ	-7552
▁ଶରୀରକୁ	-7553
▁ଆଣିଥିଲେ	-7554
▁କୋଲୋଜିୟ	-7555
▁ବିଚିତ୍ର	-7556
▁ସଚେତନତା	-7557
▁ଆଲୁମିନିୟ	-7558
▁ଚରିତ୍ରରେ	-7559
▁ଜୋରିମାନା	-7560
▁ଲିଙ୍ଗରାଜ	-7561
▁ଧର୍ମାବଲମ୍ବୀ	-7562
ତକ	-7563
ଏବଂ	-7564
ଖିଆ	-7565
ସକୁ	-7566
▁୭୨	-7567
ବ୍ରତ	-7568
▁ବଛା	-7569
▁ବୈଠ	-7570
▁ମୋନ	-7571
ଓଡ଼ିଆ	-7572
ଜାତୀୟ	-7573
ସିଦ୍ଧ	-7574
▁ସାଧନ	-7575
▁୧୨ଟି	-7576
▁୧୯୪୧	-7577
▁ନିଷେଧ	-7578
▁ପତାକା	-7579
▁ସ୍ୱର୍	-7580
▁ଖେଳିବା	-7581
▁ବଙ୍ଗୋପ	-7582
▁ତାଙ୍କରି	-7583
▁ବିବେଚିତ	-7584
▁ମ୍ୟାଚରେ	-7585
▁ଇଣ୍ଡିଆନ୍	-7586
▁ପ୍ରଭାବରେ	-7587
▁କାର୍ଯ୍ୟକାଳ	-7588
▁ପାଲେଷ୍ଟାଇନ	-7589
▁ଯୋଗଦେଇଥିଲେ	-7590
▁ନିର୍ଦ୍ଧାରିତ	-7591
ୟୋ	-7592
୫୯	-7593
ଘରେ	-7594
ଡାଏ	-7595
ମୋଦ	-7596
ହିକ	-7597
ରୂପେ	-7598
ାଦିତ	-7599
୨୦୦୯	-7600
▁ସୂଚ	-7601
କଳେବର	-7602
ଚାନ୍ଦ	-7603
ସିଙ୍ଗ	-7604
▁ଉପାଧ	-7605
▁ପଙ୍କ	-7606
▁ବାରା	-7607
▁ଆଡ୍ରେ	-7608
▁କର୍ପୋ	-7609
▁ବିତରଣ	-7610
▁ୱେଷ୍ଟ	-7611
ବିଧାନିକ	-7612
▁ପ୍ରଶଂସ	-7613
▁ବିକିରଣ	-7614
▁ମିଲିୟନ	-7615
▁ଦିଅନ୍ତୁ	-7616
▁ବ୍ରୋଞ୍ଜ	-7617
▁ସନ୍ତୁଷ୍ଟ	-7618
▁କରିବାଦ୍ୱାରା	-7619
sh	-7620
sy	-7621
୬୩	-7622
୬୯	-7623
dom	-7624
eth	-7625
କାମ	-7626
ତୀୟ	-7627
▁ଆଣ	-7628
▁ତୈ	-7629
▁ମଦ	-7630
ence	-7631
ବାଲି	-7632
ମେନ୍	-7633
ସିଡେ	-7634
ସ୍ଥଳ	-7635
▁ଆଲକ	-7636
▁ଜଳର	-7637
▁ଭୋଜ	-7638
▁ରେଖ	-7639
ବାରରେ	-7640
▁କର୍ଟ	-7641
▁କାଉନ	-7642
▁ଡିଜଅ	-7643
▁ତ୍ରୁ	-7644
▁ମାନସ	-7645
▁ମାହା	-7646
▁ସ୍ତୁ	-7647
ନାଥଙ୍କ	-7648
▁କମିଶନ	-7649
▁କାହ୍ନ	-7650
▁ଦେଖାଇ	-7651
▁ପାଲଟି	-7652
▁ଚଉତିଶା	-7653
▁ଅଗ୍ନାଶୟ	-7654
▁ଗର୍ଭଗୃହ	-7655
▁ଯାଉଥିଲା	-7656
▁ରକ୍ତନଳୀ	-7657
▁ସମର୍ପିତ	-7658
▁ସିଂହଙ୍କ	-7659
▁ସୁନ୍ଦରୀ	-7660
▁ଆଠମଲ୍ଲିକ	-7661
▁ଉଦ୍ୟାନରେ	-7662
▁ପାର୍ଥକ୍ୟ	-7663
▁ଫାଇନାଲରେ	-7664
▁ପ୍ରଚ୍ଛଦପଟ	-7665
▁ପ୍ରିୟଙ୍କା	-7666
▁ନାମାନୁସାରେ	-7667
ff	-7668
sc	-7669
ple	-7670
ଜିଓ	-7671
ାପନ	-7672
▁୭୪	-7673
ତାରୁ	-7674
ପାୟୀ	-7675
ଶକ୍ତ	-7676
▁ଆଶୀ	-7677
▁ଘାସ	-7678
ରାତ୍ର	-7679
ର୍ଭାବ	-7680
ଲମ୍ବନ	-7681
ଶୀଳତା	-7682
ୋତ୍ତର	-7683
▁କମରେ	-7684
▁କ୍ରେ	-7685
▁ପଢ଼ା	-7686
▁ଫ୍ରି	-7687
▁ମୟୁର	-7688
▁ଲୋକର	-7689
▁ସାଜି	-7690
ଙ୍କାରେ	-7691
ଛାତ୍ରୀ	-7692
▁ଧୂମ୍ର	-7693
▁ପରିବା	-7694
▁ପାହାଡ	-7695
▁ଆଞ୍ଜିଓ	-7696
▁ସ୍କନ୍ଧ	-7697
▁ହାଲୁକା	-7698
▁ଗୋଦାବରୀ	-7699
▁ସେଗୁଡିକ	-7700
▁ମସିହାଯାଏଁ	-7701
ଭୀ	-7702
୬୨	-7703
କଲେ	-7704
ୁଛି	-7705
ୂପେ	-7706
▁17	-7707
▁ଦଇ	-7708
କ୍ରା	-7709
ଡିମା	-7710
▁ଅନା	-7711
▁ଏଡ଼	-7712
▁ଖସି	-7713
▁ପଡୁ	-7714
▁ଫସଲ	-7715
▁ଭୂପ	-7716
▁ରାଗ	-7717
▁ହିପ	-7718
ମିତ୍ର	-7719
ୋପ୍ସି	-7720
▁ଛେନା	-7721
▁ନାଗା	-7722
▁ନାମର	-7723
ସୁନ୍ଦର	-7724
▁ଔଷଧୀୟ	-7725
▁ଚର୍ବି	-7726
▁ବଣ୍ଟନ	-7727
▁ବଦଳାଇ	-7728
▁ରୋଷେଇ	-7729
▁ସ୍ଟ୍ର	-7730
ଗୋବିନ୍ଦ	-7731
▁ଖ୍ୟାତି	-7732
▁ପଡ଼ିଲେ	-7733
▁ପ୍ୟାରି	-7734
▁ହାଣ୍ଡି	-7735
▁ପୁଷ୍କରି	-7736
▁ପୁସ୍ତକର	-7737
▁ରାଜ୍ୟକୁ	-7738
▁ଶିବଙ୍କୁ	-7739
▁ଉପସ୍ଥାପନ	-7740
▁ତାମିଲନାଡୁ	-7741
ଜଣେ	-7742
ଜନୀ	-7743
ଟନ୍	-7744
ଡୁର	-7745
ଭିସ	-7746
ମାଧ	-7747
୍ଟର	-7748
▁ତହ	-7749
amin	-7750
ମ୍ପୁ	-7751
▁ଅପର	-7752
▁ଶନି	-7753
ତ୍କାର	-7754
▁ଅଭିଯ	-7755
▁ଆଲବମ	-7756
▁ଗୌରୀ	-7757
▁ଛାୟା	-7758
▁ଫୁଟି	-7759
▁ବଲିଉ	-7760
▁ବୋଲା	-7761
▁ମରାମ	-7762
ଷ୍ଟ୍ରି	-7763
▁ଆଇନଗତ	-7764
▁ଟୋକିଓ	-7765
▁ମଧ୍ୟା	-7766
କେନ୍ଦ୍ର	-7767
▁ଚିଲିକା	-7768
▁ରାଜପୁତ	-7769
▁ଡାଇନୋସର	-7770
▁ଦେବାଶିଷ	-7771
▁ବାର୍ସେଲୋ	-7772
▁ହରାଇଥିଲେ	-7773
▁ପ୍ରତିବନ୍ଧ	-7774
▁ସମସ୍ତଙ୍କୁ	-7775
▁ସାକ୍ଷାତକାର	-7776
ପତ	-7777
ଇନ୍	-7778
ଗିକ	-7779
ଦୂତ	-7780
ରିଷ	-7781
ୋଦର	-7782
କ୍ଲେ	-7783
▁କୋର	-7784
କ୍ସିନ	-7785
୍ପନିକ	-7786
▁ଆଦୃତ	-7787
▁ଛୁଇଁ	-7788
▁ଜଣକୁ	-7789
▁ଦଳିତ	-7790
▁ପଟେଲ	-7791
▁ମଧୁର	-7792
▁ଯାଦବ	-7793
▁ବିଧବା	-7794
▁ଭୋଟରେ	-7795
jection	-7796
▁proble	-7797
▁ତ୍ରୟୋଦ	-7798
▁ପରଜୀବୀ	-7799
▁ପାରିବେ	-7800
▁ମତ୍ସ୍ୟ	-7801
▁ସୁଲତାନ	-7802
ର୍ଯ୍ୟନ୍ତ	-7803
▁ନବକଳେବର	-7804
▁ମାଡ୍ରାସ	-7805
▁କରୁଥିବାରୁ	-7806
▁ବ୍ୟବସ୍ଥାର	-7807
▁ହୋଇଯାଇଥିଲେ	-7808
▁ମହତ୍ତ୍ୱପୂର୍ଣ୍ଣ	-7809
୫୭	-7810
ear	-7811
loc	-7812
ron	-7813
vir	-7814
କୂଳ	-7815
ପର୍	-7816
ଫେନ	-7817
ଯଥା	-7818
▁ଅଂ	-7819
ight	-7820
ଟାଲି	-7821
ଣ୍ଟୋ	-7822
ଥିଲି	-7823
▁ରଥର	-7824
ଡ଼ିରେ	-7825
ଦାବାଦ	-7826
▁ଗୁଗଲ	-7827
▁ଗୋଲ୍	-7828
▁ଘେରି	-7829
▁ଟିକେ	-7830
▁ମୋଦୀ	-7831
▁ରଜନୀ	-7832
▁ଲିଗ୍	-7833
▁୧୯୪୪	-7834
▁ଆଲୋକର	-7835
▁ଏକାଦଶ	-7836
▁ଝାରସୁ	-7837
▁ବର୍ମା	-7838
▁ଯୁଗ୍ମ	-7839
▁ଅନୁଦାନ	-7840
▁ଆହ୍ୱାନ	-7841
▁ନିବାରଣ	-7842
▁ଫଳପ୍ରଦ	-7843
▁ଲେଖାରେ	-7844
▁ସମାଜସେ	-7845
▁ସହକାରୀ	-7846
▁ଦାରିଦ୍ର	-7847
▁ବିଦେଶରେ	-7848
▁ସତ୍ୟାଗ୍ରହ	-7849
୬୧	-7850
୭୩	-7851
kin	-7852
ଣୁର	-7853
ଦୁଲ	-7854
ପୁଅ	-7855
ବାୟ	-7856
ଶ୍ର	-7857
▁ଓଲ	-7858
▁ପଣ	-7859
▁ଫସ	-7860
ଟେଡ୍	-7861
ାଇଜେ	-7862
ୟାର୍	-7863
▁ଅଦା	-7864
▁ଭାସ	-7865
▁ମିଆ	-7866
▁ହଲ୍	-7867
▁ହିର	-7868
ସାଧ୍ୟ	-7869
▁ମହିଷ	-7870
▁୧୯୩୧	-7871
ନିର୍ବା	-7872
ରାତ୍ରି	-7873
▁ଅବକାଶ	-7874
▁ଅମ୍ବା	-7875
▁ଘୋଷିତ	-7876
▁ଚଳାଚଳ	-7877
▁ଚେତନା	-7878
▁ସ୍ନେହ	-7879
▁ଆକୃଷ୍ଟ	-7880
▁ଡିଜାଇନ	-7881
▁ରାତ୍ରି	-7882
▁ନୀଳଗିରି	-7883
▁ଶ୍ରାଦ୍ଧ	-7884
▁ଜିତିଥିଲା	-7885
▁ଆସିଥାନ୍ତି	-7886
▁ପୁରୁଷମାନେ	-7887
▁ପ୍ରଦର୍ଶନୀ	-7888
▁ପିତାମାତାଙ୍କ	-7889
ାଥ	-7890
ୁଜ	-7891
୦୪	-7892
୫୩	-7893
amm	-7894
iet	-7895
ଟ୍ସ	-7896
ଣ୍ଡୋ	-7897
ପକ୍ୱ	-7898
ରିଆଲ	-7899
ଳିବା	-7900
▁ଅଟୋ	-7901
▁ଗାନ	-7902
▁ଧାତ	-7903
▁ହ୍ୱ	-7904
▁କାଳର	-7905
▁ଗାଢ଼	-7906
▁ଫ୍ଲୁ	-7907
▁ବରଗଡ଼	-7908
▁ବୁଝାମ	-7909
▁ସାବ୍ୟ	-7910
▁ସେରୋଟ	-7911
▁ଅଦ୍ୟାବ	-7912
▁ଆକ୍ୟୁଟ	-7913
▁ଦମ୍ପତି	-7914
▁ନୃତ୍ୟର	-7915
▁କଳାକୃତି	-7916
▁କିଛିଦିନ	-7917
▁ଜନପ୍ରିୟ	-7918
▁ଶିଳାଲେଖ	-7919
▁ବିଦ୍ୟମାନ	-7920
▁ଭିତ୍ତିରେ	-7921
▁ରାଜକୁମାର	-7922
▁ସର୍ବବୃହତ	-7923
▁କାରୁକାର୍ଯ୍ୟ	-7924
▁ଅନ୍ନପୂର୍ଣ୍ଣା	-7925
ିଂ	-7926
୫୧	-7927
ଜୋଲ	-7928
ସେସ	-7929
ାପି	-7930
୍ସା	-7931
▁an	-7932
▁ଅକ	-7933
ଟ୍ଟା	-7934
ନ୍ସର	-7935
ପାତି	-7936
ବାଣି	-7937
ଲୀଳା	-7938
ସମୂହ	-7939
ାଳରେ	-7940
ୋଲିକ	-7941
▁ଅବୈ	-7942
▁ବାଉ	-7943
ବର୍ତୀ	-7944
▁ଅମ୍ବ	-7945
▁ଆହାର	-7946
▁ଲୁଚି	-7947
▁ଶଙ୍କ	-7948
▁ସୁନୀ	-7949
▁ଅଂଶକୁ	-7950
▁ଡକ୍ଟର	-7951
▁ଧରିବା	-7952
▁ବିନୋଦ	-7953
▁ଭୀଷ୍ମ	-7954
▁ଅନୁପାତ	-7955
▁ଜୀବିକା	-7956
▁ଦୈନନ୍ଦ	-7957
▁ପୁରୀରେ	-7958
▁ପ୍ରେରଣ	-7959
▁ସଫଳତାର	-7960
▁ଉଦ୍ୟମରେ	-7961
▁ଜେନେରିକ	-7962
▁ବଲାଙ୍ଗୀର	-7963
▁ବାୟୋପ୍ସି	-7964
▁କ୍ୟାଲସିଅମ	-7965
▁ବିଷ୍ଣୁଙ୍କ	-7966
▁ଛାତ୍ରଛାତ୍ରୀ	-7967
iss	-7968
ଣ୍ଡେ	-7969
ଥିବେ	-7970
ଳିରେ	-7971
▁ଆଶୁ	-7972
▁ଚାଇ	-7973
▁ଚାଟ	-7974
▁ଜାମ	-7975
▁ମୁକ	-7976
ଧିକାର	-7977
ପ୍ତାହ	-7978
▁ଅକ୍ତ	-7979
▁କଠୋର	-7980
▁ନ୍ୟା	-7981
▁ବେଶ୍	-7982
▁ରିଲି	-7983
▁ଆଲବମ୍	-7984
▁ଭିକ୍ଷ	-7985
▁ଶୁକ୍ର	-7986
କରିଥିଲେ	-7987
▁ତ୍ରିଭୁ	-7988
▁ତ୍ରୁଟି	-7989
▁ପିଣ୍ଟୁ	-7990
▁ପ୍ରୀତି	-7991
▁ବନ୍ଧୁକ	-7992
▁ମିନିଟ୍	-7993
▁ରୋଜଗାର	-7994
▁ସଭ୍ୟତା	-7995
▁ସମୃଦ୍ଧ	-7996
▁ସାଇନ୍ସ	-7997
▁ସାମଞ୍ଜ	-7998
ଯାତ୍ରାରେ	-7999
▁କ୍ରାନ୍ତ	-8000
▁ଗୁଜରାଟୀ	-8001
▁ଗୁଡ଼ିକର	-8002
▁ମହୋତ୍ସବ	-8003
▁ସେଠାକାର	-8004
▁ଅଦ୍ୟାବଧି	-8005
▁ଇଣ୍ଟରନେଟ	-8006
▁ରକ୍ଷଣାବେ	-8007
▁ପ୍ରକ୍ରିୟାରେ	-8008
In	-8009
ଠର	-8010
ଶର	-8011
୯୧	-8012
ଏନଏ	-8013
▁ଗୃ	-8014
ବର୍ଟ	-8015
ସ୍କା	-8016
ୂଳରେ	-8017
▁ଡାଲ	-8018
▁ଲୋପ	-8019
▁ସରୁ	-8020
କୋର୍ଟ	-8021
▁ପଠାଇ	-8022
▁ମାନି	-8023
▁ଷ୍ଟୁ	-8024
▁ସାଇଟ	-8025
▁୧୦ଟି	-8026
▁୧୯୩୯	-8027
ସାମୟିକ	-8028
ସ୍ୱରୂପ	-8029
▁ଉପବାସ	-8030
▁ଦେବାର	-8031
▁ପାଟଣା	-8032
▁ଜୀବସାର	-8033
▁ପବ୍ଲିକ	-8034
▁ପରିକଳ୍ପ	-8035
▁ମହାରାଣୀ	-8036
▁problems	-8037
▁ଅବସ୍ଥାକୁ	-8038
▁ଆଶୀର୍ବାଦ	-8039
କନ	-8040
୦୮	-8041
mun	-8042
▁St	-8043
,000	-8044
tern	-8045
ଲେରି	-8046
▁198	-8047
▁କଲୋ	-8048
▁ଚକା	-8049
▁ଭରି	-8050
▁ମୂର	-8051
▁ଯଦୁ	-8052
▁ଲିଉ	-8053
▁ସଦା	-8054
ମାଙ୍କ	-8055
ୋକ୍ଲୋ	-8056
▁ଉଠାଇ	-8057
▁ଖେଳା	-8058
▁ଗ୍ଲା	-8059
▁ଦାୟୀ	-8060
▁ପଟକୁ	-8061
▁ବିରି	-8062
▁ମେଜର	-8063
ନ୍ତ୍ରୀ	-8064
ାର୍ଜୁନ	-8065
▁ପଥରରେ	-8066
▁ବାଙ୍କ	-8067
▁ବୈଶାଖ	-8068
ଭିତ୍ତିକ	-8069
ସୂର୍ଯ୍ୟ	-8070
ାସାଉଣ୍ଡ	-8071
▁ଅନୁଭୂତ	-8072
▁କଷ୍ଟକର	-8073
▁ପଞ୍ଚମୀ	-8074
▁ମଧ୍ୟକୁ	-8075
▁ରାକ୍ଷସ	-8076
▁ସାଇକେଲ	-8077
▁ଅନୁପ୍ରା	-8078
▁କରିପାରୁ	-8079
▁ଗୋଲାକାର	-8080
▁ନୀଳକଣ୍ଠ	-8081
▁ବଞ୍ଚିବା	-8082
▁ଯାଉଥିଲେ	-8083
▁ସେହିଦିନ	-8084
▁ଜର୍ମାନୀର	-8085
▁ବାଏର୍ଣ୍ଣ	-8086
▁ବାଚସ୍ପତି	-8087
▁ବାନାର୍ଜୀ	-8088
▁ବୃନ୍ଦାବନ	-8089
▁ବ୍ୟକ୍ତିର	-8090
▁ମୁଖାର୍ଜୀ	-8091
▁ସଂକ୍ରମଣର	-8092
▁କାର୍ଯ୍ୟକୁ	-8093
▁ଇଲେକ୍ଟ୍ରୋନ	-8094
▁ସେଣ୍ଟିଗ୍ରେ	-8095
our	-8096
▁im	-8097
▁ତତ	-8098
▁ପଳ	-8099
etic	-8100
ନ୍ୟୁ	-8101
ରାଧା	-8102
ସନରେ	-8103
୍ରାଲ	-8104
▁ଦଖଲ	-8105
▁ମାଁ	-8106
ରାବତୀ	-8107
▁cell	-8108
▁ସ୍ପି	-8109
ଗୁଡିକୁ	-8110
▁ଆରୋହଣ	-8111
▁ମହାବଳ	-8112
▁ମାଟିଆ	-8113
ସ୍ୱାଧୀନ	-8114
▁ପ୍ରଗତି	-8115
▁ମୁଖ୍ୟା	-8116
▁ଯାତାୟତ	-8117
▁ରହିଆସି	-8118
▁ଆଙ୍ଗୁଠି	-8119
▁ଖାଦ୍ୟରେ	-8120
▁ଗର୍ଭବତୀ	-8121
▁ଭବିଷ୍ୟତ	-8122
▁ମୂଖ୍ୟତଃ	-8123
▁ଜବାହରଲାଲ	-8124
▁ମିଶ୍ରଙ୍କ	-8125
▁ସାବ୍ୟସ୍ତ	-8126
▁ଆତ୍ମଜୀବନୀ	-8127
▁ବିଜ୍ଞାପନରେ	-8128
▁ପ୍ରତ୍ନତାତ୍ତ୍ୱିକ	-8129
ଉଜ	-8130
ଘବ	-8131
୭୧	-8132
ney	-8133
ଗୁଆ	-8134
ଡିଂ	-8135
▁ଖର	-8136
▁ଗପ	-8137
▁ନଳ	-8138
▁ଶବ	-8139
▁୫୪	-8140
ଶନିକ	-8141
▁ଅଟକ	-8142
▁ଅମଳ	-8143
▁ଦିଶ	-8144
▁ଧନୀ	-8145
▁ନାୟ	-8146
▁୧ରୁ	-8147
କଙ୍କୁ	-8148
ଲିଙ୍କ	-8149
▁ଆଳତି	-8150
▁କିବୋ	-8151
▁୧୯୨୪	-8152
ାୟତ୍ରୀ	-8153
▁କେରଳର	-8154
▁ଜୀବିତ	-8155
▁ନିବାର	-8156
▁ପରିସଂ	-8157
▁ରାଜେଶ	-8158
▁ଏକାଡ଼େ	-8159
▁ଗ୍ରାମା	-8160
▁ମିଳିଲା	-8161
▁ସମୀକ୍ଷା	-8162
▁ସମ୍ବେଦନ	-8163
▁ସାମ୍ପ୍ର	-8164
▁ହୋଇଯିବା	-8165
▁କରିନଥିଲେ	-8166
▁ସୂର୍ଯ୍ୟା	-8167
▁ବ୍ୟବସାୟୀକ	-8168
▁ଅତ୍ୟାବଶ୍ୟକ	-8169
▁ମନ୍ତ୍ରଣାଳୟ	-8170
▁ନିର୍ଦ୍ଧିଷ୍ଟ	-8171
▁ବାଦ୍ୟଯନ୍ତ୍ର	-8172
az	-8173
ex	-8174
ଓନ	-8175
ୟେ	-8176
har	-8177
ign	-8178
oph	-8179
ପଦକ	-8180
ମିନ	-8181
ସୁର	-8182
ୱାନ	-8183
▁ଗଡ	-8184
କ୍ଟେ	-8185
ବ୍ରୋ	-8186
ଲଙ୍କ	-8187
ହାରା	-8188
େଟରେ	-8189
▁ଆଲା	-8190
▁ନାନ	-8191
▁ମଝି	-8192
▁ରିଉ	-8193
▁୨୫୦	-8194
ଣ୍ଢେଇ	-8195
▁ଘଞ୍ଚ	-8196
▁ନେଟୱ	-8197
▁ପାଲା	-8198
▁ବିବି	-8199
▁ମଜୁମ	-8200
▁ମମତା	-8201
▁ମଲ୍ଲ	-8202
ବ୍ୟାପୀ	-8203
▁ଗତିରେ	-8204
▁ପାରଳା	-8205
ମୂର୍ତ୍ତ	-8206
▁କ୍ରମରେ	-8207
▁ପର୍ବତର	-8208
▁ମିଳୁଛି	-8209
▁ସାମୟିକ	-8210
▁ସୁପ୍ରି	-8211
▁ଅବଲମ୍ବନ	-8212
▁ଚାଲିଗଲେ	-8213
▁ମଜୁମଦାର	-8214
▁ଦୈନନ୍ଦିନ	-8215
▁ପରିତ୍ୟାଗ	-8216
▁ଆଶ୍ଚର୍ଯ୍ୟ	-8217
▁ବୈଦ୍ୟୁତିକ	-8218
▁ଦିଆଯାଇଥିବା	-8219
▁ତାଙ୍କଦ୍ୱାରା	-8220
▁ଦୃଷ୍ଟିକୋଣରୁ	-8221
)-	-8222
ev	-8223
iver	-8224
ପର୍ବ	-8225
ମିଳା	-8226
ସହିତ	-8227
ାଦଶୀ	-8228
▁ଭଜା	-8229
▁ସରବ	-8230
କେମିଆ	-8231
ଣ୍ଡିଜ	-8232
ବସ୍ଥା	-8233
▁ଜଣାଇ	-8234
▁ବିଲ୍	-8235
▁ମାଗି	-8236
▁ଯୋଗୀ	-8237
▁ନିଷ୍ଠ	-8238
▁ବିହୀନ	-8239
▁ଗୁଡ଼ିଏ	-8240
▁ଛାତ୍ରୀ	-8241
▁ପଡ଼ିଲା	-8242
▁ପ୍ରଚୁର	-8243
▁ଭାଦ୍ରବ	-8244
▁ସମୀକରଣ	-8245
▁ସର୍ତ୍ତ	-8246
▁ୟୁନିଭର	-8247
▁ଅକ୍ଷମତା	-8248
▁ଅସ୍ଥାୟୀ	-8249
▁ଉତ୍ସର୍ଗ	-8250
▁ଏକତ୍ରିତ	-8251
▁କଲିକତାର	-8252
▁ଚୁମ୍ବକୀୟ	-8253
▁ବୁଦ୍ଧଙ୍କ	-8254
▁ସମୟକ୍ରମେ	-8255
▁ସୁନ୍ଦରଗଡ଼	-8256
▁ତାମିଲନାଡୁର	-8257
▁ମହାନ୍ତିଙ୍କ	-8258
▁ମାଂସପେଶୀରେ	-8259
▁ଆକ୍ରାନ୍ତଙ୍କ	-8260
▁ପିଲାମାନଙ୍କୁ	-8261
▁ଟୁର୍ଣ୍ଣାମେଣ୍ଟ	-8262
ile	-8263
ong	-8264
tro	-8265
ଘ୍ନ	-8266
ାଇମ	-8267
▁ଖଇ	-8268
▁ଝି	-8269
କୋମା	-8270
ମାଟୋ	-8271
ମ୍ପି	-8272
ହାଇଡ	-8273
▁କଲି	-8274
▁ବାଧ	-8275
କୁଣ୍ଠ	-8276
ମଣ୍ଡପ	-8277
ଶେଷରେ	-8278
ିକାଲି	-8279
▁ଅଜିତ	-8280
▁ଆଗେଇ	-8281
▁ଆଚରଣ	-8282
▁ଆଦିମ	-8283
▁ଗୁଡ଼	-8284
▁ବକ୍ସ	-8285
▁ବିଶା	-8286
▁ବେଦୀ	-8287
▁ଭାନୁ	-8288
ପ୍ରିୟା	-8289
▁ଅଙ୍ଗୁ	-8290
▁ଆଜୀବନ	-8291
▁ଆସାମର	-8292
▁ବେଞ୍ଜ	-8293
▁ଭେଙ୍କ	-8294
▁ସ୍ୱପ୍	-8295
▁ମଡେଲିଂ	-8296
▁ରେଡ଼ିଓ	-8297
▁ସୋମନାଥ	-8298
▁ଗଣମାଧ୍ୟ	-8299
▁ପଦାର୍ଥର	-8300
▁ଆଫ୍ରିକାର	-8301
▁କାଳ୍ପନିକ	-8302
▁ଚାଲିଥିବା	-8303
▁ଚାଲିଥିଲା	-8304
▁ନିରାପତ୍ତା	-8305
▁ପ୍ରତିରୋପଣ	-8306
▁ସଂଗ୍ରାମରେ	-8307
▁ମହିଳାମାନଙ୍କୁ	-8308
%)	-8309
ଅପ	-8310
େପ	-8311
୦୧	-8312
୫୪	-8313
ନାଦ	-8314
ନିସ	-8315
ବିତ	-8316
ଭ୍ର	-8317
ମାବ	-8318
ଲାସ	-8319
ଷିକ	-8320
ାନନ	-8321
୍ୱଳ	-8322
ବଦ୍ଧ	-8323
ାସ୍ଟ	-8324
▁ଜାଲ	-8325
▁ଦ୍ଵ	-8326
▁ନଜର	-8327
▁୮ଟି	-8328
ଧାନ୍ୟ	-8329
ାନ୍ସ୍	-8330
▁କରାଏ	-8331
▁ନିଗମ	-8332
▁ଯୋଗେ	-8333
▁ତୁଲାଇ	-8334
▁ଦୋକାନ	-8335
▁ସଙ୍ଗମ	-8336
▁ଅଧିବେଶ	-8337
▁ଓଷ୍ଟିଓ	-8338
▁କେଶ୍ରେ	-8339
▁ପକ୍ଷୀର	-8340
▁ପରିଧାନ	-8341
▁ଲାଗିବା	-8342
▁ଉଚ୍ଚାରଣ	-8343
▁ସମାଲୋଚକ	-8344
▁ଆସୋସିଏସନ	-8345
▁ଚିକିତ୍ସକ	-8346
▁ନର୍ତ୍ତକୀ	-8347
▁ମୂତ୍ରାଶୟ	-8348
▁ରାଉରକେଲା	-8349
▁ଲକ୍ଷଣମାନ	-8350
▁ଅନୁଷ୍ଠାନର	-8351
▁ଗ୍ରାମବାସୀ	-8352
▁ରକ୍ଷଣାବେକ୍ଷଣ	-8353
ଖନ	-8354
ଡୀ	-8355
ite	-8356
ଆଇନ	-8357
ଲିଲ	-8358
▁ve	-8359
▁୮୪	-8360
ଦତ୍ତ	-8361
ଦାନୀ	-8362
ଦେଲା	-8363
ବଂଶୀ	-8364
ଶ୍ରମ	-8365
୨୦୦୮	-8366
▁ଅସହ	-8367
▁ଘାତ	-8368
▁ହେଲ	-8369
ଧାନାଥ	-8370
ରଞ୍ଜନ	-8371
▁କୋଲେ	-8372
▁ପିଏଚ	-8373
▁ପିଠି	-8374
▁୧୯୨୫	-8375
ତତ୍ତ୍ୱ	-8376
▁କୁଷ୍ଠ	-8377
▁ଗୁଳ୍ମ	-8378
▁ତଦନ୍ତ	-8379
▁ଫେରିଆ	-8380
▁ସହସ୍ର	-8381
▁ଆଶ୍ୱିନ	-8382
▁ଖଳନାୟକ	-8383
▁ନିରୂପଣ	-8384
▁ଭାଷାକୁ	-8385
▁ମାରିବା	-8386
▁ସଂଜ୍ଞା	-8387
▁ସ୍ୱୟଂଶ	-8388
▁ଇଂଲଣ୍ଡର	-8389
▁ବ୍ୟବଧାନ	-8390
▁ୱେବସାଇଟ	-8391
▁ନାରୀବାଦୀ	-8392
▁ପକ୍ଷୀଙ୍କ	-8393
▁ବାସିନ୍ଦା	-8394
▁ବେଳାଭୂମି	-8395
▁ଭୂମିକମ୍ପ	-8396
▁ସମସାମୟିକ	-8397
▁ରାଧାକୃଷ୍ଣ	-8398
▁ସରକାରଙ୍କୁ	-8399
▁ସାମଞ୍ଜସ୍ୟ	-8400
▁ପରାମର୍ଶଦାତା	-8401
▁ସେଣ୍ଟିଗ୍ରେଡ	-8402
୦୩	-8403
ach	-8404
ଏଚ୍	-8405
ରୁପ	-8406
▁୬୨	-8407
tric	-8408
ଜନରେ	-8409
ମାନ୍	-8410
ାଗ୍ର	-8411
▁ଅଲ୍	-8412
▁ଧୁମ	-8413
▁ପଣା	-8414
▁ମେନ	-8415
▁ଶେଖ	-8416
▁ସୁଇ	-8417
▁ହଂସ	-8418
▁ୱେବ	-8419
▁ଅବୈଧ	-8420
▁ଆଗ୍ନ	-8421
▁ଗୁଗୁ	-8422
▁ଫିଫା	-8423
▁ବାଲ୍	-8424
▁ବିଭୁ	-8425
▁ଲୁଗା	-8426
▁୧୯୧୪	-8427
▁ଜାନକୀ	-8428
▁ଜ୍ୟାମ	-8429
▁ପ୍ରୋଜ	-8430
▁ଯୌଗିକ	-8431
▁ରାମାନ	-8432
▁ଲୋକରେ	-8433
▁ହରିୟା	-8434
ନିର୍ମାଣ	-8435
▁ଘଟିଥାଏ	-8436
▁ଭୂମିରେ	-8437
▁ମଙ୍ଗଳା	-8438
▁ସଂଲଗ୍ନ	-8439
▁ହୋଇଯିବ	-8440
▁ଦାର୍ଶନିକ	-8441
ାଙ୍କଦ୍ୱାରା	-8442
▁ପର୍ଯ୍ୟାପ୍ତ	-8443
▁ଶ୍ରୀମନ୍ଦିରର	-8444
ୋତ୍	-8445
▁En	-8446
▁ବହ	-8447
ଟ୍ରେ	-8448
ଫିଲ୍	-8449
ମିନା	-8450
ହିଣୀ	-8451
ାଜୋଲ	-8452
ାସାଦ	-8453
୍ୟୁଲ	-8454
▁ଦୀନ	-8455
▁ହରଣ	-8456
ପୂର୍ଣ	-8457
ଷ୍ଠିର	-8458
ହିନୀର	-8459
▁ଅଜଣା	-8460
▁ଉଦିତ	-8461
▁ଖଣିଜ	-8462
▁ପେଶୀ	-8463
▁ଯୁଧି	-8464
ବନ୍ଧିତ	-8465
▁ଆଶ୍ରୟ	-8466
▁ଗବେଷଣ	-8467
▁ଚେୟାର	-8468
▁ଡଙ୍ଗା	-8469
▁ଦୁର୍ଭ	-8470
▁ସାର୍ଥ	-8471
▁ସାହେବ	-8472
▁ଅଗ୍ରଣୀ	-8473
▁ଅନ୍ତରୀ	-8474
▁କମିଶନର	-8475
▁ଗୁଡିକର	-8476
▁ଜଣାପଡି	-8477
▁ବ୍ରିଟେ	-8478
▁ମାଆଙ୍କ	-8479
▁ରାଜୁତି	-8480
▁ଲୋକଗୀତ	-8481
ମାତ୍ରାରେ	-8482
▁ଅକ୍ତିଆର	-8483
▁ଚିତ୍ରକଳା	-8484
▁ଚିନ୍ତାମଣି	-8485
▁ବିଚ୍ଛିନ୍ନ	-8486
▁ସାକ୍ଷ୍ୟରତା	-8487
▁ପ୍ରେସକ୍ରିପସନ୍	-8488
cy	-8489
ଗଛ	-8490
ୟତ	-8491
୦୬	-8492
ack	-8493
ଏଡି	-8494
ନିଂ	-8495
ପାଠ	-8496
▁12	-8497
olog	-8498
ବହୁଳ	-8499
ାନ୍ଥ	-8500
▁ଖାର	-8501
▁ଗୋଆ	-8502
▁ଜୋର	-8503
▁ଦଶକ	-8504
▁ବାଣ	-8505
▁ରୋମ	-8506
▁ଲୋମ	-8507
ମିଶ୍ର	-8508
▁ବୀଣା	-8509
▁ରୂପା	-8510
▁ରେଡ୍	-8511
▁ସେଲ୍	-8512
▁ହାରି	-8513
▁ମାସରୁ	-8514
▁ରନ୍ଧା	-8515
▁ଶାଢ଼ୀ	-8516
▁ହାଇପୋ	-8517
୍ୟୁନିଟି	-8518
▁କଣ୍ଢେଇ	-8519
▁ବ୍ୟସ୍ତ	-8520
▁ରଖନ୍ତି	-8521
▁ଶବ୍ଦରୁ	-8522
▁ସଂହିତା	-8523
▁କ୍ରିସ୍ମ	-8524
▁ପାଉଥିଲେ	-8525
▁ମଣ୍ଡପରେ	-8526
▁ମାତ୍ରାର	-8527
▁ମିଳନ୍ତି	-8528
▁ରାଧାନାଥ	-8529
▁ଶିକ୍ଷାର	-8530
▁ଉତ୍ପାଦିତ	-8531
▁ରାଜାଙ୍କୁ	-8532
୦୨	-8533
ism	-8534
lec	-8535
ors	-8536
କାଲ	-8537
ଳକର	-8538
ଶୁର	-8539
ାରକ	-8540
▁ହଲ	-8541
ନ୍ଧନ	-8542
ମ୍ଭବ	-8543
ଲେଟ୍	-8544
ୟର୍କ	-8545
▁ଅହମ	-8546
▁ସଜା	-8547
ଆସୁଛି	-8548
ନ୍ଙ୍କ	-8549
▁ଆଣ୍ଠ	-8550
▁କୋଲକ	-8551
▁ସେତୁ	-8552
ବିଗ୍ରହ	-8553
▁ଦଶନ୍ଧ	-8554
▁ସଠିକ୍	-8555
ସାହିତ୍ୟ	-8556
ାବଧାନରେ	-8557
▁ଜଗମୋହନ	-8558
▁ଜୟନ୍ତୀ	-8559
▁ତିନିଥର	-8560
▁ଧରାଯାଏ	-8561
▁ବ୍ୟଙ୍ଗ	-8562
▁ସୁବ୍ରତ	-8563
▁ଅଷ୍ଟାଦଶ	-8564
▁ଗୁରୁବାର	-8565
▁ଗ୍ରାମୀଣ	-8566
▁ନେଇଥିବା	-8567
▁ପଡିଥିଲା	-8568
▁ଫିଲିପାଇ	-8569
▁ଗୁମ୍ଫାରେ	-8570
▁ନାହାନ୍ତି	-8571
▁ପ୍ରଶ୍ୱାସ	-8572
▁ବୁଝାଇଥାଏ	-8573
▁କିଲୋଗ୍ରାମ	-8574
▁ପୁଷ୍କରିଣୀ	-8575
▁ରାଜକୁମାରୀ	-8576
▁ସ୍ଥାନମାନଙ୍କରେ	-8577
br	-8578
les	-8579
ram	-8580
ଆମେ	-8581
କତା	-8582
ବିଂ	-8583
ଲସ୍	-8584
ୁଆଁ	-8585
େଇଁ	-8586
▁ଓଧ	-8587
▁ଯବ	-8588
ଗଙ୍ଗ	-8589
ତ୍ୱର	-8590
ମାଧବ	-8591
ଲିରେ	-8592
ସନାଲ	-8593
▁କୋଶ	-8594
▁ପେଲ	-8595
▁୧୨୦	-8596
ଗୋପାଳ	-8597
ତାମିଲ	-8598
ରୋକ୍ତ	-8599
▁into	-8600
▁ଅଣ୍ଡ	-8601
▁ଆୟୁଷ	-8602
▁ବେଶି	-8603
▁୧୯୨୭	-8604
ବ୍ଲ୍ୟୁ	-8605
ସାଗରରେ	-8606
ସାମରିକ	-8607
▁ଆଜ୍ମା	-8608
▁ଦଶହରା	-8609
▁ଲସିକା	-8610
କ୍ଷିପ୍ତ	-8611
ଳେନ୍ଦ୍ର	-8612
▁ଅଧିଷ୍ଠ	-8613
▁ପରିଣାମ	-8614
▁ମରାମତି	-8615
▁therapy	-8616
▁ଉପରୋକ୍ତ	-8617
▁କ୍ୟାମ୍ପ	-8618
▁ଗାୟତ୍ରୀ	-8619
▁ଦର୍ଶନୀୟ	-8620
▁ପାଉଛନ୍ତି	-8621
▁ପ୍ରେସିଡେ	-8622
▁କ୍ରିସ୍ମସ୍	-8623
▁ପ୍ରବର୍ତ୍ତ	-8624
୍ୱେ	-8625
▁sp	-8626
▁ପଖ	-8627
ited	-8628
କ୍ରେ	-8629
କ୍ଷୟ	-8630
ିୟାନ	-8631
୨୦୦୬	-8632
୨୦୦୭	-8633
▁ଏଫ୍	-8634
▁ଚିତ	-8635
▁ପଶି	-8636
ହୀନତା	-8637
▁ଡାକି	-8638
▁ବଚ୍ଚ	-8639
▁ଭାଷଣ	-8640
▁ସିରୋ	-8641
▁ୱେବ୍	-8642
ାଗାରରେ	-8643
▁ଏକାକୀ	-8644
▁ଚୁକ୍ତ	-8645
▁ବିଳାସ	-8646
▁ହୋଟେଲ	-8647
▁ଅଷ୍ଟମୀ	-8648
▁ତରକାରୀ	-8649
▁ପ୍ରିୟା	-8650
▁ଯୁଦ୍ଧର	-8651
▁ଶ୍ରାବଣ	-8652
▁ସମନ୍ୱୟ	-8653
▁ସିଷ୍ଟମ	-8654
▁ଆରମ୍ଭରୁ	-8655
▁ଗୁଡ଼ିକୁ	-8656
▁ଚିତ୍ରିତ	-8657
▁ଇମ୍ମ୍ୟୁନ	-8658
▁ସମାଜସେବୀ	-8659
▁ହୋଇଯାଇଛି	-8660
▁ଅସ୍ତ୍ରଶସ୍ତ୍ର	-8661
▁ବ୍ୟକ୍ତିବିଶେଷ	-8662
mon	-8663
କୁଦ	-8664
ୁଣୀ	-8665
ୟାଁ	-8666
▁||	-8667
▁୬୪	-8668
ଏହାର	-8669
ଲକ୍ଷ	-8670
୨୦୦୦	-8671
▁ଏଚ୍	-8672
▁ଗଣା	-8673
▁ଗାତ	-8674
▁ଗାଳ	-8675
▁ଜଣକ	-8676
▁ଜଳଭ	-8677
▁ମାଝ	-8678
idney	-8679
କନ୍ୟା	-8680
ନ୍ତଳା	-8681
ୋପ୍ରା	-8682
▁ଆଇନ୍	-8683
▁ଆବରଣ	-8684
▁ଆଶ୍ର	-8685
▁କୋର୍	-8686
▁ଟୀକା	-8687
▁ପଶ୍ଚ	-8688
▁ପୋଷଣ	-8689
▁ମେମୋ	-8690
▁ଯୁଗଳ	-8691
▁ସେରେ	-8692
▁ପ୍ରୋଟ	-8693
▁ରାଜୀବ	-8694
▁ସୋପାନ	-8695
▁ସୋସିଆ	-8696
ୀନାରାୟଣ	-8697
▁ପ୍ରସ୍ଥ	-8698
▁ବିଫଳତା	-8699
▁ମୌସୁମୀ	-8700
▁ସନ୍ଧ୍ୟ	-8701
▁ସିଦ୍ଧି	-8702
▁ହସ୍ତରେ	-8703
▁ଗୁମ୍ଫାର	-8704
▁ଜାତିସଂଘ	-8705
▁ପାଠପଢ଼ା	-8706
▁ବିବାଦୀୟ	-8707
▁ଅନୁଧ୍ୟାନ	-8708
▁ଆବିର୍ଭାବ	-8709
▁କ୍ୱାଣ୍ଟମ	-8710
▁ମହେନ୍ଦ୍ର	-8711
▁ସଙ୍ଗୀତରେ	-8712
▁କରିଦିଆଯାଏ	-8713
▁ମଧ୍ୟଭାଗରେ	-8714
▁ଇନଷ୍ଟିଚ୍ୟୁଟ	-8715
ଟୋନ	-8716
ରହି	-8717
ିକେ	-8718
▁ଧୁ	-8719
ସଙ୍କ	-8720
▁ଅବା	-8721
▁ଚାମ	-8722
▁ବାହ	-8723
▁ଶପଥ	-8724
ସିଲିନ	-8725
▁ଏଚଆଇ	-8726
▁ଘୋଡ଼	-8727
▁ତିରୁ	-8728
▁ପୂଜକ	-8729
▁ବାଟି	-8730
▁ବୁଣା	-8731
▁ରଣଜୀ	-8732
▁ଅନ୍ତର	-8733
▁ଅଲ୍ଲୀ	-8734
▁କାଣ୍ଡ	-8735
▁ପ୍ରବଣ	-8736
▁ଭିଏତନ	-8737
▁ସୁଭାଷ	-8738
▁ସ୍ରାବ	-8739
▁ହୃଦ୍ର	-8740
ୋଗ୍ରାଫି	-8741
▁କ୍ୟାଲେ	-8742
▁ମାମଲାର	-8743
▁ସମର୍ପଣ	-8744
▁କ୍ୱଚିତ୍	-8745
▁ଚିତ୍ରରେ	-8746
▁ସଫ୍ଟୱେର	-8747
▁ସମସ୍ୟାର	-8748
▁ସାନ୍ତାଳ	-8749
▁ଆକର୍ଷଣୀୟ	-8750
▁ଉତକ୍ଷେପଣ	-8751
▁ଶାସ୍ତ୍ରୀ	-8752
▁ପ୍ରଚେଷ୍ଟା	-8753
▁ଯୁଧିଷ୍ଠିର	-8754
▁ହୋଇସାରିଛି	-8755
▁ମହାପାତ୍ରଙ୍କ	-8756
.,	-8757
କାୟ	-8758
ଡ଼୍	-8759
ପାଗ	-8760
▁ଡ଼	-8761
▁ମଜ	-8762
ବିତ୍	-8763
ରାଲ୍	-8764
ାମାଳ	-8765
▁ଅରି	-8766
▁ଉମା	-8767
▁କୋଚ	-8768
▁ଜାଣ	-8769
▁ନିଦ	-8770
▁ମଠର	-8771
▁ମଶା	-8772
ବିହାର	-8773
▁ସର୍ପ	-8774
▁ସହରା	-8775
▁ସିଭି	-8776
▁୧୯୨୨	-8777
ମସିହାର	-8778
▁କାନୁନ	-8779
▁କିଙ୍ଗ	-8780
▁କ୍ରୋଧ	-8781
▁ଦ୍ରୌପ	-8782
▁ବିଦ୍ୱ	-8783
▁ରାନ୍ଧ	-8784
▁ଷ୍ଟାର	-8785
▁ଶିକାରୀ	-8786
▁ଶୀର୍ଷକ	-8787
▁ଶ୍ରଦ୍ଧ	-8788
▁ସେନାରେ	-8789
▁୨୦୦୧ରେ	-8790
▁ନୃତ୍ୟରେ	-8791
▁ସଂଖ୍ୟାର	-8792
▁ମେରୁଦଣ୍ଡ	-8793
▁ପରମ୍ପରାରେ	-8794
▁ପର୍ବତମାଳା	-8795
▁ବିଷକ୍ରିୟା	-8796
▁ଭବିଷ୍ୟତରେ	-8797
▁ସଂସ୍କରଣରେ	-8798
▁ଅନୁପ୍ରାଣିତ	-8799
▁ଆଲୁମିନିୟମ୍	-8800
▁ଅନ୍ତର୍ଜାତିକ	-8801
▁ଆର୍ଥ୍ରାଇଟିସ	-8802
▁ସାମ୍ବିଧାନିକ	-8803
ID	-8804
ଅଣ	-8805
୦୭	-8806
row	-8807
ଜାଗ	-8808
ଷମା	-8809
▁ହସ	-8810
ଅନ୍ତ	-8811
ପଟ୍ଟ	-8812
ମିକ୍	-8813
୨୦୧୨	-8814
▁ଏଲ୍	-8815
▁ନବର	-8816
ystem	-8817
ଧୁନିକ	-8818
ଲିସିସ	-8819
ଷ୍ଟେର	-8820
▁ଆକାଉ	-8821
▁ଏନଏଚ	-8822
▁କସ୍ତ	-8823
▁ତଟରେ	-8824
▁ସୋଡି	-8825
ଦେବାକୁ	-8826
ର୍ଣ୍ଣି	-8827
▁ଉପଭୋଗ	-8828
▁କଞ୍ଚା	-8829
▁ଗ୍ରୁପ	-8830
▁ଜନ୍ତୁ	-8831
▁ବ୍ଳକର	-8832
▁ଅଚ୍ୟୁତ	-8833
▁କଥାବାର	-8834
▁ଛେତ୍ରୀ	-8835
▁ଜଳସେଚନ	-8836
▁ଲକ୍ଷରୁ	-8837
▁ଲଗାଯାଏ	-8838
▁ଲୋକନାଥ	-8839
▁ସଂକଳ୍ପ	-8840
▁ସୁଭଦ୍ର	-8841
ଯାଇପାରିବ	-8842
▁ଏଜେନ୍ସି	-8843
▁କହୁଥିଲେ	-8844
▁ଟେଲିସ୍କ	-8845
▁ଡକ୍ଟରେଟ	-8846
▁ଦ୍ରୌପଦୀ	-8847
▁ବୁଝାମଣା	-8848
▁ବ୍ରାଣ୍ଡ	-8849
▁ସାପ୍ତାହ	-8850
▁ଅତିବାହିତ	-8851
▁କେନ୍ଦ୍ରର	-8852
▁ପ୍ରାପ୍ତି	-8853
▁ଯେଉଁଥିରୁ	-8854
▁ସଂପ୍ରଦାୟ	-8855
▁ପ୍ରଶିକ୍ଷକ	-8856
▁ବିଦ୍ୟାଳୟର	-8857
▁ଇଣ୍ଟରନ୍ୟାସ	-8858
▁ମହିଳାମାନଙ୍କର	-8859
ae	-8860
ଥୋ	-8861
ଭୌ	-8862
ୌର	-8863
୦୯	-8864
oma	-8865
ଅନ୍	-8866
ଚେର	-8867
ତିର	-8868
ବେର	-8869
▁ଦୟ	-8870
▁ଭୃ	-8871
ନିକ୍	-8872
ପ୍ପା	-8873
ବାଳା	-8874
ବାହନ	-8875
ାରାମ	-8876
▁ଅଜୟ	-8877
▁ତୈଳ	-8878
▁ପପୁ	-8879
▁ପିଇ	-8880
▁ଫାଲ	-8881
▁ମନି	-8882
▁ଲିଗ	-8883
▁ଶୋକ	-8884
ଦ୍ଦିନ	-8885
▁କାନୁ	-8886
▁୧୯୩୩	-8887
▁୫୦ରୁ	-8888
▁ଅଭିବୃ	-8889
▁ଉପହାର	-8890
▁କ୍ୟାନ	-8891
▁କ୍ୟାମ	-8892
▁ପିଣ୍ଡ	-8893
▁ମଣିଷର	-8894
▁ଶାରଳା	-8895
▁ସୋଡ଼ି	-8896
▁ଟଙ୍କାର	-8897
▁ବସ୍ତୁର	-8898
▁ବିସ୍ଥା	-8899
▁ମର୍ଦ୍ଦ	-8900
▁ଲାଗିଛି	-8901
▁କର୍ଟିକୋ	-8902
▁ନଥିବାରୁ	-8903
▁ନିଅନ୍ତି	-8904
▁ସମ୍ଭବତଃ	-8905
▁ୟୁନିଭର୍	-8906
▁ପର୍ବତମାଳ	-8907
▁ଦାୟିତ୍ୱରେ	-8908
▁ବାର୍ସେଲୋନା	-8909
NA	-8910
na	-8911
oh	-8912
ୋଭ	-8913
ୀନା	-8914
େକର	-8915
କ୍ତା	-8916
କ୍ସ୍	-8917
ଦ୍ରି	-8918
ବ୍ରି	-8919
ଯୋଗୁ	-8920
ସ୍ନା	-8921
ିରହି	-8922
▁ନୃତ	-8923
▁ବବୁ	-8924
▁ରିଆ	-8925
▁ଲୁଚ	-8926
▁ସିଲ	-8927
ଷ୍ଟିତ	-8928
ାରାଣୀ	-8929
▁pain	-8930
▁ଅବହେ	-8931
▁ଚ୍ୟା	-8932
▁ପୋତି	-8933
▁ମୁଦୁ	-8934
▁ରୋମା	-8935
▁ଲଢ଼ି	-8936
▁୧୯୧୯	-8937
ର୍ଣ୍ଣା	-8938
▁ଅପମାନ	-8939
▁ଜେଲରେ	-8940
▁ପାଦରେ	-8941
▁ପୂଜିତ	-8942
▁ବେଢ଼ା	-8943
▁ସ୍ପାଇ	-8944
ressure	-8945
ବର୍ଦ୍ଧନ	-8946
୍ୟାନନ୍ଦ	-8947
▁ଅର୍ଚ୍ଚ	-8948
▁ଦାମୋଦର	-8949
▁ଦିଆଯିବ	-8950
▁ଦୁର୍ଗର	-8951
▁ମହାରଣା	-8952
▁ଶିରାରେ	-8953
ାଙ୍କଠାରୁ	-8954
▁ସ୍ପନ୍ଦନ	-8955
▁ଏକାଡ଼େମୀ	-8956
▁ନିଦ୍ରାଳୁ	-8957
▁ଶ୍ୱାସନଳୀ	-8958
▁ଚାହୁଁଥିଲେ	-8959
▁ବିବେକାନନ୍ଦ	-8960
▁ପିଲାମାନଙ୍କର	-8961
▁ମହାବିଦ୍ୟାଳୟର	-8962
▁ଶ୍ରୀକୃଷ୍ଣଙ୍କ	-8963
▁ପୂର୍ଣ୍ଣଚନ୍ଦ୍ର	-8964
sti	-8965
ଠାର	-8966
ତିଆ	-8967
ପଡା	-8968
ରଣୀ	-8969
ଷାର	-8970
ୁରି	-8971
୧୦୦	-8972
▁ଆଓ	-8973
▁ଔର	-8974
▁ନଜ	-8975
▁୬୭	-8976
....	-8977
ଶୈଳୀ	-8978
ଷ୍ଟ୍	-8979
ସାହି	-8980
ାର୍ଗ	-8981
୍ୱିତ	-8982
୨୦୧୩	-8983
▁ଆଭି	-8984
▁ଧୂମ	-8985
▁ଲୁହ	-8986
▁ୱାଇ	-8987
କବିତା	-8988
କୁଣ୍ଡ	-8989
ଚାଳନା	-8990
ଶ୍ୟାମ	-8991
ସ୍ମାର	-8992
▁ଆଜ୍ଞ	-8993
▁ଆବାସ	-8994
▁ଚାଳକ	-8995
▁ଦିବା	-8996
▁ପତିତ	-8997
▁ବ୍ୟୟ	-8998
▁ଏଣ୍ଡୋ	-8999
▁ପତ୍ତନ	-9000
▁ବାଇଗଣ	-9001
▁ବୈଦ୍ୟ	-9002
▁ମିଶେଇ	-9003
▁ସୋରିଷ	-9004
▁ବ୍ୟାଧି	-9005
▁ମଣ୍ଡେଲ	-9006
▁ଦୁନିଆରେ	-9007
▁ପ୍ରକାରେ	-9008
▁ବୈକୁଣ୍ଠ	-9009
▁ସମ୍ଭବପର	-9010
▁ଆସୁଛନ୍ତି	-9011
▁ଏମାନଙ୍କର	-9012
▁ଦ୍ୱନ୍ଦ୍ୱ	-9013
▁ଧୂମ୍ରପାନ	-9014
▁ମୁଖ୍ୟାଳୟ	-9015
▁ପ୍ରାଧାନ୍ୟ	-9016
▁ରହିଥିବାରୁ	-9017
▁ଉତ୍ତୀର୍ଣ୍ଣ	-9018
▁ଉପସ୍ଥାପିକା	-9019
▁ବ୍ୟବସ୍ଥାରେ	-9020
▁ତତ୍ତ୍ୱାବଧାନରେ	-9021
ଟସ	-9022
ric	-9023
ute	-9024
ବାଈ	-9025
ଭାଜ	-9026
ଭିକ	-9027
ଳାଶ	-9028
▁ଓମ	-9029
▁୫୬	-9030
▁୬୬	-9031
eric	-9032
ଡ୍ରେ	-9033
ବ୍ଲୁ	-9034
ିଆଲ୍	-9035
ିକିଆ	-9036
୨୦୦୩	-9037
୨୦୦୫	-9038
▁ଉପୁ	-9039
▁କୌର	-9040
▁ଝୁଲ	-9041
▁ନ୍ୟ	-9042
▁ଭୋକ	-9043
▁ସୋର	-9044
▁୨ରୁ	-9045
liver	-9046
ଞ୍ଜଳି	-9047
ବନ୍ଦର	-9048
ବ୍ୟସା	-9049
ଭିଷେକ	-9050
ମାଙ୍ଗ	-9051
ମିକ୍ସ	-9052
▁ଇନ୍ଦ	-9053
▁କ୍ଷୁ	-9054
▁ଚାଷୀ	-9055
▁ଜନବସ	-9056
▁ପରଦା	-9057
▁ବାଲା	-9058
▁ରୁଚି	-9059
▁ହିଂସ	-9060
▁ଅନୁସୂ	-9061
▁ଆଇନରେ	-9062
▁କାମନା	-9063
▁କେନାଲ	-9064
▁ଗାଇବା	-9065
▁ଗ୍ଲୁକ	-9066
▁ନିଜାମ	-9067
▁ପ୍ରଜା	-9068
▁ବୈଦେଶ	-9069
▁ମସ୍ତକ	-9070
▁ମେସିନ	-9071
▁ଆଗ୍ନେୟ	-9072
▁କଲାପରେ	-9073
▁ଚିତ୍ରଣ	-9074
▁ପରିବାସ	-9075
▁ପୁଞ୍ଜି	-9076
▁ପ୍ରଜାପ	-9077
▁ମାନବିକ	-9078
▁ସମାହାର	-9079
▁ଘୂର୍ଣ୍ଣ	-9080
▁ଲାଗିଥାଏ	-9081
▁ଶିବଙ୍କର	-9082
▁ସୁଶାନ୍ତ	-9083
▁ପାର୍ଟିରେ	-9084
▁ହରିଚନ୍ଦନ	-9085
▁କହିଥାନ୍ତି	-9086
▁ଖ୍ରୀଷ୍ଟିଆନ	-9087
▁ପ୍ରତିଯୋଗୀତ	-9088
ax	-9089
▁0	-9090
ati	-9091
ung	-9092
ଟେର	-9093
ପିନ	-9094
ବ୍ଦ	-9095
୍ୱୀ	-9096
ୱାଇ	-9097
▁''	-9098
▁ଖଟ	-9099
▁ଲଢ	-9100
ated	-9101
ଫ୍ଲୁ	-9102
ର୍ଗା	-9103
ହାସର	-9104
୧୯୯୯	-9105
୨୦୦୪	-9106
▁ଏଠି	-9107
ନ୍ସନ୍	-9108
ାନ୍ତୁ	-9109
▁କଣିକ	-9110
▁କିଣି	-9111
▁ପିଆଜ	-9112
▁ସାଇନ	-9113
▁ହଠାତ	-9114
▁୧୯୨୧	-9115
▁ଅରୁଣା	-9116
▁କାନ୍ତ	-9117
▁ଗାଳ୍ପ	-9118
▁ଜଷ୍ଟି	-9119
▁ଦକ୍ଷି	-9120
▁ବର୍ଗର	-9121
▁ସୌଭାଗ	-9122
▁ସ୍କ୍ର	-9123
ର୍ଦ୍ଦେଶ	-9124
▁ତୁର୍କୀ	-9125
▁ଦିବସରେ	-9126
▁ପଡ଼ିବା	-9127
▁ମିଗ୍ରା	-9128
▁ଆଜିକାଲି	-9129
▁ଆସୁଥିଲେ	-9130
▁ଖୁଣ୍ଟିଆ	-9131
▁ନିରଞ୍ଜନ	-9132
▁ସତ୍ୟଜିତ	-9133
▁ଅଧିନିୟମର	-9134
▁ନିଆଯାଇଛି	-9135
▁ପ୍ରଖ୍ୟାତ	-9136
▁ସମୁଦ୍ରରେ	-9137
▁ହରେକୃଷ୍ଣ	-9138
▁ଆତଙ୍କବାଦୀ	-9139
▁ନିର୍ଭରଶୀଳ	-9140
▁ମହାପ୍ରସାଦ	-9141
▁ପ୍ରତିବନ୍ଧକ	-9142
▁ପାକିସ୍ତାନରେ	-9143
▁ଓଡ଼ିଆଚଳଚ୍ଚିତ୍ର	-9144
ual	-9145
ପ୍ସ	-9146
ରୀଣ	-9147
ୟସ୍	-9148
▁ଛକ	-9149
tics	-9150
ପ୍ରସ	-9151
▁କବର	-9152
▁ଖରା	-9153
▁ଗୋଡ	-9154
uscle	-9155
ଚୁମ୍ବ	-9156
▁ଅଭିମ	-9157
▁ଜାଗା	-9158
▁ନମ୍ର	-9159
▁ପଦରେ	-9160
▁ଫିକା	-9161
▁ମସଜି	-9162
▁ମାନ୍	-9163
ଗୋଷ୍ଠୀ	-9164
ଗ୍ରନ୍ଥ	-9165
ଙ୍ଗପୁର	-9166
▁ଆଖ୍ୟା	-9167
▁ଉପନଦୀ	-9168
▁କେନ୍ଦ	-9169
▁କ୍ଲବ୍	-9170
▁ଘଟଣାର	-9171
▁ପାର୍ବ	-9172
▁ବୃହତ୍	-9173
▁ମହତ୍ୱ	-9174
▁ଜାଗ୍ରତ	-9175
▁ପାରିଲେ	-9176
▁ପୁଷ୍ପା	-9177
▁ପୂର୍ବା	-9178
▁ବିଲିୟନ	-9179
▁ରାଜସ୍ୱ	-9180
▁ସଜ୍ଜିତ	-9181
▁ଅଗ୍ରୱାଲ	-9182
▁ଦ୍ୱାଦଶୀ	-9183
▁ବିରାଡ଼ି	-9184
▁ବୁଲାଇବା	-9185
▁pressure	-9186
▁ଏକାଡେମୀର	-9187
▁ବସ୍ତୁତ୍ୱ	-9188
▁ସିଙ୍ଗାପୁର	-9189
▁ଟେକ୍ନୋଲୋଜି	-9190
▁ନିଆଯାଇଥିଲା	-9191
▁ଉଲ୍ଲେଖଯୋଗ୍ୟ	-9192
▁ରୋଗମାନଙ୍କରେ	-9193
ଜଲ	-9194
ୃକ	-9195
ଚୀନ	-9196
ଜଗତ	-9197
ଜୋନ	-9198
ଫେଟ	-9199
ବାଳ	-9200
ସିଏ	-9201
ୋଦୟ	-9202
ୋମି	-9203
▁16	-9204
▁ne	-9205
▁୫୮	-9206
କେତନ	-9207
ଙ୍ଗଲ	-9208
ବ୍ଲା	-9209
ମୋଚନ	-9210
ସ୍ୱତ	-9211
ହେଲା	-9212
ାପନା	-9213
ିକରି	-9214
▁196	-9215
▁କାଦ	-9216
▁କାବ	-9217
▁ଫ୍ଲ	-9218
▁ଶ୍ଳ	-9219
▁ସିନ	-9220
▁ହୋମ	-9221
atory	-9222
ergic	-9223
ଢ଼ିବା	-9224
ନୃତ୍ୟ	-9225
ମାର୍ଗ	-9226
େକ୍ଟର	-9227
▁ଆଖିର	-9228
▁ଉଦାର	-9229
▁ଟାଇଟ	-9230
▁ତେଲେ	-9231
▁ଦଶରଥ	-9232
▁ପଛକୁ	-9233
▁ହୃତ୍	-9234
▁ଅକ୍ସି	-9235
▁ଆଣ୍ଠୁ	-9236
▁ଗୋଲରେ	-9237
▁ବିଦାୟ	-9238
▁ଭଟ୍ଟା	-9239
▁ମାମୁଁ	-9240
▁ଶାସିତ	-9241
▁ସଚ୍ଚି	-9242
▁କରିଥଲେ	-9243
▁ମୁଣ୍ଡା	-9244
▁ସପ୍ତମୀ	-9245
▁ହିମାଚଳ	-9246
▁୨୦୦୨ରେ	-9247
▁୨୦୨୦ରେ	-9248
▁ବିଚ୍ଛେଦ	-9249
▁ବୈଦେଶିକ	-9250
▁ରାମାୟଣର	-9251
▁ସୁପ୍ରିମ	-9252
▁କୃଷ୍ଣଙ୍କ	-9253
▁ବିଦ୍ୟାଧର	-9254
▁ମଧ୍ୟାହ୍ନ	-9255
▁ସମ୍ପୃକ୍ତ	-9256
▁ଶତାବ୍ଦୀରୁ	-9257
▁ଦେଖାଯାଇଥାଏ	-9258
▁ନିତ୍ୟାନନ୍ଦ	-9259
▁କ୍ଷତିଗ୍ରସ୍ତ	-9260
▁ମାନଙ୍କଦ୍ୱାରା	-9261
ea	-9262
eg	-9263
ଞ୍ଛ	-9264
▁11	-9265
▁କଂ	-9266
▁ପଂ	-9267
▁ଫୃ	-9268
▁୭୩	-9269
ତାବକ	-9270
ବନ୍ଦ	-9271
୨୦୦୨	-9272
▁ଗୋଳ	-9273
▁ଟନ୍	-9274
▁ଲାଳ	-9275
▁ଶକୁ	-9276
▁ଶାଖ	-9277
▁୩ରୁ	-9278
▁୫ରୁ	-9279
▁କୃପା	-9280
▁ନାତି	-9281
▁ପ୍ରଡ	-9282
▁ପ୍ରତ	-9283
▁ରଞ୍ଜ	-9284
▁ସଂଘର	-9285
▁ହାନୀ	-9286
ପାରିଲେ	-9287
▁ଆତ୍ମା	-9288
▁ଏଥିସହ	-9289
▁କାହାର	-9290
▁ପୋଲିଓ	-9291
▁ବଂଶଧର	-9292
▁ବିଷୁବ	-9293
▁ଯାଉଛି	-9294
▁୧୦୦ରୁ	-9295
▁ମୁର୍ମୁ	-9296
▁ସୁଗନ୍ଧ	-9297
▁ସୋଭିଏତ	-9298
▁ଔପନ୍ୟାସ	-9299
▁ଧ୍ରୁବୀୟ	-9300
▁ପ୍ରାଙ୍ଗ	-9301
▁ବଢ଼ିଯାଏ	-9302
▁ଆନନ୍ଦପୁର	-9303
▁ଉତ୍ତେଜନା	-9304
▁କାଳକ୍ରମେ	-9305
▁ଥ୍ରୋମ୍ବୋ	-9306
▁ବାଂଲାଦେଶ	-9307
▁ବାସ୍ତବରେ	-9308
▁ସଂକ୍ରାମକ	-9309
▁ଚିକିତ୍ସାର	-9310
▁ଜନ୍ମସ୍ଥାନ	-9311
▁ଦାରିଦ୍ର୍ୟ	-9312
▁ପରିକଳ୍ପନା	-9313
▁ଲୋକସଂଖ୍ୟା	-9314
▁ବିଦ୍ୟାଳୟରୁ	-9315
Ch	-9316
ou	-9317
ଭଲ	-9318
bio	-9319
und	-9320
ଟେକ	-9321
ଥିଆ	-9322
▁୬୮	-9323
ଜନିତ	-9324
ଜନୀନ	-9325
ଥୁରା	-9326
ବିଜୁ	-9327
୍ୟାକ	-9328
▁ଫତେ	-9329
ସ୍ଟିକ	-9330
ୃପକ୍ଷ	-9331
▁ଗୀତର	-9332
▁ଚୋରି	-9333
▁ଥାନା	-9334
▁ଦେଲା	-9335
▁ପୂରା	-9336
▁ରପ୍ତ	-9337
▁୧୯୦୫	-9338
ପୂର୍ବକ	-9339
ଯିବାକୁ	-9340
▁ଅବତରଣ	-9341
▁ଅସୀମା	-9342
▁କ୍ରୋମ	-9343
▁ଫର୍ମୁ	-9344
▁ବଢ଼ାଇ	-9345
▁ଭୂଷିତ	-9346
▁ମଲ୍ଟି	-9347
▁ସୁବାସ	-9348
▁ହୁଏନି	-9349
▁ଏଚଆଇଭି	-9350
▁କାମ୍ବୋ	-9351
▁ଝଙ୍କାର	-9352
▁ପୂର୍ବର	-9353
▁ମହର୍ଷି	-9354
▁ରେଳବାଇ	-9355
▁ଲକ୍ଷ୍ନ	-9356
▁୧୯୯୬ରେ	-9357
▁ଡିଜାଇନ୍	-9358
▁ବାରିପଦା	-9359
▁ବ୍ରିଟେନ	-9360
▁ସମ୍ପାଦନ	-9361
▁ସହରଠାରୁ	-9362
▁ସ୍କୁଲରୁ	-9363
▁ତୃତୀୟାଂଶ	-9364
▁ପରମ୍ପରାର	-9365
▁କିଲୋମିଟର୍	-9366
▁କ୍ରାନ୍ତୀୟ	-9367
▁ଚାରିପାଖରେ	-9368
▁ଠାକୁରଙ୍କୁ	-9369
▁ଶୁକ୍ଳପକ୍ଷ	-9370
▁ଶ୍ରୀକାନ୍ତ	-9371
▁ସାପ୍ତାହିକ	-9372
▁ଅର୍ଥନୀତିରେ	-9373
ok	-9374
୍ବ	-9375
ଗୁନ	-9376
ଭୋଜ	-9377
ମିଓ	-9378
ଶତଃ	-9379
ସେଟ	-9380
▁ଗଦ	-9381
▁ଚର	-9382
▁ଜର	-9383
▁୫୯	-9384
ଫଳରେ	-9385
ବେଟ୍	-9386
ମଞ୍ଚ	-9387
ରୋଧୀ	-9388
୧୯୯୪	-9389
▁ଝାଳ	-9390
▁ଦୁଧ	-9391
▁ଫେର	-9392
▁ବିଚ	-9393
▁ଲାବ	-9394
ବିଭାଗ	-9395
ମାନ୍ତ	-9396
ର୍ଜିକ	-9397
ଲୁପ୍ତ	-9398
ଷିଦ୍ଧ	-9399
ାର୍ଥେ	-9400
▁ଅନ୍ୱ	-9401
▁ଖେଳର	-9402
▁ଛୁଟି	-9403
▁ଦୋଷୀ	-9404
▁ନାସା	-9405
▁ବଣ୍ଡ	-9406
▁ବାଦକ	-9407
▁ମୁହା	-9408
▁ସମିତ	-9409
▁ହେମୋ	-9410
ଟ୍ରିକ୍	-9411
▁India	-9412
▁କାଳୀନ	-9413
▁ତିବ୍ୱ	-9414
▁ପ୍ରାଇ	-9415
▁ବାମ୍ଫ	-9416
▁ଭାଗ୍ୟ	-9417
▁ରାତ୍ର	-9418
▁ରାଶିର	-9419
▁ଲିଙ୍କ	-9420
ଚ୍ଛାକୃତ	-9421
ବ୍ୟସାଚୀ	-9422
ମେଣ୍ଟରେ	-9423
ଷ୍ଟାଇନ୍	-9424
▁କାରବାର	-9425
▁ଗଡ଼ଜାତ	-9426
▁ଗ୍ରୁପ୍	-9427
▁ଥଣ୍ଟିଆ	-9428
▁ପ୍ରଭାତ	-9429
▁ବଂଶାନୁ	-9430
▁ମିଳିବା	-9431
▁ସେତିକି	-9432
▁ଅନୁଭୂତି	-9433
▁ଆଭ୍ୟନ୍ତ	-9434
▁ପାତ୍ରରେ	-9435
ସ୍ୱତନ୍ତ୍ର	-9436
▁ଉତ୍କୃଷ୍ଟ	-9437
▁ଦୃଷ୍ଟିରେ	-9438
▁ପ୍ରତିପାଦ	-9439
▁ଶ୍ରୀଦେବୀ	-9440
▁ସଙ୍ଗୀତଜ୍ଞ	-9441
▁କର୍ଣ୍ଣାଟକର	-9442
▁ସ୍ୱୟଂଶାସିତ	-9443
▁ମଧ୍ୟପ୍ରଦେଶର	-9444
▁କାର୍ଯ୍ୟକ୍ରମର	-9445
ଶହ	-9446
ମେଟ	-9447
ମୟୀ	-9448
ାଗୋ	-9449
କାଶେ	-9450
ଡିବା	-9451
ପାଲି	-9452
ବଙ୍କ	-9453
ଲାଇଟ	-9454
ୋଲାଇ	-9455
୨୦୧୪	-9456
▁(),	-9457
▁ଗେଟ	-9458
▁ଥିଓ	-9459
▁ମ୍ୟ	-9460
acter	-9461
ଉଥିଲା	-9462
କାଣ୍ଡ	-9463
ଭୂମିର	-9464
ମୁଣ୍ଡ	-9465
▁vein	-9466
▁ଦ୍ୱୟ	-9467
▁ପୋଷକ	-9468
▁ବାମନ	-9469
▁ଭାରି	-9470
▁ରାଇଫ	-9471
ଯାତ୍ରୀ	-9472
▁ଅପହରଣ	-9473
▁ଅଲଟ୍ର	-9474
▁ଗ୍ରାହ	-9475
▁ଜଣଙ୍କ	-9476
▁ତହସିଲ	-9477
▁ପିଇବା	-9478
▁ବବୁନ୍	-9479
▁ବିଚରଣ	-9480
▁ମିଳିବ	-9481
▁ରେଳପଥ	-9482
▁ଶ୍ଳୋକ	-9483
▁ଏହାଛଡା	-9484
▁ଏହିସବୁ	-9485
▁ଚଳନ୍ତି	-9486
▁ପାଇଥାଏ	-9487
▁ମୋବାଇଲ	-9488
▁ଲୋକକଥା	-9489
▁ସଙ୍ଗଠନ	-9490
ନାହାନ୍ତି	-9491
▁କ୍ୟାବିନ	-9492
▁ଜଗବନ୍ଧୁ	-9493
▁ଜାତୀୟତା	-9494
▁ନିରନ୍ତର	-9495
▁ପ୍ରେକ୍ଷ	-9496
▁ସଙ୍କୋଚନ	-9497
▁ସଶସ୍ତ୍ର	-9498
▁ସୂକ୍ଷ୍ମ	-9499
injection	-9500
ପାର୍ଶ୍ୱରେ	-9501
▁ଗ୍ରନ୍ଥରେ	-9502
▁ଗ୍ୟାଲେରି	-9503
▁ମହାଭାରତର	-9504
▁ମାର୍କଣ୍ଡ	-9505
▁ଅନ୍ତରୀକ୍ଷ	-9506
▁ନାଗାର୍ଜୁନ	-9507
▁ପ୍ରିୟଦର୍ଶ	-9508
▁ସ୍ତନ୍ୟପାୟୀ	-9509
50	-9510
ଷଦ	-9511
rop	-9512
ଉଠି	-9513
ଣିଆ	-9514
ଥବା	-9515
ଲିପ	-9516
▁al	-9517
▁ଗମ	-9518
▁୯୫	-9519
ଭାରେ	-9520
ଶାନ୍	-9521
ହୁଦୀ	-9522
ାଙ୍ଗ	-9523
▁ଅଜି	-9524
▁ଅପୂ	-9525
▁ଘଟଣ	-9526
▁ବବି	-9527
ଥାନ୍ତ	-9528
ଦୁତିକ	-9529
▁ଏକଥା	-9530
▁ଏଯାବ	-9531
▁କପାଳ	-9532
▁ନାହି	-9533
▁ପଇସା	-9534
▁ମାଝୀ	-9535
▁ଶ୍ରମ	-9536
▁ସୂଚକ	-9537
▁ହୋତା	-9538
▁trans	-9539
▁ଆଣବିକ	-9540
▁କୋଭିଡ	-9541
▁ତ୍ରିକ	-9542
▁ପ୍ରଣବ	-9543
▁ବିଲେଇ	-9544
▁ମଥୁରା	-9545
▁ମେଚରେ	-9546
ବିଶ୍ୱାସ	-9547
▁ଈରାବତୀ	-9548
▁ମୁତାବକ	-9549
▁ହୃଦଘାତ	-9550
▁ଇତିହାସର	-9551
▁ଚାନ୍ଦ୍ର	-9552
▁ଫର୍ମୁଲା	-9553
▁ମୁକୁନ୍ଦ	-9554
▁ସିନ୍ଦୂର	-9555
▁ସୋଡ଼ିଅମ	-9556
▁ବନ୍ଦାପନା	-9557
▁ବୃତ୍ତିରେ	-9558
▁ଯାତ୍ରାରେ	-9559
▁ଉଚ୍ଚଶିକ୍ଷା	-9560
aw	-9561
dr	-9562
ie	-9563
କମ	-9564
are	-9565
ood	-9566
ରିଓ	-9567
ଲେସ	-9568
ସିର	-9569
୍ତୁ	-9570
ୱେଲ	-9571
▁କଟ	-9572
▁ସୃ	-9573
ance	-9574
ଅନ୍ୟ	-9575
ଗୁଡା	-9576
ଞ୍ଜୟ	-9577
ରିନ୍	-9578
ିଆସି	-9579
୍ଲିକ	-9580
▁କବକ	-9581
▁ଜୁଆ	-9582
▁ଦରି	-9583
▁ବସ୍	-9584
▁ଭରା	-9585
ଚାଳିତ	-9586
ରେଷ୍ଟ	-9587
▁ଏକଦି	-9588
▁କାମି	-9589
▁କୋଡ଼	-9590
▁ନିହତ	-9591
▁ପବ୍ଲ	-9592
▁ଭ୍ରମ	-9593
▁ମାହି	-9594
▁ସାମୁ	-9595
▁୧୯୧୮	-9596
▁ଗରୁଡ଼	-9597
▁ଜମ୍ମୁ	-9598
▁ସନ୍ୟା	-9599
▁ସୁନୀଲ	-9600
▁ସୁପରି	-9601
▁ହାତକୁ	-9602
▁ଏକ୍ସଚେ	-9603
▁ଏଜେଣ୍ଟ	-9604
▁ଚତୁର୍ଭ	-9605
▁ପରିମିତ	-9606
▁ପାଣ୍ଡେ	-9607
▁ବାହାଘର	-9608
▁ବିଜେପି	-9609
▁ବିନାୟକ	-9610
▁ମଞ୍ଚରେ	-9611
▁ମନମୋହନ	-9612
▁ରଙ୍ଗୀନ	-9613
▁ଲାଙ୍ଗୁ	-9614
▁୧୯୯୮ରେ	-9615
ଖେମୁଣ୍ଡି	-9616
▁ପାଉଥିବା	-9617
▁ବିଦ୍ୱାନ	-9618
▁ଶାନ୍ତନୁ	-9619
▁ପରିଶେଷରେ	-9620
▁ରଖିଛନ୍ତି	-9621
▁ଅପବ୍ୟବହାର	-9622
▁କର୍ତ୍ତବ୍ୟ	-9623
▁ସଂକ୍ଷିପ୍ତ	-9624
▁ସ୍ଟ୍ରେପ୍ଟ	-9625
▁ଡାକ୍ତରଖାନା	-9626
▁ଲୋକମାନଙ୍କର	-9627
▁ଅର୍ଥଶାସ୍ତ୍ର	-9628
▁ଭୁବନେଶ୍ୱରଠାରେ	-9629
II	-9630
ye	-9631
bre	-9632
ien	-9633
ଦୋଷ	-9634
ଭେଟ	-9635
lect	-9636
ଗଞ୍ଜ	-9637
ନ୍ଥୀ	-9638
ୋହିତ	-9639
୍ଚିତ	-9640
୧୯୯୨	-9641
▁ଚେର	-9642
▁ଜୋହ	-9643
▁ପଟର	-9644
▁ମରଣ	-9645
▁ସକଳ	-9646
ପ୍ରଭା	-9647
ଭାଜପା	-9648
ମୁହାଁ	-9649
ଶିଳ୍ପ	-9650
ାପନ୍ନ	-9651
ାରିଣୀ	-9652
▁ଆଙ୍ଗ	-9653
▁କପିଳ	-9654
▁କ୍ରା	-9655
▁ଚାହି	-9656
▁ଜହ୍ନ	-9657
▁ପାଳି	-9658
▁ରକ୍ଷ	-9659
▁ସିକ୍	-9660
▁୧୯୧୨	-9661
ସ୍ତରୀୟ	-9662
▁ଆଗାମୀ	-9663
▁ଆଲକୋହ	-9664
▁କୋଠରୀ	-9665
▁ଡାଏବେ	-9666
▁ପଡ଼ିବ	-9667
▁ପ୍ରଭା	-9668
▁ବାଟରେ	-9669
ାମୁଣ୍ଡା	-9670
▁ଅଭିଷେକ	-9671
▁କବିତାର	-9672
▁ତାହେଲେ	-9673
▁ତୃତୀୟା	-9674
▁ବିଜୁଳି	-9675
▁ବିନିମୟ	-9676
▁ମହାନଗର	-9677
▁ଯୋଦ୍ଧା	-9678
କାରାତ୍ମକ	-9679
ାର୍ଦ୍ଧରେ	-9680
▁ଅପସ୍ମାର	-9681
▁ପାଇବାରେ	-9682
▁କ୍ରିଷ୍ଣା	-9683
▁ପରିଦର୍ଶନ	-9684
▁ବେସାମରିକ	-9685
▁ରିସର୍ଚ୍ଚ	-9686
▁ସପ୍ତାହରେ	-9687
▁ଅଭିବୃଦ୍ଧି	-9688
▁ଶିକ୍ଷାବିତ	-9689
▁ମହାଲକ୍ଷ୍ମୀ	-9690
▁ସୂର୍ଯ୍ୟଙ୍କ	-9691
▁କାର୍ଯ୍ୟନିର୍	-9692
▁ଅଲଟ୍ରାସାଉଣ୍ଡ	-9693
▁ସ୍ୱୀକୃତିପ୍ରାପ୍ତ	-9694
ଉଟ	-9695
ଦମ	-9696
ail	-9697
ose	-9698
ros	-9699
ଉରା	-9700
ଡିର	-9701
ର୍ନ	-9702
ଶାନ	-9703
ଶୋଷ	-9704
ୀଶୁ	-9705
▁।।	-9706
▁ଥୋ	-9707
ଟିଭି	-9708
ଦ୍ୱୟ	-9709
ୀନତା	-9710
▁କାଗ	-9711
▁ଗମନ	-9712
▁ଚଳନ	-9713
▁ବଜା	-9714
▁ଭେନ	-9715
▁ମେଲ	-9716
▁ରଚୟ	-9717
▁ରମଣ	-9718
▁ଉପରୁ	-9719
▁ଚୀନୀ	-9720
▁ଟେରା	-9721
▁ଡିପ୍	-9722
▁ଧାତବ	-9723
▁ଭଣ୍ଡ	-9724
ଅଛନ୍ତି	-9725
▁ଇନସୁଲ	-9726
▁ଖ୍ୟାତ	-9727
▁ବିନାଶ	-9728
▁ମହତାବ	-9729
▁ଲଢ଼େଇ	-9730
▁ସମୂହର	-9731
▁ଅନ୍ତରା	-9732
▁ଆସ୍ଥାନ	-9733
▁ନିବାରକ	-9734
▁ପୂଜାରୀ	-9735
▁ପ୍ରମୋଦ	-9736
▁ମଧ୍ଯରେ	-9737
▁ସମ୍ମତି	-9738
▁୧୯୯୪ରେ	-9739
▁ଅଶ୍ୱିନୀ	-9740
▁ବୈଶିଷ୍ଟ	-9741
▁ସମୁଦ୍ରପ	-9742
▁ସେହିଭଳି	-9743
▁ହିମାଳୟର	-9744
▁କରିବାପରେ	-9745
▁ଶିଖିଥିଲେ	-9746
▁ସଞ୍ଚାରିତ	-9747
▁ନ୍ୟାୟାଳୟରେ	-9748
▁ପହଞ୍ଚିଥିଲେ	-9749
▁ପର୍ଯ୍ୟଟକଙ୍କ	-9750
▁ମଧ୍ୟବର୍ତ୍ତୀ	-9751
An	-9752
]]	-9753
ons	-9754
କ୍ଲ	-9755
ମାଇ	-9756
▁କଫ	-9757
▁୬୯	-9758
କିଛି	-9759
ଜିଲ୍	-9760
ପାଳି	-9761
ବାବୁ	-9762
ିବାସ	-9763
୧୯୮୮	-9764
▁194	-9765
▁ଗାଧ	-9766
▁ପିଠ	-9767
▁ବଲ୍	-9768
▁ବୁଧ	-9769
▁ମିଲ	-9770
ସଂଖ୍ୟ	-9771
ାମିନ୍	-9772
▁ଟାଣି	-9773
▁ଫାଟି	-9774
▁ବାପୁ	-9775
▁ବିଗତ	-9776
▁ଷୋଡ଼	-9777
action	-9778
ବିଦ୍ୟୁ	-9779
ମଣ୍ଡଳର	-9780
▁heart	-9781
▁ନୈତିକ	-9782
▁ବଙ୍ଗର	-9783
▁ବିକ୍ଷ	-9784
▁ସକାଶେ	-9785
▁ସମ୍ପଦ	-9786
▁ସାଇକୋ	-9787
▁ସୁନାମ	-9788
▁ଜଙ୍ଗଲର	-9789
▁ବର୍ଗରେ	-9790
▁ବୋଧହୁଏ	-9791
▁ଯୋଗିନୀ	-9792
▁ରାୟଙ୍କ	-9793
▁ସଂରଚନା	-9794
▁ଅବଶିଷ୍ଟ	-9795
▁ଆକାଉଣ୍ଟ	-9796
▁କୁହାଗଲା	-9797
▁ପାଇବାକୁ	-9798
▁ବୈଦୁତିକ	-9799
▁ମୀନକେତନ	-9800
▁ଯୋଜନାରେ	-9801
▁ଶ୍ରୀଜୀଉ	-9802
ାମାନଙ୍କରେ	-9803
▁କଲିକତାରେ	-9804
▁ସବ୍ୟସାଚୀ	-9805
▁ଅନୁବନ୍ଧିତ	-9806
▁ଆନ୍ଦୋଳନକୁ	-9807
▁ପ୍ରତିରୋଧକ	-9808
▁ବାଣିଜ୍ୟିକ	-9809
▁ସମ୍ମାନଜନକ	-9810
▁ସାର୍ବଜନୀନ	-9811
▁ଦିଆଯାଉଥିବା	-9812
▁ସମ୍ମିଳନୀରେ	-9813
▁କଥାବାର୍ତ୍ତା	-9814
▁ପୁରସ୍କାରପ୍ରାପ୍ତ	-9815
--	-9816
ik	-9817
କିଂ	-9818
ଚୁଆ	-9819
ଜର୍	-9820
ନାଭ	-9821
ମେର	-9822
ରବୀ	-9823
ଶିଂ	-9824
ାରଦ	-9825
▁Ar	-9826
▁ନଟ	-9827
ଗଳିକ	-9828
ନାଟକ	-9829
ରିକା	-9830
ାମେଟ	-9831
ୋନିନ	-9832
ୋନ୍ନ	-9833
▁କମଳ	-9834
▁କୁଟ	-9835
▁ଘୋର	-9836
▁ଜିଭ	-9837
▁ପଲ୍	-9838
▁ବରା	-9839
▁ଭେଟ	-9840
▁ମର୍	-9841
▁ଲଡୁ	-9842
▁ଶବର	-9843
▁ସନା	-9844
▁ସେଫ	-9845
ଅର୍ଥା	-9846
ସେଣ୍ଟ	-9847
ାବଶେଷ	-9848
▁ଅଂଶର	-9849
▁ଉଷ୍ମ	-9850
▁ଏଞ୍ଜ	-9851
▁କୁସୁ	-9852
▁ଗୋପନ	-9853
▁ଜିନ୍	-9854
▁ହାଇପ	-9855
ବ୍ୟତୀତ	-9856
ସ୍କୋପି	-9857
▁ଅବଦୁଲ	-9858
▁ଆସ୍ପି	-9859
▁ଇଣ୍ଡୋ	-9860
▁ଧକ୍କା	-9861
▁ନାଟକର	-9862
▁ପୁଣ୍ୟ	-9863
▁ପ୍ରକଟ	-9864
▁ଫେରାଇ	-9865
▁ବେଗରେ	-9866
▁ଭଗବତୀ	-9867
▁ମହନ୍ତ	-9868
▁ସିରିଜ	-9869
▁ଅର୍ଥରେ	-9870
▁ଅସହଯୋଗ	-9871
▁ପାଣ୍ଠି	-9872
▁ପୋଟାସି	-9873
▁ରବିବାର	-9874
▁ଷ୍ଟ୍ରି	-9875
▁ସିସ୍ଟମ	-9876
▁ଅନ୍ଧକାର	-9877
▁ଉନ୍ମୋଚନ	-9878
▁ଡିଜିଟାଲ	-9879
▁ନିଷିଦ୍ଧ	-9880
▁ବେସାନ୍ତ	-9881
▁ସନ୍ଦର୍ଭ	-9882
▁ସଭ୍ୟତାର	-9883
ରାଚାର୍ଯ୍ୟ	-9884
▁ଇତ୍ୟାଦିର	-9885
▁କରେଇଥିଲେ	-9886
▁ଜୀବଜନ୍ତୁ	-9887
▁ଦେଖିଥିଲେ	-9888
▁ବିଶେଷକରି	-9889
▁ବୃତ୍ତିଗତ	-9890
▁ରାମେଶ୍ୱର	-9891
▁ସ୍ମୃତିରେ	-9892
▁ଇତ୍ୟାଦିରେ	-9893
▁ଉପସ୍ଥାପନା	-9894
▁କଂଗ୍ରେସରେ	-9895
▁ଡିଜଅର୍ଡ଼ର	-9896
▁ତାନ୍ତ୍ରିକ	-9897
▁ସମ୍ବର୍ଦ୍ଧ	-9898
▁ପ୍ରୋତ୍ସାହିତ	-9899
▁କରିସାରିଛନ୍ତି	-9900
gl	-9901
adi	-9902
enz	-9903
fer	-9904
res	-9905
ିଲା	-9906
ୋଫେ	-9907
▁13	-9908
▁ଅଚ	-9909
▁୮୩	-9910
କ୍ଲି	-9911
ପିତା	-9912
ର୍ଲା	-9913
ାଗୋର	-9914
୧୯୮୭	-9915
▁କ୍ଳ	-9916
▁ଡାଳ	-9917
▁ସ୍ଫ	-9918
ancer	-9919
ଘଣ୍ଟା	-9920
ଜ୍ୟରେ	-9921
ସୂତ୍ର	-9922
ସେନ୍ସ	-9923
ାର୍ପଣ	-9924
▁ଅଟୋଇ	-9925
▁ଏଣ୍ଟ	-9926
▁କୃମି	-9927
▁କେଶବ	-9928
▁ଗୁଡ୍	-9929
▁ଚଣ୍ଡ	-9930
▁ଚଳାଇ	-9931
▁ଫେଡେ	-9932
▁ବୋଲର	-9933
▁ମନକୁ	-9934
▁ସାଧବ	-9935
▁ସ୍ପୋ	-9936
▁୧୦ରୁ	-9937
ତାମୂଳକ	-9938
▁ଗୋଲାପ	-9939
▁ପୀଠରେ	-9940
▁ବଗିଚା	-9941
▁ବଟିକା	-9942
▁ଯାଞ୍ଚ	-9943
▁ରାହୁଲ	-9944
▁ଶେୟାର	-9945
ଯାତ୍ରାର	-9946
▁ଅନୁପ୍ର	-9947
▁ଗମାଙ୍ଗ	-9948
▁ନିବାସୀ	-9949
▁ପ୍ରାଚୀ	-9950
▁ବଞ୍ଚିତ	-9951
▁ବାଘୁଣୀ	-9952
▁ମିଥ୍ୟା	-9953
▁ମିଳିଲେ	-9954
▁ସୋନପୁର	-9955
▁କମାଣ୍ଡର	-9956
▁ଦ୍ୱୀପରେ	-9957
▁ମନ୍ତବ୍ୟ	-9958
▁ଯବକ୍ଷାର	-9959
▁ସହଯୋଗରେ	-9960
▁ସୌଭାଗ୍ୟ	-9961
▁ସ୍ୱର୍ଗତ	-9962
▁ଦେବତାଙ୍କ	-9963
▁ପୃଷ୍ଠପୋଷ	-9964
▁ଗୁରୁତ୍ତ୍ୱ	-9965
▁ଇଲେକ୍ଟ୍ରନ୍	-9966
▁ପରିପୂର୍ଣ୍ଣ	-9967
▁କାର୍ଯ୍ୟବିଧି	-9968
▁ଭଟ୍ଟାଚାର୍ଯ୍ୟ	-9969
▁ପ୍ରତିଯୋଗୀତାରେ	-9970
uk	-9971
ଘନ	-9972
ଦୋ	-9973
ସୃ	-9974
୍ଵ	-9975
ଫିଆ	-9976
ଲେନ	-9977
▁14	-9978
▁ନଖ	-9979
ଚିଲା	-9980
ବିଜେ	-9981
ରାଶି	-9982
ାଳିଆ	-9983
▁ଲୁଇ	-9984
▁ଶତା	-9985
▁ସୁଚ	-9986
ement	-9987
ପାର୍ଟ	-9988
ସାଣ୍ଟ	-9989
▁2011	-9990
▁ଅବଗତ	-9991
▁ଆହରଣ	-9992
▁କଙ୍ଗ	-9993
▁ଜିରା	-9994
▁ପୋଥି	-9995
▁ବାପି	-9996
▁ବ୍ରଣ	-9997
▁ଲୁହା	-9998
▁ହ୍ୟା	-9999
▁୧୯୦୦	-10000
▁ଓଜନିଆ	-10001
▁କମ୍ପନ	-10002
▁ପାରାସ	-10003
▁ରାଡାର	-10004
▁ୟୁନାଇ	-10005
▁ଚୋପ୍ରା	-10006
▁ଜନବସତି	-10007
▁ଡଲାରରୁ	-10008
▁ଦ୍ୱୀପର	-10009
▁ଯୋନୀପଥ	-10010
▁ଶାଙ୍କୁ	-10011
▁ହେମନ୍ତ	-10012
▁୧୯୯୨ରେ	-10013
▁୧୯୯୯ରେ	-10014
▁୨୦୦୩ରେ	-10015
▁ଖାଆନ୍ତି	-10016
▁ଚମତ୍କାର	-10017
▁ଦିନଠାରୁ	-10018
▁ଫେଲୋସିପ	-10019
▁ବ୍ୟାକରଣ	-10020
▁ମାନସିଂହ	-10021
▁ସନ୍ୟାସୀ	-10022
▁ଟ୍ରାନ୍ସ୍	-10023
▁ବିଶ୍ୱକପ୍	-10024
▁ମୂର୍ତ୍ତୀ	-10025
▁ରାଜାମାନେ	-10026
▁ଶକ୍ତିପୀଠ	-10027
ମାନଙ୍କଠାରେ	-10028
▁ପିଲାଦିନରୁ	-10029
▁ପୁଷ୍ଟିସାର	-10030
ଡନ	-10031
hib	-10032
por	-10033
roc	-10034
ଧାମ	-10035
ପରୀ	-10036
ପାସ	-10037
ଲୋନ	-10038
ୋକା	-10039
ater	-10040
ଙ୍ଗମ	-10041
ଟାଲ୍	-10042
ଣ୍ଠା	-10043
ମେରୁ	-10044
ମେଳା	-10045
ମ୍ଭୁ	-10046
ିନିକ	-10047
୧୯୯୦	-10048
୨୦୦୧	-10049
▁କହେ	-10050
▁ଜର୍	-10051
▁ନନ୍	-10052
▁ନାଳ	-10053
▁ରିପ	-10054
▁ଶୋଭ	-10055
▁ସଡକ	-10056
ପକ୍ଷୀ	-10057
ରାଙ୍କ	-10058
ୁସାରେ	-10059
▁ଆକ୍ଟ	-10060
▁ଓସାର	-10061
▁ଚାମଚ	-10062
▁ଡାଟା	-10063
▁ଡାଲି	-10064
▁ଫାର୍	-10065
▁ଭୁଲି	-10066
▁ମନ୍ଦ	-10067
▁ମାଛର	-10068
▁ମୂଷା	-10069
▁ଯୀଶୁ	-10070
▁ସୋନା	-10071
▁୧୯୨୩	-10072
ପରିବାର	-10073
ଷ୍ଟ୍ରୋ	-10074
ସିଂହାର	-10075
ାବସ୍ଥା	-10076
▁କାଳିଆ	-10077
▁ଡ୍ରାମ	-10078
▁ନିଉରୋ	-10079
▁ଯୁବତୀ	-10080
▁ସୂଚିତ	-10081
▁ହସ୍ପି	-10082
ଥାଇପାରେ	-10083
▁ଉଦ୍ବେଗ	-10084
▁ଖାଦ୍ୟର	-10085
▁ଜନ୍ମଗତ	-10086
▁ବିସ୍ଫୋ	-10087
▁ଭୌଗଳିକ	-10088
▁ସମାନତା	-10089
▁୨୦୨୧ରେ	-10090
▁ତେଲେଙ୍ଗ	-10091
▁ଦିଆଯିବା	-10092
▁ପରିପକ୍ୱ	-10093
▁ପ୍ରଜ୍ଞା	-10094
▁ଭିଏତନାମ	-10095
▁ମାଲାୟାଲ	-10096
▁ସଞ୍ଚାଳନ	-10097
▁ଅର୍ଦ୍ଧେକ	-10098
▁କ୍ରିକେଟରେ	-10099
▁ତାଙ୍କଠାରୁ	-10100
▁ସାମ୍ପ୍ରତିକ	-10101
▁ହୋଇପାରନ୍ତି	-10102
▁ଶ୍ରେଣୀଭୁକ୍ତ	-10103
▁ନିର୍ଦ୍ଦେଶିକା	-10104
Un	-10105
pt	-10106
ଛେ	-10107
ept	-10108
fic	-10109
ive	-10110
ord	-10111
red	-10112
ଂକ୍	-10113
ଅଏଡ	-10114
ଏସଏ	-10115
ଘୋଷ	-10116
ଜାପ	-10117
ଯାତ	-10118
ାଗମ	-10119
ାଦକ	-10120
ୁରୋ	-10121
▁Un	-10122
▁ଗଉ	-10123
▁୭୯	-10124
lamm	-10125
lock	-10126
ଟ୍ୟୁ	-10127
ମିକୁ	-10128
ର୍ବର	-10129
ଲକାନ	-10130
ଲିୟମ	-10131
▁ଆଦୌ	-10132
▁ଏକ୍	-10133
▁ଗଳା	-10134
▁ନରମ	-10135
▁ବିଦ	-10136
▁ମହୀ	-10137
▁ହିତ	-10138
ଡିଏସନ	-10139
ତୀର୍ଥ	-10140
ନିଙ୍ଗ	-10141
ବେଦ୍ୟ	-10142
▁acid	-10143
▁test	-10144
▁କଣ୍ଡ	-10145
▁ଦାଦା	-10146
▁ପଖାଳ	-10147
▁ଯେବେ	-10148
▁ସୁବା	-10149
▁ସୂତା	-10150
▁୨୦ରୁ	-10151
ଲାଣ୍ଡର	-10152
▁ଅମୃତା	-10153
▁କୁଞ୍ଜ	-10154
▁ଦେଇଛି	-10155
▁ଦେଶକୁ	-10156
▁ନେତ୍ର	-10157
▁ପୋର୍ଟ	-10158
▁ବେଆଇନ	-10159
▁ମେଣ୍ଟ	-10160
▁ଲାଟିନ	-10161
▁ସକାଳେ	-10162
▁ସତର୍କ	-10163
▁ଅନ୍ୱେଷ	-10164
▁ଏହାଙ୍କ	-10165
▁କ୍ରୀଡା	-10166
▁ତାରିଣୀ	-10167
▁ତିନିଜଣ	-10168
▁ନିକଟରୁ	-10169
▁ପର୍ବରେ	-10170
▁ପୃଥ୍ୱୀ	-10171
▁ଶିଶୁକୁ	-10172
ଲ୍ୟାଣ୍ଡର	-10173
▁ନିଶ୍ୱାସ	-10174
▁ପାଣିପାଗ	-10175
▁ପୁରୋହିତ	-10176
▁ପ୍ରକାଶକ	-10177
▁ପ୍ରଥମଥର	-10178
▁ପ୍ରେରିତ	-10179
▁ମହେଶ୍ୱର	-10180
▁ମ୍ୟାନେଜ	-10181
▁ଶୁଣାଯାଏ	-10182
▁କ୍ୟାମେରା	-10183
▁ଚମ୍ପିୟାନ	-10184
▁ପ୍ରଜାପତି	-10185
▁ବାଳକୃଷ୍ଣ	-10186
▁ଲେଖୁଥିଲେ	-10187
▁ସମ୍ମିଳିତ	-10188
▁ଜାହାଙ୍ଗୀର	-10189
▁ବାୟୁମଣ୍ଡଳ	-10190
▁ମହାଭାରତରେ	-10191
▁ପଶ୍ଚିମବଙ୍ଗ	-10192
▁ପର୍ଯ୍ୟବେକ୍ଷଣ	-10193
▁ଶିକ୍ଷାନୁଷ୍ଠାନ	-10194
ପୌ	-10195
ere	-10196
ଅମ୍	-10197
ଗତା	-10198
ତ୍ଯ	-10199
ଭେଲ	-10200
ମଣୀ	-10201
୍ତା	-10202
▁୮୬	-10203
ଗଡ଼ର	-10204
ମୁଖେ	-10205
ରାଜା	-10206
ଶ୍ମି	-10207
▁com	-10208
▁ଅଧକ	-10209
▁ଆପୋ	-10210
▁ଆୟର	-10211
▁ଖୁଆ	-10212
▁ଘରୁ	-10213
▁ଝଡ଼	-10214
▁ତପୁ	-10215
▁ତାଜ	-10216
▁ବୋଲ	-10217
▁୯ଟି	-10218
eding	-10219
କର୍ମୀ	-10220
ଣ୍ଟିକ	-10221
ଦେବତା	-10222
ାମାଇଡ	-10223
ାସେବୀ	-10224
▁ଆଦ୍ୟ	-10225
▁କାମା	-10226
▁କ୍ରୋ	-10227
▁ଗାୟନ	-10228
▁ରେଣୁ	-10229
ଉଛନ୍ତି	-10230
ଦକ୍ଷିଣ	-10231
ଧ୍ୟକ୍ଷ	-10232
▁କଲେଜର	-10233
▁ଜମିରେ	-10234
▁ନନ୍ଦି	-10235
▁ନିତ୍ୟ	-10236
▁ପୋଡ଼ି	-10237
▁ମାଟିର	-10238
▁ମୃତ୍ତ	-10239
▁ଅସମର୍ଥ	-10240
▁ଆପ୍ଲିକ	-10241
▁ଚାରିଟି	-10242
▁ଟ୍ରିଗର	-10243
▁ଦରିଦ୍ର	-10244
▁ମଞ୍ଜରୀ	-10245
▁ଷ୍ଟୋରୀ	-10246
▁ଅଭ୍ୟନ୍ତ	-10247
▁ପୃଷ୍ଠରେ	-10248
▁ମହାମାରୀ	-10249
କ୍ଷେତ୍ରରେ	-10250
▁ଜାତିସଂଘର	-10251
▁ପିଲାଙ୍କର	-10252
▁ଭଗବାନଙ୍କ	-10253
▁ମୁଦ୍ରାରେ	-10254
▁ଲିଉକେମିଆ	-10255
▁ପ୍ରସଙ୍ଗରେ	-10256
▁ବ୍ରାହ୍ମଣୀ	-10257
▁ଅନୁଷ୍ଠାନରେ	-10258
▁ଆଭ୍ୟନ୍ତରୀଣ	-10259
▁ଇମ୍ମ୍ୟୁନିଟି	-10260
ft	-10261
ry	-10262
ୀଦ	-10263
ata	-10264
ole	-10265
umb	-10266
ଗାଓ	-10267
ବିଦ	-10268
ଭାନ	-10269
▁ପଡ	-10270
▁ଫଟ	-10271
▁୮୨	-10272
ଙ୍ଗେ	-10273
ଦାରେ	-10274
ବ୍ଲି	-10275
ଳିତା	-10276
ଶ୍ୟପ	-10277
ସ୍ଫୁ	-10278
ୀତିକ	-10279
▁ଅଦ୍	-10280
▁କାତ	-10281
▁ଗଜଲ	-10282
▁ଦିଲ	-10283
▁ପେନ	-10284
▁ପେଷ	-10285
▁ବିଛ	-10286
▁ଭର୍	-10287
▁ରିକ	-10288
▁ଶୟନ	-10289
amine	-10290
ନଥିବା	-10291
ପାଳିତ	-10292
ବିଶ୍ୱ	-10293
ୋକ୍ସି	-10294
▁ଆଲେକ	-10295
▁ଉଡ଼ି	-10296
▁ଗେମ୍	-10297
▁ଝିଲ୍	-10298
▁ଟ୍ରଫ	-10299
▁ଦରମା	-10300
▁ବସାଇ	-10301
▁ମରିଚ	-10302
▁୩୦ରୁ	-10303
ପ୍ରାଣୀ	-10304
ବିନ୍ଦୁ	-10305
▁ଛିଦ୍ର	-10306
▁ଭେଦରେ	-10307
▁ମାଦଳା	-10308
▁ମାସକୁ	-10309
▁ମୋକ୍ଷ	-10310
▁ସନ୍ଧି	-10311
▁ସର୍ଭେ	-10312
▁ସହରରୁ	-10313
ଫ୍ଲାମେଟ	-10314
▁ଅସମ୍ଭବ	-10315
▁ଆଦିତ୍ୟ	-10316
▁ଇସ୍ପାତ	-10317
▁ଏନଏଚଏସ	-10318
▁ଚିଡ଼ିଆ	-10319
▁ନାଇଟ୍ର	-10320
ଥିଲାବେଳେ	-10321
▁ଅଗ୍ରଗତି	-10322
▁ଗତିବିଧି	-10323
▁ଦକ୍ଷିଣା	-10324
▁ପଶ୍ଚିମବ	-10325
▁ବକ୍ତୃତା	-10326
▁ରାଜଗୁରୁ	-10327
▁ସଂପୃକ୍ତ	-10328
▁ସର୍ବମୋଟ	-10329
▁ସ୍ଟ୍ରୋକ	-10330
▁ଅନୁସୂଚିତ	-10331
▁ଅନ୍ୟମାନେ	-10332
▁କ୍ରିକେଟ୍	-10333
▁ପରିବେଶରେ	-10334
▁ଶକ୍ତିମାନ	-10335
▁ଆଲୁମିନିୟମ	-10336
▁ଉପତ୍ୟକାରେ	-10337
▁ଉପସ୍ଥାପିତ	-10338
▁ଶାସ୍ତ୍ରରେ	-10339
▁ହୋଇପାରିଛି	-10340
▁ଆକ୍ରମଣକାରୀ	-10341
▁ସୋସିଆଲିଷ୍ଟ	-10342
▁ଜଗନ୍ନାଥଙ୍କୁ	-10343
fe	-10344
କୃ	-10345
ଟେଇ	-10346
ପିଲ	-10347
ରୁଜ	-10348
ସିଓ	-10349
ାପୁ	-10350
ାପୂ	-10351
ୟୋଗ	-10352
▁Al	-10353
▁sc	-10354
▁ଜପ	-10355
ound	-10356
କ୍ୟୁ	-10357
ଚନରେ	-10358
ଟେଡ଼	-10359
ବେଳର	-10360
ମିନି	-10361
ରାତି	-10362
ଲେଖି	-10363
୧୯୯୫	-10364
ୱାର୍	-10365
▁ଅସୀ	-10366
▁କମନ	-10367
▁ମେଦ	-10368
▁ରସୁ	-10369
▁ସୁଜ	-10370
ଚଣ୍ଡୀ	-10371
ପନ୍ଥୀ	-10372
ଲାଇଟ୍	-10373
ାୟମାନ	-10374
▁ଅକାଳ	-10375
▁ଆଠଟି	-10376
▁ଉଷ୍ଣ	-10377
▁କ୍ଲି	-10378
▁ଚାଲେ	-10379
▁ଡେଭି	-10380
▁ନକ୍ସ	-10381
▁ଫ୍ଲା	-10382
▁ବ୍ଲୁ	-10383
▁ହାଇଡ	-10384
▁୧୯୧୭	-10385
▁୧୯୨୬	-10386
କ୍ଲେରୋ	-10387
▁କଥାରେ	-10388
▁ଟିକେଟ	-10389
▁ଦୁଗ୍ଧ	-10390
▁ମୃତ୍ୟ	-10391
▁ଶାକ୍ତ	-10392
▁ଷ୍ଟେଟ	-10393
▁ହ୍ରଦର	-10394
▁ଅନ୍ଧାର	-10395
▁ଆକାଶରେ	-10396
▁ଜଣଙ୍କୁ	-10397
▁ଭେଙ୍କଟ	-10398
▁ମନୋଭାବ	-10399
▁ମେଟ୍ରୋ	-10400
▁ରଙ୍ଗରେ	-10401
▁ରଚନାରେ	-10402
▁ସ୍ୱରାଜ	-10403
▁ଇଣ୍ଡିଆର	-10404
▁ଉଜ୍ଜ୍ୱଳ	-10405
▁ଚିତ୍ରକର	-10406
▁ଜନଜାତିର	-10407
▁ପାଉଁଶିଆ	-10408
▁ପ୍ରହରାଜ	-10409
▁ଫ୍ରାଙ୍କ	-10410
▁ବିଲୁପ୍ତ	-10411
▁ମଧ୍ୟସ୍ଥ	-10412
▁ମାନଙ୍କର	-10413
▁ଯାଇପାରେ	-10414
▁ରାଡିଏସନ	-10415
▁ହାର୍ନିଆ	-10416
▁କୀର୍ତ୍ତି	-10417
▁ପ୍ରକଳ୍ପର	-10418
▁ପ୍ରଭୁଙ୍କ	-10419
▁ସତ୍ୟବାଦୀ	-10420
▁ସ୍ଥିତିରେ	-10421
▁ବ୍ୟବହାରକୁ	-10422
▁ମସ୍ତିଷ୍କର	-10423
▁ମୂର୍ତ୍ତିର	-10424
▁ଶ୍ରୀବିଗ୍ରହ	-10425
▁ସର୍ବଭାରତୀୟ	-10426
▁ପାଲେଷ୍ଟାଇନ୍	-10427
▁ପ୍ରତିଶ୍ରୁତି	-10428
ah	-10429
ଏର	-10430
▁j	-10431
ann	-10432
med	-10433
ଋତୁ	-10434
ଣିର	-10435
ାପଣ	-10436
ାୟୋ	-10437
୍ଟୋ	-10438
ther	-10439
ural	-10440
ଏସଟି	-10441
ପାକି	-10442
ବେଲ୍	-10443
ର୍ଜେ	-10444
ାଇନର	-10445
ୋତ୍ତ	-10446
୧୯୮୯	-10447
୧୯୯୭	-10448
▁bre	-10449
▁କଳସ	-10450
▁କିଡ	-10451
▁ଡୋପ	-10452
▁ନୋଟ	-10453
▁ବନମ	-10454
▁ଯୋଧ	-10455
▁୧୦୮	-10456
ଚ୍ଛିତ	-10457
ଟିକ୍ସ	-10458
ତ୍ମ୍ୟ	-10459
ନାଙ୍କ	-10460
▁ଘାତକ	-10461
▁ଜଣାଣ	-10462
▁ଦଳରୁ	-10463
▁ପାଠକ	-10464
▁ରଶ୍ମ	-10465
▁ଶାବକ	-10466
▁୧୯୧୩	-10467
ପ୍ତିରେ	-10468
▁ଜୈବିକ	-10469
▁ନମୁନା	-10470
▁ବଳଦେବ	-10471
▁ବିମଳା	-10472
▁ବିଶାଖ	-10473
▁ବ୍ୟାନ	-10474
▁ମାର୍ଚ	-10475
▁ମାଲାୟ	-10476
ମାଷ୍ଟମୀ	-10477
▁କାରିଗର	-10478
▁କୁସ୍ତି	-10479
▁ଜାମ୍ମୁ	-10480
▁ନମ୍ରତା	-10481
▁ନାନାଦି	-10482
▁ବିପ୍ଳବ	-10483
▁ମହାବୀର	-10484
▁ରିଉମାଟ	-10485
▁ସମାନ୍ତ	-10486
▁ସମୀକ୍ଷ	-10487
▁ଉପନିବେଶ	-10488
▁ଗାଳ୍ପିକ	-10489
▁ଗୋଷ୍ଠୀର	-10490
▁ଚାମ୍ପିୟ	-10491
▁ଚାଲିଥାଏ	-10492
▁ସ୍ଥାନଟି	-10493
ତାନ୍ତ୍ରିକ	-10494
▁କେତେବେଳେ	-10495
▁ବାନ୍ଧିବା	-10496
▁ଭଦ୍ରକାଳୀ	-10497
▁ଲାଗିଥିଲା	-10498
▁ଏକ୍ସଚେଞ୍ଜ	-10499
▁ହସ୍ତକ୍ଷେପ	-10500
▁ପରିସଂଖ୍ୟାନ	-10501
▁ବାଧ୍ୟତାମୂଳକ	-10502
▁କାର୍ଯ୍ୟନିର୍ବାହୀ	-10503
ବୟ	-10504
par	-10505
ିବେ	-10506
▁ନଂ	-10507
▁ମକ	-10508
▁ମଥ	-10509
▁୫୭	-10510
eral	-10511
iety	-10512
ures	-10513
ଗୁନି	-10514
ପୋଷଣ	-10515
ଭର୍ସ	-10516
▁197	-10517
▁କଇଁ	-10518
▁ଗାର	-10519
▁ଚାଉ	-10520
▁ଜାଳ	-10521
▁ମାଣ	-10522
▁ରଖେ	-10523
ଦିଗରେ	-10524
ଯୁଗୀୟ	-10525
ଶ୍ୱରୀ	-10526
ଷ୍ଟାର	-10527
▁ଅଦ୍ୱ	-10528
▁ଅବ୍ୟ	-10529
▁ଉଡ଼ା	-10530
▁ଉଷୁମ	-10531
▁ପାଲି	-10532
▁ଫର୍ମ	-10533
▁ବିଭବ	-10534
▁ଭୈରବ	-10535
▁ମୀରା	-10536
▁ସୁମନ	-10537
▁ହରେଇ	-10538
▁ହିରୋ	-10539
▁୧୯୧୫	-10540
ମଧ୍ୟରେ	-10541
ାଗ୍ରହଣ	-10542
▁କ୍ଷମା	-10543
▁ତମ୍ବା	-10544
▁ନିର୍ଜ	-10545
▁ପାତାଳ	-10546
▁ଫେୟାର	-10547
▁ମେକ୍ସ	-10548
▁ଅନୁକୂଳ	-10549
▁କିଶୋରୀ	-10550
▁ଚିହ୍ନି	-10551
▁ଦଣ୍ଡିତ	-10552
▁ଦୁନିଆର	-10553
▁ପଦୋନ୍ନ	-10554
▁ମାତ୍ରେ	-10555
▁ସାହସିକ	-10556
▁୧୯୮୮ରେ	-10557
ୋଗ୍ଲୋବିନ	-10558
▁ଅଭିମୁଖେ	-10559
▁ଇନସୁଲିନ	-10560
▁ଗଣିତଜ୍ଞ	-10561
▁ଗ୍ରାଣ୍ଡ	-10562
▁ଚନ୍ଦ୍ରର	-10563
▁ଜଣାପଡ଼େ	-10564
▁ନିରାକରଣ	-10565
▁ଯୋଗାଇବା	-10566
▁ସମ୍ପତ୍ତ	-10567
▁ହସ୍ପିଟାଲ	-10568
▁ସାମ୍ରାଜ୍ଯ	-10569
▁ଝାରସୁଗୁଡ଼ା	-10570
▁ସମ୍ବାଦପତ୍ର	-10571
▁ସେଣ୍ଟିମିଟର	-10572
▁ହୋଇଥାଆନ୍ତି	-10573
▁କର୍ତ୍ତୃପକ୍ଷ	-10574
▁ସୈନ୍ୟବାହିନୀ	-10575
▁ଇଣ୍ଟରନ୍ୟାସନାଲ	-10576
▁ପ୍ରଯୁକ୍ତିବିଦ୍ୟା	-10577
ଫସ	-10578
ିଭ	-10579
େମ	-10580
ash	-10581
ice	-10582
inc	-10583
କଟକ	-10584
ଠିତ	-10585
ଥଲା	-10586
ବିଷ	-10587
ମାତ	-10588
ସରା	-10589
ାବର	-10590
ୋଲା	-10591
▁୬୩	-10592
ରିଆନ	-10593
ରିଆର	-10594
ସ୍କି	-10595
େଇଲେ	-10596
▁ପଟି	-10597
▁ବୃଷ	-10598
▁ଭାଲ	-10599
▁ମୃଗ	-10600
▁ସିଓ	-10601
▁ସୋଲ	-10602
hibit	-10603
ପିଟାଲ	-10604
ର୍ଟିକ	-10605
ାନିଧି	-10606
ୀତିକୁ	-10607
▁ଆଇନର	-10608
▁ଇରାନ	-10609
▁କନ୍ୟ	-10610
▁ଦସ୍ତ	-10611
▁ପୁଣେ	-10612
▁ପୋଷା	-10613
▁ମୂଳକ	-10614
▁ସାରଣ	-10615
ପୁରାତନ	-10616
ଲ୍ଲୀରେ	-10617
େଇବାକୁ	-10618
▁ଟାଇମ୍	-10619
▁ପୂଜାପ	-10620
▁ସନାତନ	-10621
▁ଚାହିଦା	-10622
▁ନୀଳମଣି	-10623
▁ମାଲକାନ	-10624
▁ଅପରାହ୍ନ	-10625
▁ଉପାଧିରେ	-10626
▁କୁକୁଡ଼ା	-10627
▁କ୍ରୋମୋଜ	-10628
▁ଗୁଡିକରେ	-10629
▁ବିଭାଜିତ	-10630
▁ସାଙ୍ଗରେ	-10631
▁ଗାନ୍ଧିଜୀ	-10632
▁ଜଳଭଣ୍ଡାର	-10633
▁ପ୍ରକୃତିର	-10634
▁ବିସ୍ଫୋରଣ	-10635
▁ମାନଚିତ୍ର	-10636
▁ରଙ୍ଗମଞ୍ଚ	-10637
▁ସାନ୍ତାଳୀ	-10638
▁ଔପନ୍ୟାସିକ	-10639
▁କମ୍ପାନୀରେ	-10640
▁ପ୍ରାଣୀଙ୍କ	-10641
▁ସିଂହଦ୍ୱାର	-10642
▁ଅଲିମ୍ପିକରେ	-10643
▁ଗାନ୍ଧୀଙ୍କୁ	-10644
▁ଚିତ୍ତରଞ୍ଜନ	-10645
▁ପ୍ରସ୍ତାବିତ	-10646
▁ଚାଲିଯାଇଥିଲେ	-10647
▁ୟୁନିଭର୍ସିଟି	-10648
▁ପରୀକ୍ଷାଦ୍ୱାରା	-10649
-2	-10650
IC	-10651
ଡମି	-10652
ପାକ	-10653
ଲ୍ଫ	-10654
▁as	-10655
▁ଓଁ	-10656
▁ଚଲ	-10657
▁ଛଉ	-10658
▁ଜବ	-10659
▁ମଗ	-10660
ଫିକ୍	-10661
ବାପା	-10662
ମାଛି	-10663
ରକ୍ତ	-10664
ସାହନ	-10665
ାୟାର	-10666
ୋକ୍ତ	-10667
୍ତିକ	-10668
୧୯୮୬	-10669
▁ସାଜ	-10670
ାମଣ୍ଡ	-10671
▁ଇମ୍ପ	-10672
▁ଓଜନର	-10673
▁ତୁମର	-10674
▁ଦନ୍ତ	-10675
▁ଦାଖଲ	-10676
▁ପାଖେ	-10677
▁ପିପି	-10678
▁ପେଶା	-10679
▁ବାବଦ	-10680
▁ରହଣି	-10681
▁ରିୟା	-10682
▁ଲଞ୍ଚ	-10683
▁ଲଡ଼ୁ	-10684
▁୧୬ଟି	-10685
ତାଙ୍କର	-10686
ପ୍ରଥମେ	-10687
୍ଲେକ୍ସ	-10688
▁ଅନଙ୍ଗ	-10689
▁ନହେଲେ	-10690
▁ପରିଜା	-10691
▁ବାଇଶି	-10692
▁ବାରବା	-10693
▁ଲାକ୍ଟ	-10694
▁ଲେଫ୍ଟ	-10695
▁ଶାସନର	-10696
▁ସମୟକୁ	-10697
▁ହାରରେ	-10698
▁ହୁସେନ	-10699
▁ହେଇଛି	-10700
ଥାଇରଏଡି	-10701
ଦ୍ୟୁମ୍ନ	-10702
▁ଖୋଜିବା	-10703
▁ଜୀବନକୁ	-10704
▁ଡିଭିଜନ	-10705
▁ନିୟୋଜନ	-10706
▁ପର୍ତ୍ତ	-10707
▁ବଢ଼ିବା	-10708
▁ରଚୟିତା	-10709
▁ସାଙ୍ଗା	-10710
▁ସ୍ଥପତି	-10711
▁୧୯୯୩ରେ	-10712
▁ଇଲାକାରେ	-10713
▁ଏକାଡେମି	-10714
▁ଗଭର୍ଣ୍ଣ	-10715
▁ଜାପାନରେ	-10716
▁ପ୍ରବାସୀ	-10717
▁ଲୋକଲୋଚନ	-10718
▁ଅନୁବାଦିତ	-10719
▁ଆଜ୍ଞାମାଳ	-10720
▁ଚାଲୁଥିବା	-10721
▁ଜଣାପଡିଛି	-10722
▁ଦେବାପାଇଁ	-10723
▁ପ୍ରଭାବକୁ	-10724
▁ବାବୁଶାନ୍	-10725
▁ବିରାଜମାନ	-10726
▁ରୀତିନୀତି	-10727
▁ଇଞ୍ଜିନିୟର	-10728
▁ନିର୍ମାଣରେ	-10729
▁ବ୍ୟବହାରିକ	-10730
▁କ୍ୟାଲେଣ୍ଡର	-10731
▁ସ୍ୱର୍ଣ୍ଣପଦକ	-10732
▁ଆଣ୍ଟିବାୟୋଟିକ୍	-10733
▁କାର୍ଯ୍ୟକର୍ତ୍ତା	-10734
ya	-10735
ଧୂ	-10736
ane	-10737
duc	-10738
ree	-10739
ult	-10740
ବଳି	-10741
ାଗା	-10742
▁ଆଥ	-10743
emia	-10744
ନାଥନ	-10745
ମାତା	-10746
ାୟିତ	-10747
ୈତୃକ	-10748
୧୯୮୦	-10749
୧୯୯୮	-10750
▁ଇନି	-10751
▁ଉଡା	-10752
▁ଋପେ	-10753
▁ଗୁଲ	-10754
▁ତାଇ	-10755
▁ପହି	-10756
▁ପିକ	-10757
▁ରିଚ	-10758
▁ଷୋଳ	-10759
▁ସିଗ	-10760
▁ସୁଆ	-10761
ଚିହ୍ନ	-10762
ବଲ୍ଲଭ	-10763
ସେନାର	-10764
ାବିଲା	-10765
ାଲୁରୁ	-10766
▁ଉପାଦ	-10767
▁ଗଢ଼ା	-10768
▁ଗୀତି	-10769
▁ଘେରା	-10770
▁ଡେଣା	-10771
▁ଡେରା	-10772
▁ଡ୍ରେ	-10773
▁ତରୁଣ	-10774
▁ପାସ୍	-10775
▁ବୁଡ଼	-10776
▁ବ୍ରୁ	-10777
▁ଶୋଷଣ	-10778
▁ସେବେ	-10779
ଦିଆଯାଏ	-10780
▁ଅସମ୍ପ	-10781
▁ଇହୁଦୀ	-10782
▁ପାରିତ	-10783
▁ପୂର୍ଣ	-10784
▁ବୋଲିଂ	-10785
▁ଷ୍ଟକ୍	-10786
▁ସଞ୍ଚୟ	-10787
ଗୁଡିକରେ	-10788
▁ଉନବିଂଶ	-10789
▁କ୍ରୀଡ଼	-10790
▁ସିକ୍କି	-10791
▁ଆବୃତ୍ତି	-10792
▁ନିଦର୍ଶନ	-10793
▁ଫେରିଆସି	-10794
▁ବିକାଶରେ	-10795
▁ସପକ୍ଷରେ	-10796
▁ଅଭିମନ୍ୟୁ	-10797
▁ଗୁଡ଼ିକରେ	-10798
▁ଜେନେଟିକ୍	-10799
▁ପଠାଇଥିଲେ	-10800
▁ପୃଥିବୀକୁ	-10801
▁ବିପର୍ଯ୍ୟ	-10802
▁ମହାକାବ୍ୟ	-10803
▁ମୂଲ୍ୟବାନ	-10804
▁ସଂପର୍କରେ	-10805
▁ଜରୁରୀକାଳୀନ	-10806
▁ବିମାନବନ୍ଦର	-10807
▁ମସ୍ତିଷ୍କରେ	-10808
▁ମୃତ୍ୟୁବେଳକୁ	-10809
▁ଜ୍ୟୋତିର୍ଲିଙ୍ଗ	-10810
▁ଭୁବନେଶ୍ୱରଠାରୁ	-10811
HS	-10812
କଥ	-10813
ଗୌ	-10814
ବଟ	-10815
ୋଣ	-10816
own	-10817
ଚିକ	-10818
ପେଟ	-10819
ମେୟ	-10820
ରିୟ	-10821
▁ଅଖ	-10822
▁ଠେ	-10823
କ୍ୟା	-10824
ଟିଭ୍	-10825
ମୀରେ	-10826
ସେହି	-10827
ାଲରେ	-10828
ିତିକ	-10829
୨୦୧୮	-10830
▁ଆଉଟ	-10831
▁ଗ୍ଲ	-10832
▁ତ୍ୱ	-10833
▁ନାଶ	-10834
▁ନିଗ	-10835
▁ପଦ୍	-10836
▁ଫିନ	-10837
▁ଫେଲ	-10838
▁ବୁକ	-10839
କୋଷ୍ଠ	-10840
ଣ୍ଟିନ	-10841
ଫ୍ଲୁଏ	-10842
ମ୍ପିକ	-10843
ରେନ୍ସ	-10844
େସନରେ	-10845
୍ରୋତା	-10846
▁ଆଲଫା	-10847
▁ଛନ୍ଦ	-10848
▁ଠାରୁ	-10849
▁ଢାକା	-10850
▁ପାଗଳ	-10851
▁ଫୁଲର	-10852
▁ବିପୁ	-10853
▁ଭାଜି	-10854
▁ମେଡି	-10855
▁ସର୍ଜ	-10856
▁ୟୁନେ	-10857
ଫ୍ୟୁଜନ	-10858
ାଧ୍ୟାୟ	-10859
▁କୋର୍ଷ	-10860
▁ଗହ୍ୱର	-10861
▁ଗୋକୁଳ	-10862
▁ଟାଗୋର	-10863
▁ପଳାୟନ	-10864
▁ବେତାର	-10865
▁ମଡେଲ୍	-10866
▁ମାନେକ	-10867
▁ଶ୍ରେୟ	-10868
▁ସର୍ଦ୍	-10869
▁ସେଦିନ	-10870
ଦିଅନ୍ତି	-10871
▁ଅପୂର୍ବ	-10872
▁ଅମୃତସର	-10873
▁ଉତ୍କଳର	-10874
▁ଓପିଅଏଡ	-10875
▁କରାଇଲେ	-10876
▁ଗସ୍ତରେ	-10877
▁ତାଳଚେର	-10878
▁ତିନିଟି	-10879
▁ଫିଲ୍ମର	-10880
▁ବିଭୂତି	-10881
▁ମାଉଣ୍ଟ	-10882
▁ରାଉଣ୍ଡ	-10883
▁inhibit	-10884
▁ଉଦୟଗିରି	-10885
▁ଦିନିକିଆ	-10886
▁ପର୍ତ୍ତୁ	-10887
▁ପ୍ରତ୍ୟହ	-10888
▁ମଦନମୋହନ	-10889
▁ରଚନାବଳୀ	-10890
▁କ୍ୟାରିୟର	-10891
▁ଦମ୍ପତ୍ତି	-10892
▁ନ୍ୟୁୟର୍କ	-10893
▁ପ୍ରାବଧାନ	-10894
▁ମୂତ୍ରନଳୀ	-10895
▁ରୋଗୀଙ୍କୁ	-10896
▁ଷ୍ଟାଡିୟମ	-10897
▁କୋଲୋଜିୟମ୍	-10898
▁ହସ୍ତାନ୍ତର	-10899
▁କରିଥାଆନ୍ତି	-10900
▁ଦିଆଯାଉଥିଲା	-10901
▁ବଙ୍ଗୋପସାଗର	-10902
▁ଯବକ୍ଷାରଜାନ	-10903
▁କରିପାରିଥିଲେ	-10904
▁ଶିକ୍ଷାଗ୍ରହଣ	-10905
▁ସମ୍ମାନାର୍ଥେ	-10906
ଅବ	-10907
ୟଦ	-10908
ome	-10909
ଠରେ	-10910
ବିଆ	-10911
ସଲା	-10912
ସୃପ	-10913
ହାଇ	-10914
▁Or	-10915
▁ex	-10916
▁୬୧	-10917
high	-10918
ଞ୍ଚନ	-10919
ଡିରେ	-10920
ମ୍ରେ	-10921
ରିବା	-10922
ଲେଖା	-10923
ଲେଟର	-10924
ଶିଶୁ	-10925
ସେସ୍	-10926
ୀକାର	-10927
୍ରୋଲ	-10928
୧୯୮୨	-10929
୧୯୮୫	-10930
▁rec	-10931
▁କଣା	-10932
▁ଘଟେ	-10933
▁ଛାଇ	-10934
▁ପଟା	-10935
▁ଲାଓ	-10936
▁ସାଥ	-10937
ଡବ୍ଲୁ	-10938
▁anti	-10939
▁ଅଟ୍ଟ	-10940
▁ଅହମଦ	-10941
▁ଆଞ୍ଜ	-10942
▁ଇସ୍କ	-10943
▁କାକଟ	-10944
▁ଚାହା	-10945
▁ତିବ୍	-10946
▁ଦୁଷ୍	-10947
▁ନିମୋ	-10948
▁ବୁକ୍	-10949
▁ଭୋଟ୍	-10950
▁ଯୋଶୀ	-10951
▁ରସୁଣ	-10952
▁୧୯୧୦	-10953
ଶ୍ରେଣୀ	-10954
ସ୍ତାନୀ	-10955
ାନ୍ତରଣ	-10956
▁ଗାଙ୍ଗ	-10957
▁ଛାନ୍ଦ	-10958
▁ନାମଟି	-10959
▁ପରାଜୟ	-10960
▁ପୃଥକ୍	-10961
▁ଅପରେସନ	-10962
▁ଅଭିଧାନ	-10963
▁ଅସ୍ଥିର	-10964
▁ଗୁପ୍ତା	-10965
▁ଜଣଙ୍କର	-10966
▁ଜୀବଙ୍କ	-10967
▁ଜ୍ଞାନର	-10968
▁ବିପକ୍ଷ	-10969
▁ମୁହଁରେ	-10970
▁ସଙ୍କଳନ	-10971
▁ସୁଧାକର	-10972
▁ସ୍ୱାଗତ	-10973
▁କାମୁଡ଼ା	-10974
▁ଜନ୍ମଦିନ	-10975
▁ନୈବେଦ୍ୟ	-10976
▁ସ୍ୱେଚ୍ଛ	-10977
▁ଅଧିଗ୍ରହଣ	-10978
▁ଆୟୁର୍ବେଦ	-10979
▁ବିଶେଷତ୍ୱ	-10980
▁ମୟୁରଭଞ୍ଜ	-10981
▁ସମ୍ପାଦିତ	-10982
▁ହୋଇଆସୁଛି	-10983
▁ରଖାଯାଇଥାଏ	-10984
▁ସଂସ୍କୃତରେ	-10985
▁ସନ୍ଧ୍ୟାରେ	-10986
▁ସେତେବେଳକୁ	-10987
▁ବ୍ରହ୍ମାଙ୍କ	-10988
▁ସେଥିମଧ୍ୟରୁ	-10989
▁କରିଆସୁଛନ୍ତି	-10990
bl	-10991
ଉଳି	-10992
ଏସି	-10993
ଜକୁ	-10994
ଲକ୍	-10995
େରେ	-10996
୫୦୦	-10997
▁କ୍	-10998
▁ସଫ	-10999
ଟାରି	-11000
ବତୀୟ	-11001
ବାହୁ	-11002
ାପ୍ର	-11003
ୋଡିନ	-11004
୧୯୯୩	-11005
୧୯୯୬	-11006
୨୦୧୫	-11007
▁Com	-11008
▁ଆମ୍	-11009
▁ଉଡ଼	-11010
▁ଉଭା	-11011
▁ଏଡି	-11012
▁କୁର	-11013
▁ଛାୟ	-11014
▁ତୋର	-11015
▁ନାବ	-11016
କରିବା	-11017
କ୍ଟିଭ	-11018
ଡ଼ିକୁ	-11019
ଣ୍ଡିଂ	-11020
ମାନିକ	-11021
▁ଆମକୁ	-11022
▁ଏତଦ୍	-11023
▁ଥଣ୍ଟ	-11024
▁ଦ୍ରୋ	-11025
▁ପେନି	-11026
▁ପୋତା	-11027
▁ବୈଠକ	-11028
▁ବୋଇତ	-11029
▁ବ୍ୟୁ	-11030
▁ଭାଲୁ	-11031
▁ସାବତ	-11032
▁ହାଉସ	-11033
▁୩୦ଟି	-11034
ମ୍ବ୍ରି	-11035
୍ରାନ୍ତ	-11036
▁ଅପ୍ରେ	-11037
▁ଅଶ୍ରୁ	-11038
▁ଆପୋଲୋ	-11039
▁କ୍ଲୋର	-11040
▁ପେଟରେ	-11041
▁ପୈତୃକ	-11042
▁ଫିଲ୍ଡ	-11043
▁ବୁଡ଼ି	-11044
▁ମସଜିଦ	-11045
▁ମେକାନ	-11046
▁ଯୁବାବ	-11047
▁ରୋଗରୁ	-11048
▁ଷ୍ଟୋର	-11049
▁ସ୍କାନ	-11050
କାରୀଙ୍କ	-11051
▁ଅଭାବରୁ	-11052
▁ଅହମ୍ମଦ	-11053
▁କାଞ୍ଚି	-11054
▁ଗର୍ଭରୁ	-11055
▁ଗୀର୍ଜା	-11056
▁ଚକ୍ରଧର	-11057
▁ଦ୍ରାବି	-11058
▁ପଡ଼ିଛି	-11059
▁ଫୁସ୍ଫୁ	-11060
▁ବ୍ରାଜି	-11061
▁ମାୟାଧର	-11062
▁ଯେମିତି	-11063
▁ରଖିଥାଏ	-11064
▁ଲାଟିନ୍	-11065
▁ସୋମବାର	-11066
▁ଅନୁଗାମୀ	-11067
▁ଅବିଭକ୍ତ	-11068
▁କଳିଙ୍ଗର	-11069
▁ଲାଇବ୍ରେ	-11070
▁ସାରସ୍ୱତ	-11071
▁ସ୍ଟିରଏଡ	-11072
▁ଖାଦ୍ୟନଳୀ	-11073
▁ଡିପ୍ଲୋମା	-11074
▁ପଦୋନ୍ନତି	-11075
▁ମୁକାବିଲା	-11076
▁ଇଂରେଜମାନେ	-11077
▁ନିଷ୍କ୍ରିୟ	-11078
▁ବୈଶିଷ୍ଟ୍ୟ	-11079
▁ଲୋକଲୋଚନକୁ	-11080
▁ଦର୍ଶାଯାଇଛି	-11081
▁ବିଶ୍ୱକର୍ମା	-11082
▁ବିଷ୍ଣୁଙ୍କର	-11083
▁ସଙ୍କଟାପନ୍ନ	-11084
▁ପ୍ରିୟଦର୍ଶିନୀ	-11085
▁ଚଳଚ୍ଚିତ୍ରଟିରେ	-11086
▁ମେନିଞ୍ଜାଇଟିସ୍	-11087
.5	-11088
au	-11089
ଜକ	-11090
ରନ	-11091
ins	-11092
ost	-11093
ust	-11094
ଜିଂ	-11095
ନେଇ	-11096
ୋଦା	-11097
ୟର୍	-11098
▁ଅଯ	-11099
କାର୍	-11100
ଗ୍ରି	-11101
ଘାଟନ	-11102
ଟେରୀ	-11103
ପତ୍ୟ	-11104
ବଂଶର	-11105
ଲିମ୍	-11106
ାବଳି	-11107
ାମୃତ	-11108
ିତାଭ	-11109
ୟୁରେ	-11110
▁195	-11111
▁sup	-11112
▁ଇଂଜ	-11113
▁କାଚ	-11114
▁ଜୋନ	-11115
▁ଡେମ	-11116
▁ଦରଜ	-11117
▁ୱାର	-11118
ତାରିଖ	-11119
ପୁରାଣ	-11120
ବର୍ଷର	-11121
▁ଅଳେଇ	-11122
▁ଗଛରେ	-11123
▁ଗଣ୍ଠ	-11124
▁ଜଳକୁ	-11125
▁ତିରି	-11126
▁ବିନ୍	-11127
▁ମହାସ	-11128
▁ମେରୀ	-11129
▁ଲିଓନ	-11130
▁୧୯୧୧	-11131
ations	-11132
kidney	-11133
ାନ୍ତରେ	-11134
▁ଅକ୍ଷମ	-11135
▁ଏନସେଫ	-11136
▁କାଲୁଆ	-11137
▁କ୍ଲାଉ	-11138
▁ତାରକା	-11139
▁ବୈତରଣ	-11140
▁ସବୁକୁ	-11141
▁ସୁଧାର	-11142
▁ଆମଦାନୀ	-11143
▁ଇଞ୍ଜିନ	-11144
▁ଗଚ୍ଛିତ	-11145
▁ନବାଗତା	-11146
▁ପଡିଥାଏ	-11147
▁ବାଟାଲି	-11148
▁ବ୍ୟାପେ	-11149
▁ଭେଦଭାବ	-11150
▁ମୁନ୍ନା	-11151
▁ରୋଗୀକୁ	-11152
▁ଲଗାତାର	-11153
▁ଶ୍ରୀତମ	-11154
▁ସମାବେଶ	-11155
▁ସିରିଜ୍	-11156
▁ସୁଜାତା	-11157
▁ସେଠାକୁ	-11158
▁ସ୍ଥାନେ	-11159
▁ଅବସ୍ଥାର	-11160
▁କନ୍ଧମାଳ	-11161
▁କସ୍ତୁରୀ	-11162
▁ଦେଖନ୍ତୁ	-11163
▁ଦେବଦେବୀ	-11164
▁ପ୍ରାସାଦ	-11165
▁ବସିଥିବା	-11166
▁ବାଘମାନେ	-11167
▁ବିଶାଖାପ	-11168
▁ମୌର୍ଯ୍ୟ	-11169
▁ଶକ୍ତିକୁ	-11170
▁ଶିଶୁଙ୍କ	-11171
▁ହୀରାକୁଦ	-11172
▁ହୋଇପଡ଼ି	-11173
ପାରିନଥିଲା	-11174
▁ଅସୁସ୍ଥତା	-11175
▁ଓଡ଼ିଶାକୁ	-11176
▁ପରିବାରକୁ	-11177
▁ପିତାଙ୍କର	-11178
▁ମ୍ୟୁଟେସନ	-11179
▁ଲେଖାଲେଖି	-11180
▁ଶ୍ରୀଶ୍ରୀ	-11181
▁ସୀତାଙ୍କୁ	-11182
▁ବନ୍ୟଜନ୍ତୁ	-11183
▁ମହାଦେବଙ୍କ	-11184
▁ସର୍ବୋତ୍ତମ	-11185
▁ସେରୋଟୋନିନ	-11186
▁ପାକିସ୍ଥାନର	-11187
▁ବନ୍ୟପ୍ରାଣୀ	-11188
▁ଲୋକଙ୍କଠାରେ	-11189
▁ହିନ୍ଦୁସ୍ଥାନ	-11190
).	-11191
ଜମ	-11192
ଲସ	-11193
ଶତ	-11194
ana	-11195
ore	-11196
ven	-11197
ଗିଲ	-11198
ାଗି	-11199
▁ରୀ	-11200
▁୮୧	-11201
ସିପା	-11202
ହାତି	-11203
ାଇକ୍	-11204
▁ଆଗତ	-11205
▁ଓମ୍	-11206
▁ଚଟା	-11207
▁ନକଲ	-11208
▁ଫୋନ	-11209
▁ଭେଷ	-11210
▁ଶହେ	-11211
▁ଶୁଆ	-11212
▁ସବ୍	-11213
▁ସିଆ	-11214
▁ହାଡ	-11215
ଫ୍ରିନ	-11216
ରେସନ୍	-11217
ହାବାଦ	-11218
ୋକାର୍	-11219
▁ଆଙ୍କ	-11220
▁ଉପରି	-11221
▁କାତି	-11222
▁କୁନା	-11223
▁ଛଦ୍ମ	-11224
▁ଡିଭି	-11225
▁ତହିଁ	-11226
▁ଫଣ୍ଡ	-11227
▁ବାଡ଼	-11228
▁ମୂଳା	-11229
▁ଯୌନା	-11230
▁ଲେଡି	-11231
▁୧୫୦୦	-11232
ବୀକ୍ଷଣ	-11233
ମେଣ୍ଟର	-11234
ିନଥିଲା	-11235
▁ଅଖଣ୍ଡ	-11236
▁ଅରୁଚି	-11237
▁ଏଯାବତ	-11238
▁କାର୍ଡ	-11239
▁ଚଳପ୍ର	-11240
▁ବିପୁଳ	-11241
▁ବିରଜା	-11242
▁ବୁଢ଼ା	-11243
▁ଶଯ୍ୟା	-11244
▁ସଞ୍ଜୁ	-11245
▁ସଶକ୍ତ	-11246
ପେକ୍ଷିକ	-11247
▁ଖଣ୍ଡରେ	-11248
▁ଖବରକାଗ	-11249
▁ନିଶ୍ଚୟ	-11250
▁ନେପାଳୀ	-11251
▁ପରିସ୍ର	-11252
▁ପର୍ଣ୍ଣ	-11253
▁ପୁନର୍ଜ	-11254
▁ଫାଇନାଲ	-11255
▁ଭାରତରୁ	-11256
▁ସଂଗଠିତ	-11257
▁ସରବରାହ	-11258
▁୧୯୮୦ରେ	-11259
▁୧୯୯୧ରେ	-11260
▁ଅନୁରାଧା	-11261
▁ଆକ୍ରମଣର	-11262
▁କାନୁନଗୋ	-11263
▁ନିଷ୍ପତି	-11264
▁ପାର୍ଲିଆ	-11265
▁ବିନିଯୋଗ	-11266
▁ଷଡ଼ଙ୍ଗୀ	-11267
▁ଅଭିଯାନରେ	-11268
▁ଅଭିଯୁକ୍ତ	-11269
▁କାହାଣୀକୁ	-11270
▁ନିର୍ମାଣର	-11271
▁ନୁହଁନ୍ତି	-11272
▁ମଣ୍ଡଳୀରେ	-11273
▁ରାଜାଙ୍କର	-11274
▁ଲୋକନୃତ୍ୟ	-11275
▁ସେତେବେଳର	-11276
▁ହୋଇନଥିଲା	-11277
▁ପ୍ରୋତ୍ସାହନ	-11278
▁କରୁଥିବାବେଳେ	-11279
▁ଗାନ୍ଧିଜୀଙ୍କ	-11280
▁ଦେଖାଯାଇଥିଲା	-11281
▁ପଶ୍ଚିମବଙ୍ଗର	-11282
▁ସାମ୍ବାଦିକତା	-11283
▁ହୋଇଥିବାବେଳେ	-11284
▁ଶଙ୍କରାଚାର୍ଯ୍ୟ	-11285
10	-11286
SC	-11287
ari	-11288
ଖୋଲ	-11289
ଦେହ	-11290
ଧିଆ	-11291
ଲୀପ	-11292
ସ୍ଯ	-11293
େଶନ	-11294
▁ଲକ	-11295
▁ଶଶ	-11296
ଟାରେ	-11297
ନ୍ତେ	-11298
ନ୍ଧୁ	-11299
ପାହା	-11300
ପୁରମ	-11301
ଯେଉଁ	-11302
ୀଦାର	-11303
େଟାମ	-11304
▁Act	-11305
▁ଆପ୍	-11306
▁ଗିଲ	-11307
▁ଜୟା	-11308
▁ମୁଗ	-11309
▁ରତନ	-11310
▁ସରୀ	-11311
▁ସୁସ	-11312
▁ହାଟ	-11313
▁ହୁଅ	-11314
ଗ୍ରାର	-11315
ଲିୟମ୍	-11316
▁ଆଇପି	-11317
▁ଆନ୍ଥ	-11318
▁ଦଇତା	-11319
▁ଦ୍ରୁ	-11320
▁ବରୁଣ	-11321
▁ଭୂଇଁ	-11322
▁ଭୂତଳ	-11323
▁ଭେଷଜ	-11324
▁ଷ୍ଟେ	-11325
▁ସଜାଇ	-11326
▁୧୪ଟି	-11327
ଅନୁବାଦ	-11328
ଗର୍ତ୍ତ	-11329
ସ୍ଥାରୁ	-11330
ୁର୍ତ୍ତ	-11331
▁ଆଉଥରେ	-11332
▁ଆସନରୁ	-11333
▁ଗଣ୍ଡା	-11334
▁ଦ୍ୱିପ	-11335
▁ବିକାର	-11336
▁ସଂକେତ	-11337
▁ସେବାର	-11338
▁ସ୍ପେନ	-11339
▁ହୁମାୟ	-11340
କୀର୍ଣ୍ଣ	-11341
ପୂର୍ବରୁ	-11342
ସ୍ପନ୍ଦନ	-11343
▁cancer	-11344
▁ଆସିବାର	-11345
▁ଚାଲିବା	-11346
▁ଡିମ୍ବା	-11347
▁ତୃପ୍ତି	-11348
▁ଦୀପିକା	-11349
▁ଧାରାରେ	-11350
▁ପଞ୍ଚାୟ	-11351
▁ଯୋଗଦେଇ	-11352
▁ଶିଖିବା	-11353
▁ଶୁଣିବା	-11354
▁ସଂସଦୀୟ	-11355
▁ସ୍ତରୀୟ	-11356
ଚୁମ୍ବକୀୟ	-11357
ର୍ଯ୍ୟୋଧନ	-11358
▁ଅନୁବାଦକ	-11359
▁ଏହାଛଡ଼ା	-11360
▁ଟେଷ୍ଟରେ	-11361
▁ପଢୁଥିବା	-11362
▁ବାହାଦୁର	-11363
▁ପଢ଼ୁଥିଲେ	-11364
▁ହିନ୍ଦୀରେ	-11365
▁ଚନ୍ଦ୍ରଭାଗ	-11366
▁ଚିକିତ୍ସିତ	-11367
▁ଝାଡ଼ଖଣ୍ଡର	-11368
▁ବେଙ୍ଗାଲୁରୁ	-11369
▁ଦେଖାଯାଆନ୍ତି	-11370
amp	-11371
unc	-11372
କସନ	-11373
କୁର	-11374
ଡି଼	-11375
ଦିଗ	-11376
ନିତ	-11377
ନ୍ର	-11378
ଫାନ	-11379
ବଳୀ	-11380
ଲିର	-11381
ଲୋର	-11382
▁ଗର	-11383
▁ନଈ	-11384
▁ହଇ	-11385
land	-11386
ward	-11387
ଚାଲି	-11388
ଡେନ୍	-11389
ଣ୍ଟ୍	-11390
ନ୍ଧର	-11391
ପ୍ସି	-11392
ବାନ୍	-11393
ରିରେ	-11394
ୁଦ୍ଧ	-11395
▁ଅଜା	-11396
▁ଅବୟ	-11397
▁ଉଷା	-11398
▁କଂସ	-11399
▁କୂଳ	-11400
▁ଘୁଷ	-11401
▁ଠାବ	-11402
▁ପଟୁ	-11403
▁ବୋଉ	-11404
▁ରତ୍	-11405
enter	-11406
ଦ୍ୱାଜ	-11407
ବନ୍ଧନ	-11408
ଶୂନ୍ୟ	-11409
ାପ୍ରା	-11410
ିବ୍ରି	-11411
ୋବନ୍ତ	-11412
▁ଅତିକ	-11413
▁ଆର୍କ	-11414
▁କାଲା	-11415
▁ଗଦ୍ୟ	-11416
▁ଗିନି	-11417
▁ଘୁମୁ	-11418
▁ଚତୁର	-11419
▁ଜାରୀ	-11420
▁ନଗରର	-11421
▁ସୂଚୀ	-11422
▁ହୁଏତ	-11423
▁୧୮୦୦	-11424
▁୨୦ଟି	-11425
epress	-11426
ପାଳିକା	-11427
▁ଇସ୍ରୋ	-11428
▁ତ୍ରିଶ	-11429
▁ନ୍ୟୁର	-11430
▁ପାନ୍ଥ	-11431
▁ରକେଟ୍	-11432
▁ରବର୍ଟ	-11433
ଖ୍ରୀଷ୍ଟ	-11434
ଯାଉଥିଲେ	-11435
▁system	-11436
▁ଅଦ୍ଭୁତ	-11437
▁ଏକବିଂଶ	-11438
▁କାର୍ବନ	-11439
▁ଖିଆଯାଏ	-11440
▁ଖୋଲିବା	-11441
▁ତେନ୍ତୁ	-11442
▁ନିକଟତର	-11443
▁ନିବେଦନ	-11444
▁ପତ୍ରକୁ	-11445
▁ଭାଷାରୁ	-11446
▁ମୁଦୁଲି	-11447
▁ସବିଶେଷ	-11448
▁ଅଟୋଇମ୍ମ	-11449
▁କାହାଣୀର	-11450
▁ତ୍ରିକୋଣ	-11451
▁ଦେଖାଦେଇ	-11452
▁ଦେଖାଯାଇ	-11453
▁ପର୍ବତରେ	-11454
▁ପ୍ରତିଫଳ	-11455
▁ବିବାହିତ	-11456
▁ବ୍ରୋଙ୍କ	-11457
▁ମିନିଟରୁ	-11458
▁ଶ୍ରୀମତୀ	-11459
▁ଆପେକ୍ଷିକ	-11460
▁କ୍ୟାରିଅର	-11461
▁ଦକ୍ଷିଣକୁ	-11462
▁ପାରିଥିଲେ	-11463
▁ଫେରିଥିଲେ	-11464
▁ବିଧାୟିକା	-11465
▁ବିଧିବଦ୍ଧ	-11466
▁ଭାଷାଭାଷୀ	-11467
▁ଭେଟିଥିଲେ	-11468
▁ରହିଥିବାର	-11469
▁ସମାଜବାଦୀ	-11470
▁ପୃଷ୍ଠଭୂମି	-11471
▁ବ୍ୟତିକ୍ରମ	-11472
▁ରୋଗଗ୍ରସ୍ତ	-11473
▁ଟେଲିସ୍କୋପ୍	-11474
▁ଭୁବନେଶ୍ୱରୀ	-11475
▁ମାଲକାନଗିରି	-11476
▁ସମ୍ବେଦନଶୀଳ	-11477
▁ରାଜ୍ୟଗୋଷ୍ଠୀ	-11478
▁ଗ୍ରାମାଞ୍ଚଳରେ	-11479
▁ଇନ୍ଦ୍ରଦ୍ୟୁମ୍ନ	-11480
Al	-11481
ଆଲ	-11482
ଘଟ	-11483
dis	-11484
ଲିଟ	-11485
ାଲର	-11486
େକେ	-11487
▁ଅା	-11488
▁ଇମ	-11489
▁ଝର	-11490
▁ନଦ	-11491
▁ମଲ	-11492
▁ଲଭ	-11493
ches	-11494
ଚନାର	-11495
ଚ୍ଛେ	-11496
ଜିମ୍	-11497
ଟଙ୍କ	-11498
ରେଟ୍	-11499
▁ଚେସ	-11500
▁ଜିଓ	-11501
▁ଥକା	-11502
▁୬୦୦	-11503
ଧର୍ମର	-11504
ନିର୍ମ	-11505
ସ୍ଟ୍ର	-11506
ିନାମା	-11507
▁ଅନ୍ଯ	-11508
▁ବାଦନ	-11509
▁ମାରା	-11510
▁ରାଣା	-11511
▁ରୟାଲ	-11512
teroid	-11513
କର୍ଣ୍ଣ	-11514
ଭୂତାଣୁ	-11515
ହାସନରେ	-11516
▁କ୍ୟାଥ	-11517
▁ଜେମ୍ସ	-11518
▁ବିସ୍ଫ	-11519
▁ମାଇଲ୍	-11520
▁ମୁଖିଆ	-11521
▁ରଖିଛି	-11522
▁ସଙ୍କୁ	-11523
ଦେଇଥିଲା	-11524
▁ଅନନ୍ୟା	-11525
▁ଅଭିଜ୍ଞ	-11526
▁ଓହ୍ଲାଇ	-11527
▁କାନୁନ୍	-11528
▁ବୋର୍ଡ଼	-11529
▁ଭାସ୍କର	-11530
▁ଶବ୍ଦକୁ	-11531
▁ସଂସଦରେ	-11532
▁ସୋସିଆଲ	-11533
▁ଆଶ୍ରମରେ	-11534
▁ଧରିତ୍ରୀ	-11535
▁ନନ୍ଦିନୀ	-11536
▁ନିର୍ମଳା	-11537
▁ଫ୍ରେଞ୍ଚ	-11538
▁ମହୁମାଛି	-11539
▁ଶୃଙ୍ଖଳା	-11540
▁କରୁଥିବାର	-11541
▁ପ୍ରକୋଷ୍ଠ	-11542
▁ପ୍ରତିଶୋଧ	-11543
▁ଫେବୃୟାରୀ	-11544
▁ଲାଗିଥିବା	-11545
▁ଶାସକମାନେ	-11546
▁ସର୍ବାଙ୍ଗ	-11547
▁ବିବର୍ତ୍ତନ	-11548
▁ବ୍ୟବସାୟରେ	-11549
▁ମିଳେନାହିଁ	-11550
▁ଲେଖାଯାଇଛି	-11551
▁ଅଣନିଶ୍ୱାସୀ	-11552
▁କାର୍ତ୍ତିକେୟ	-11553
▁କୃଷ୍ଣଗର୍ତ୍ତ	-11554
▁ଜନସାଧାରଣଙ୍କ	-11555
▁ତୀର୍ଥଯାତ୍ରୀ	-11556
▁ଶ୍ୟାମସୁନ୍ଦର	-11557
▁ଅତ୍ୟାବଶ୍ୟକୀୟ	-11558
);	-11559
AS	-11560
so	-11561
ପସ	-11562
ale	-11563
gan	-11564
lob	-11565
oll	-11566
ଜଣା	-11567
ଜାଇ	-11568
ଲ୍ଥ	-11569
▁An	-11570
▁ଉମ	-11571
▁ଶୌ	-11572
ଂସ୍ୟ	-11573
ବନ୍ତ	-11574
ମାନର	-11575
ଯୋଗୀ	-11576
୧୯୮୧	-11577
୨୦୧୬	-11578
▁Pro	-11579
▁ଅବନ	-11580
▁ଇଜି	-11581
▁ଗାଜ	-11582
▁ଚୂନ	-11583
▁ପରଳ	-11584
▁ପୌଷ	-11585
▁ମନର	-11586
▁ସାଏ	-11587
ଗଙ୍ଗା	-11588
ଣ୍ଡ୍ର	-11589
ପୁରକୁ	-11590
ର୍ଥ୍ୟ	-11591
▁ଆଚ୍ଛ	-11592
▁ଆଦାନ	-11593
▁କଲାମ	-11594
▁କୁହୁ	-11595
▁କ୍ଷମ	-11596
▁ବନାର	-11597
▁ବାନର	-11598
▁ବିମଳ	-11599
▁ମୂଳଦ	-11600
▁ରେଶମ	-11601
▁ଲାର୍	-11602
▁ସୃଜନ	-11603
ମୋନାରି	-11604
ଶ୍ୱେତା	-11605
▁ଆର୍ଟି	-11606
▁କରୁଣା	-11607
▁କ୍ଷରଣ	-11608
▁ଡ୍ରାଇ	-11609
▁ଧୁମ୍ର	-11610
▁ନାମକୁ	-11611
▁ଶାମ୍ବ	-11612
▁ଷୋଡ଼ଶ	-11613
ସ୍ଟିରଏଡ	-11614
ହୂର୍ତ୍ତ	-11615
▁ଅଙ୍ଗାର	-11616
▁ଅନ୍ୟଟି	-11617
▁ଅହିଂସା	-11618
▁ଉତ୍ସାହ	-11619
▁ଋଷିଙ୍କ	-11620
▁କାହ୍ନୁ	-11621
▁ଗତିଶୀଳ	-11622
▁ଜଣାଯାଇ	-11623
▁ପାରସ୍ୟ	-11624
▁ପୁଷ୍କର	-11625
▁ପ୍ଲାଟେ	-11626
▁ମୋଟାପଣ	-11627
▁ସରୀସୃପ	-11628
▁୧୯୮୪ରେ	-11629
▁୧୯୯୫ରେ	-11630
େଶ୍ୱରଙ୍କ	-11631
▁ଆଣିବାକୁ	-11632
▁ଏହିଠାରେ	-11633
▁କୋଲକାତା	-11634
▁ଚିହ୍ନିତ	-11635
▁ଦେଖାଗଲା	-11636
▁ପାହାଡ଼ର	-11637
▁ପ୍ରାଧିକ	-11638
▁ବିବିଧତା	-11639
▁ସୂତ୍ରରେ	-11640
▁reaction	-11641
▁ଫକୀରମୋହନ	-11642
▁ମହାପୁରୁଷ	-11643
▁ସିଣ୍ଡ୍ରୋ	-11644
▁ସିନେମାରେ	-11645
▁ବିଶ୍ୱକପରେ	-11646
▁ବ୍ୟକ୍ତିକୁ	-11647
▁ପାଣ୍ଡୁଲିପି	-11648
▁ବ୍ରହ୍ମାଣ୍ଡ	-11649
▁ସୁଭଦ୍ରାଙ୍କ	-11650
▁ଅଚ୍ୟୁତାନନ୍ଦ	-11651
▁ବ୍ରିଟିଶମାନେ	-11652
▁ପୂର୍ବବର୍ତ୍ତୀ	-11653
▁ଆନ୍ଧ୍ରପ୍ରଦେଶର	-11654
▁ଲକ୍ଷ୍ମୀନାରାୟଣ	-11655
"।	-11656
di	-11657
Ind	-11658
urg	-11659
ଆଦି	-11660
ପିର	-11661
ଭାସ	-11662
ମହି	-11663
ଳିର	-11664
ଶାସ	-11665
ସାଧ	-11666
ସିଭ	-11667
ୋହର	-11668
▁(,	-11669
▁De	-11670
▁ଗଢ	-11671
▁ମଶ	-11672
▁ଯଥ	-11673
▁୭୧	-11674
enti	-11675
କେଲ୍	-11676
ନ୍ସ୍	-11677
ବେଳୁ	-11678
ମିତା	-11679
ମ୍ଫା	-11680
ର୍କି	-11681
ଲାଣି	-11682
ହସ୍ତ	-11683
ାନ୍ନ	-11684
ୋନିକ	-11685
▁କାପ	-11686
▁ଗୁର	-11687
▁ଧ୍ୟ	-11688
▁ପରୋ	-11689
▁ଫୋର	-11690
▁ମନ୍	-11691
▁ମେଁ	-11692
▁ଶୁଖ	-11693
▁ସଳଖ	-11694
▁ହାଲ	-11695
ଉତ୍ତର	-11696
ଙ୍କସନ	-11697
ଲେକ୍ସ	-11698
ୱାର୍ଡ	-11699
▁ଅଫିସ	-11700
▁ଉଗ୍ର	-11701
▁କାଠି	-11702
▁ଗଛକୁ	-11703
▁ଗର୍ବ	-11704
▁ତାରକ	-11705
▁ନହୋଇ	-11706
▁ନ୍ଯା	-11707
▁ପଦରୁ	-11708
▁ପରଶୁ	-11709
▁ବାଘର	-11710
▁ବେତନ	-11711
▁ମେଗା	-11712
ଦ୍ୱୀପର	-11713
ମେଟ୍ରି	-11714
ସଙ୍ଗୀତ	-11715
▁ଅଜନ୍ତ	-11716
▁ଅଳେଇଚ	-11717
▁ଖଞ୍ଜା	-11718
▁ଚଣ୍ଡି	-11719
▁ପନ୍ଦର	-11720
▁ବଚ୍ଚନ	-11721
▁ବୁନ୍ଦ	-11722
▁ବୋଡ଼ା	-11723
▁ଭୈରବୀ	-11724
▁ସକାଳୁ	-11725
ବୀର୍ଯ୍ୟ	-11726
ସଂସ୍କୃତ	-11727
▁ଅନୁକରଣ	-11728
▁ଆକୃତିର	-11729
▁ଆଲଗୋରି	-11730
▁କଙ୍କାଳ	-11731
▁ଛୋଟରାୟ	-11732
▁ତଥ୍ୟକୁ	-11733
▁ବଟିକାର	-11734
▁ବିବାହର	-11735
▁ବୈତରଣୀ	-11736
▁ରଖାଗଲା	-11737
▁ଲିପିରେ	-11738
▁ସଦାଶିବ	-11739
▁ସମ୍ବିତ	-11740
▁ସିହ୍ନା	-11741
ାବସ୍ଥାରେ	-11742
▁ଉପକୂଳରେ	-11743
▁ଗ୍ରାମ୍ୟ	-11744
▁ଚଳପ୍ରଚଳ	-11745
▁ନିୟୁତରୁ	-11746
▁ନେପାଳରେ	-11747
▁ପଶ୍ଚିମା	-11748
▁ପାରଦର୍ଶ	-11749
▁ବନ୍ୟଜୀବ	-11750
▁ବାହିନୀର	-11751
▁ଲକ୍ଷ୍ନୌ	-11752
▁ଶିକ୍ଷିତ	-11753
▁ସମ୍ବୋଧନ	-11754
▁ସିକନ୍ଦର	-11755
ପ୍ରେସାଣ୍ଟ	-11756
▁ଜୟପ୍ରକାଶ	-11757
▁ପଞ୍ଜାବରେ	-11758
▁ପଢ଼ୁଥିବା	-11759
▁ପରିଷ୍କାର	-11760
▁ବାଲ୍ୟକାଳ	-11761
▁ଲିମ୍ଫୋମା	-11762
▁ଅନୁପ୍ରବେଶ	-11763
▁ସମ୍ବଲପୁରର	-11764
ପ୍ରଜାତନ୍ତ୍ର	-11765
▁ପାର୍ବତୀଙ୍କ	-11766
ଛ୍	-11767
ହଲ	-11768
ech	-11769
ଖିକ	-11770
ନାୟ	-11771
ମାଦ	-11772
ଷଠି	-11773
ହରେ	-11774
▁24	-11775
▁As	-11776
▁୯୨	-11777
asis	-11778
irth	-11779
ଚରିତ	-11780
ଧ୍ୱଜ	-11781
ବାଳକ	-11782
ବିଜୟ	-11783
ମାଟି	-11784
୧୯୭୭	-11785
▁କାଟ	-11786
▁କୁଆ	-11787
▁ମେହ	-11788
ଣ୍ଡୋଜ	-11789
ରାବାଦ	-11790
ରୀକରଣ	-11791
▁with	-11792
▁ଆଜାଦ	-11793
▁ଉଲ୍ଲ	-11794
▁କପରେ	-11795
▁କୌରବ	-11796
▁ଚତୁଃ	-11797
▁ନିରୁ	-11798
▁ବାଜା	-11799
▁ବାଦଲ	-11800
▁ବୋହୂ	-11801
▁ମୋତି	-11802
▁ରୁଟି	-11803
▁ୱାନ୍	-11804
ିନଥିଲେ	-11805
▁ଅବଶୋଷ	-11806
▁ଆଣ୍ଡ୍	-11807
▁ଉତ୍ତେ	-11808
▁କୋଣରେ	-11809
▁କ୍ରିମ	-11810
▁ଘଟିଲା	-11811
▁ଚୀନରେ	-11812
▁ପଙ୍କଜ	-11813
▁ବନବାସ	-11814
▁ବ୍ୟାପ	-11815
▁ସମାପନ	-11816
▁ସେସବୁ	-11817
▁ସୋରେନ	-11818
ଅର୍ଥାତ୍	-11819
▁ଅନୁରୂପ	-11820
▁ଅସୁବିଧ	-11821
▁ଆଇସିସି	-11822
▁ଆରାଧ୍ୟ	-11823
▁କାହାକୁ	-11824
▁ଘନିଷ୍ଠ	-11825
▁ଝିଅଙ୍କ	-11826
▁ସିଂଙ୍କ	-11827
▁ସ୍ପେସ୍	-11828
▁ସ୍ୱଭାବ	-11829
▁୧୯୯୭ରେ	-11830
ବିଜ୍ଞାନୀ	-11831
ସିପାଲିଟି	-11832
ାପ୍ରାପ୍ତ	-11833
▁ଝିଅମାନେ	-11834
▁ଦୂରତାରେ	-11835
▁ନବରାତ୍ର	-11836
▁ନୀଳମାଧବ	-11837
▁ପ୍ରେମରେ	-11838
▁ବେଦାନ୍ତ	-11839
▁ବୌଦ୍ଧିକ	-11840
▁ଯଶୋବନ୍ତ	-11841
▁ଯାତ୍ରାର	-11842
▁ସୀମାନ୍ତ	-11843
▁ଉତ୍କଣ୍ଠା	-11844
▁କାନୁନ୍ଗୋ	-11845
▁କ୍ରିକେଟର	-11846
▁ନୀଳାଦ୍ରି	-11847
▁ପଡ଼ୁଥିଲା	-11848
▁ପହଞ୍ଚିଲେ	-11849
▁ପିତାଙ୍କୁ	-11850
▁ପ୍ରକୃତିକ	-11851
▁ବାହାରିବା	-11852
▁ଚତୁର୍ଦ୍ଦଶ	-11853
▁ଦୁର୍ଭିକ୍ଷ	-11854
▁ନୂଆଦିଲ୍ଲୀ	-11855
▁ରଖିଥାନ୍ତି	-11856
▁ସମାନ୍ତରାଳ	-11857
▁ଦୁର୍ଯ୍ୟୋଧନ	-11858
▁ପାରଳାଖେମୁଣ୍ଡି	-11859
▁ମନ୍ତ୍ରୀମଣ୍ଡଳରେ	-11860
aj	-11861
ଉର	-11862
ଧୁ	-11863
els	-11864
ଉନ୍	-11865
କାଠ	-11866
ମତେ	-11867
▁hy	-11868
▁୮୭	-11869
chem	-11870
ଧ୍ୟା	-11871
ବ୍ଧି	-11872
ଭାମା	-11873
ମିଳି	-11874
ମ୍ବଲ	-11875
ଲାର୍	-11876
ଲିଅମ	-11877
ଷ୍ଠା	-11878
୧୯୯୧	-11879
ୱାଲା	-11880
▁ଅଟଳ	-11881
▁ଓପନ	-11882
▁ଔରସ	-11883
▁ଛପା	-11884
▁ଛାପ	-11885
▁ବଣି	-11886
▁ବୈଧ	-11887
▁ଯେତ	-11888
▁ଲଘୁ	-11889
▁ଲୀଳ	-11890
▁ଶୁଣ	-11891
▁ସେବ	-11892
ଦେଶୀୟ	-11893
ବାଡ଼ି	-11894
ବିବାହ	-11895
ମୁଦ୍ର	-11896
ଲାକ୍ଟ	-11897
ସ୍ତାଦ	-11898
ାବେରୀ	-11899
▁ଉପନି	-11900
▁କୋଠା	-11901
▁ଟେକି	-11902
▁ଡେଇଁ	-11903
▁ପରିଯ	-11904
▁ବକ୍ର	-11905
▁ମାଉସ	-11906
▁ମାଳି	-11907
▁ସାଥି	-11908
▁ହେପା	-11909
▁୧୩ଟି	-11910
ଭିମୁଖୀ	-11911
ମ୍ୟାନ୍	-11912
ରାତ୍ରୀ	-11913
ରୁଥିବା	-11914
ଶାଳାରେ	-11915
ସ୍ଥାପନ	-11916
ୁଛନ୍ତି	-11917
▁ଆଦିକୁ	-11918
▁ଇକୋନୋ	-11919
▁ଇଲାକା	-11920
▁କଲୋନୀ	-11921
▁ଚାଳିତ	-11922
▁ଦିଲୀପ	-11923
▁ଦ୍ରବଣ	-11924
▁ମଞ୍ଜୁ	-11925
▁ମୂଳତଃ	-11926
▁ମେଣ୍ଢ	-11927
▁ରଶ୍ମି	-11928
▁ଲେଖନୀ	-11929
▁ସରିବା	-11930
▁ସାରଥୀ	-11931
ସ୍କୁଲାର	-11932
ସ୍ଥାନରେ	-11933
▁ଅମିତାଭ	-11934
▁ଈଂରାଜୀ	-11935
▁ଉଭୟଙ୍କ	-11936
▁ଜଣାପଡେ	-11937
▁ଜଷ୍ଟିସ	-11938
▁ଜିତିବା	-11939
▁ଜୁନିୟର	-11940
▁ଦିବ୍ୟା	-11941
▁ପିଲାଟି	-11942
▁ପୂଜାରେ	-11943
▁ବଳିଷ୍ଠ	-11944
▁ମୋହିନୀ	-11945
▁ରୁକ୍ମି	-11946
▁ସମିତିର	-11947
▁୧୯୮୬ରେ	-11948
ନ୍ଦ୍ରନାଥ	-11949
୍ରିକୁଲାର	-11950
▁ଆର୍ଯ୍ୟଭ	-11951
▁ଆଲକୋହୋଲ	-11952
▁ଗ୍ରାମକୁ	-11953
▁ଟ୍ୟାଙ୍କ	-11954
▁ଡବ୍ଲ୍ୟୁ	-11955
▁ନେଉଥିବା	-11956
▁ପଞ୍ଚାନନ	-11957
▁ପଦାର୍ପଣ	-11958
▁ପରିଚାଳକ	-11959
▁ସମ୍ଭାଳି	-11960
▁ସିଷ୍ଟମ୍	-11961
▁ସୀତାଙ୍କ	-11962
▁ସ୍ମାର୍ଟ	-11963
ଲ୍ୟାଣ୍ଡରେ	-11964
▁ଅହମଦାବାଦ	-11965
▁କ୍ରାନ୍ତି	-11966
▁ଦୁର୍ଗାପୂ	-11967
▁ଫଳସ୍ୱରୂପ	-11968
▁ଭାଙ୍ଗିବା	-11969
▁ସମାରୋହରେ	-11970
▁ସିରୋସିସ୍	-11971
▁ସୁସଜ୍ଜିତ	-11972
▁ତୁଲାଇଥିଲେ	-11973
▁ମହାଶ୍ୱେତା	-11974
▁ଅଭୟାରଣ୍ୟରେ	-11975
▁ଏପର୍ଯ୍ୟନ୍ତ	-11976
▁ମଧ୍ୟପ୍ରଦେଶ	-11977
▁ଆଫଗାନିସ୍ତାନ	-11978
▁ପ୍ରଜାତନ୍ତ୍ର	-11979
ଇର	-11980
କୌ	-11981
ଗନ	-11982
ଶୃ	-11983
ick	-11984
କେଟ	-11985
ନିଜ	-11986
ପାଏ	-11987
ପୋର	-11988
ଭାଲ	-11989
ରୁଆ	-11990
ଲିଗ	-11991
ଳତା	-11992
▁ଚଟ	-11993
▁ଧର	-11994
▁ଫୌ	-11995
▁୮୮	-11996
କମ୍ପ	-11997
ଗୋଲା	-11998
ପଦ୍ମ	-11999
ପୁରି	-12000
ପେୟୀ	-12001
ମାୟା	-12002
ହୁଡ଼	-12003
ାସ୍ତ	-12004
ୋନିଆ	-12005
▁ଆଡେ	-12006
▁କିସ	-12007
▁କୁତ	-12008
▁ନିଓ	-12009
▁ନେକ	-12010
▁ଭୁଟ	-12011
▁ରାବ	-12012
▁ରିଜ	-12013
▁ସମର	-12014
ଓଡ଼ିଶ	-12015
ନିଷ୍ଟ	-12016
ପିଣ୍ଡ	-12017
ରାଙ୍ଗ	-12018
ର୍ଷରେ	-12019
▁from	-12020
▁ଅତଏବ	-12021
▁ଅମ୍ର	-12022
▁ଉଡାଣ	-12023
▁କବାଟ	-12024
▁କୋମଳ	-12025
▁ଗାଲି	-12026
▁ଚଳଣି	-12027
▁ଜନନୀ	-12028
▁ଦେଶୀ	-12029
▁ରାଘବ	-12030
▁ଷଣ୍ଢ	-12031
▁ସଙ୍ଘ	-12032
▁ସ୍କି	-12033
▁୧୯୧୬	-12034
alcium	-12035
ତ୍ତ୍ୱର	-12036
ନ୍ୟାସର	-12037
ଷ୍ଟ୍ରେ	-12038
ାମାଣିକ	-12039
ିଶକ୍ତି	-12040
▁ଅଙ୍କନ	-12041
▁ଆଖପାଖ	-12042
▁ଗୁଗୁଲ	-12043
▁ଛିନ୍ନ	-12044
▁ଡେକ୍ସ	-12045
▁ତାମ୍ର	-12046
▁ଦଉଡ଼ି	-12047
▁ଧାଡ଼ି	-12048
▁ବଙ୍କା	-12049
▁ଭାଗିର	-12050
▁ରଶ୍ମୀ	-12051
ୋଗ୍ରାମ୍	-12052
▁ଅଣୁଜୀବ	-12053
▁ଅନୁରାଗ	-12054
▁ଅବକ୍ଷୟ	-12055
▁ଆଣ୍ଡ୍ର	-12056
▁ଉଦ୍ଧୃତ	-12057
▁ଏସିଆନ୍	-12058
▁କାଂସ୍ୟ	-12059
▁ଖାରବେଳ	-12060
▁ଚ୍ୟାଲେ	-12061
▁ଜର୍ଣ୍ଣ	-12062
▁ବିବାଦର	-12063
▁ବ୍ୟାପୀ	-12064
ମେଣ୍ଟାରୀ	-12065
ିନେଫ୍ରିନ	-12066
▁ଅଦାଲତରେ	-12067
▁ଗ୍ରନ୍ଥର	-12068
▁ପଦ୍ମନାଭ	-12069
▁ଫାଇବ୍ରୋ	-12070
▁ବାଜପେୟୀ	-12071
▁ମ୍ୟୁଜିକ	-12072
▁ଯୋଗଦେବା	-12073
▁ଲକ୍ଷଣରେ	-12074
ପାରିନଥିଲେ	-12075
▁ଉଲ୍ଲିଖିତ	-12076
▁ଦଶନ୍ଧିରେ	-12077
▁ନେଇଛନ୍ତି	-12078
▁ପାହାଡ଼ିଆ	-12079
▁ବର୍ଦ୍ଧିତ	-12080
▁ମୃତ୍ତିକା	-12081
▁ରାଜ୍ୟସଭା	-12082
▁ସ୍ୱାକ୍ଷର	-12083
▁କଷ୍ଟସାଧ୍ୟ	-12084
▁ନବରଙ୍ଗପୁର	-12085
▁ପ୍ରତିଫଳିତ	-12086
▁ଗଣତାନ୍ତ୍ରିକ	-12087
▁ବିଭାଗଦ୍ୱାରା	-12088
▁ପ୍ରେସିଡେନ୍ସି	-12089
▁ମ୍ୟାନେଜମେଣ୍ଟ	-12090
▁ରାଷ୍ଟ୍ରପତିଙ୍କ	-12091
2)	-12092
ଅଲ	-12093
କୂ	-12094
erc	-12095
ina	-12096
lor	-12097
ren	-12098
ତାଳ	-12099
ତୋଷ	-12100
ଦାମ	-12101
ରାଣ	-12102
ାୟୁ	-12103
ୁରା	-12104
▁ଢୁ	-12105
▁ବଗ	-12106
କିମି	-12107
କ୍କର	-12108
ଭୋଜୀ	-12109
ମିଲି	-12110
ସିଆର	-12111
ସିପ୍	-12112
ାଧୀଶ	-12113
ୋଲିନ	-12114
୧୯୮୩	-12115
୨୦୧୭	-12116
▁ଓଭର	-12117
▁ଦଫା	-12118
▁ବଟା	-12119
▁ବୀଜ	-12120
▁ରୋଡ	-12121
ision	-12122
ଜାହାନ	-12123
ଦ୍ରତା	-12124
ପଲ୍ଲୀ	-12125
ଫୋର୍ଡ	-12126
ସ୍ଙ୍କ	-12127
୍ରିୟା	-12128
▁ଅନାମ	-12129
▁ଉପଭୋ	-12130
▁କେଶର	-12131
▁ନବାବ	-12132
▁ନାଭି	-12133
▁ନାରଦ	-12134
▁ବିତି	-12135
▁ରାଇଟ	-12136
▁ରୋଗା	-12137
▁ଲାଇଫ	-12138
▁ସାଧକ	-12139
▁ସାଲେ	-12140
▁ସିନା	-12141
ଦୃଷ୍ଟି	-12142
ବସ୍ତ୍ର	-12143
▁ଇଡିମା	-12144
▁ଇଣ୍ଡି	-12145
▁ଜୀବନଚ	-12146
▁ନେବାର	-12147
▁ପ୍ରୀତ	-12148
▁ବଡ଼ଜେ	-12149
▁ଭାଗକୁ	-12150
▁ମାଗଣା	-12151
▁ମାନ୍ୟ	-12152
▁ସମାଗମ	-12153
genetic	-12154
ଲ୍ୟାଙ୍କ	-12155
▁ଅନଲାଇନ	-12156
▁ଅପସାରଣ	-12157
▁ଅଷ୍ଟ୍ର	-12158
▁ଇଭେଣ୍ଟ	-12159
▁କମେଇବା	-12160
▁କରିଆସି	-12161
▁ପୋଲିସ୍	-12162
▁ପ୍ରତିମ	-12163
▁ଭିଡ଼ିଓ	-12164
▁ମିଡ଼ିଆ	-12165
▁ମୁଦ୍ରଣ	-12166
▁୧୯୪୮ରେ	-12167
allergic	-12168
ଗୁଣ୍ଡିଚା	-12169
ମାନଙ୍କରୁ	-12170
ର୍ଦ୍ଦେଶକ	-12171
ୋପାଧ୍ୟାୟ	-12172
▁ଅମ୍ବିକା	-12173
▁ଆୱାର୍ଡ଼	-12174
▁ଜଙ୍ଗଲକୁ	-12175
▁ଜେଲଦଣ୍ଡ	-12176
▁ଦାସଙ୍କୁ	-12177
▁ନେଉଥିଲେ	-12178
▁ପ୍ରଥମରୁ	-12179
▁ବ୍ଯବହାର	-12180
▁ମନୁଷ୍ୟର	-12181
▁ରହୁଥିଲା	-12182
▁ଲଣ୍ଡନରେ	-12183
▁ସରକାରରେ	-12184
▁ସାର୍ବଭୌ	-12185
▁ଆନାଫାଇଲା	-12186
▁ଆଭିମୁଖ୍ୟ	-12187
▁ଇସ୍ରାଏଲର	-12188
▁ଏନଏଚଏସକୁ	-12189
▁ଚର୍ଚ୍ଚିତ	-12190
▁ତ୍ରିଲୋଚନ	-12191
▁ପୋଟାସିଅମ	-12192
▁ବୃହସ୍ପତି	-12193
▁ମିଲିମିଟର	-12194
▁ଯାହାଙ୍କୁ	-12195
▁ରାଜକିଶୋର	-12196
▁କୃଷ୍ଣପକ୍ଷ	-12197
▁ବିସ୍ଥାପିତ	-12198
▁ହୃତ୍ପିଣ୍ଡର	-12199
▁ହୋଇଯାଆନ୍ତି	-12200
▁ଜିଲ୍ଲାସ୍ଥିତ	-12201
▁ବଙ୍ଗଳାଦେଶରେ	-12202
▁ଅନ୍ତରାଷ୍ଟ୍ରୀୟ	-12203
▁ଶ୍ରୀରାମଚନ୍ଦ୍ର	-12204
PC	-12205
କସ	-12206
arc	-12207
ଗିତ	-12208
ପଦୀ	-12209
ମୁଁ	-12210
ଲ୍କ	-12211
▁Sc	-12212
▁pl	-12213
▁ଏଭ	-12214
▁ଠା	-12215
▁ଲବ	-12216
ates	-12217
ଅର୍ଥ	-12218
କୋଟି	-12219
କ୍ତନ	-12220
ଜଙ୍ଗ	-12221
ଟିକ୍	-12222
ନ୍ନି	-12223
ଲାମ୍	-12224
ିକ୍ତ	-12225
ୌକିକ	-12226
▁Con	-12227
▁ଆଦର	-12228
▁କିଣ	-12229
▁ଖୋଳ	-12230
▁ଙ୍କ	-12231
▁ତେର	-12232
▁ନିଧ	-12233
▁ବଳୟ	-12234
▁ଭୋପ	-12235
▁ମଲା	-12236
▁ସିଝ	-12237
ପତ୍ନୀ	-12238
ବାହ୍ନ	-12239
ମସିହା	-12240
ମାନିଆ	-12241
ମ୍ବରୁ	-12242
ାଦେବୀ	-12243
୍ୟାସୀ	-12244
▁ଅମିତ	-12245
▁ପମ୍ପ	-12246
▁ପୁନେ	-12247
▁ବାହନ	-12248
▁ମହଲା	-12249
▁ରାମା	-12250
▁ରାସ୍	-12251
▁ସାପର	-12252
▁ସ୍ଟା	-12253
ାନ୍ୱିତ	-12254
▁ଅହମ୍ମ	-12255
▁ଔରସରୁ	-12256
▁ପ୍ରାବ	-12257
▁ବାକ୍ସ	-12258
▁ବ୍ୟାବ	-12259
▁ଭେଣ୍ଟ	-12260
▁ଶ୍ରୀଅ	-12261
▁ସାତଟି	-12262
▁ହର୍ପି	-12263
ାଲୋପାଥି	-12264
▁କାନ୍ଦି	-12265
▁କେତେଜଣ	-12266
▁ଖାନଙ୍କ	-12267
▁ନିବନ୍ଧ	-12268
▁ପତ୍ରରେ	-12269
▁ବାସ୍ତୁ	-12270
▁ମୂଳଦୁଆ	-12271
▁ସାଲବେଗ	-12272
▁ସ୍ଥଗିତ	-12273
▁୧୯୭୯ରେ	-12274
▁୧୯୮୭ରେ	-12275
ପ୍ତିରେଖା	-12276
▁ଅଧିନସ୍ଥ	-12277
▁ଆସିବାକୁ	-12278
▁ଚାଲିଆସି	-12279
▁ତ୍ରିନାଥ	-12280
▁ଭୂପୃଷ୍ଠ	-12281
▁ଉପନ୍ୟାସର	-12282
▁ଗୃହପାଳିତ	-12283
▁ଚାନ୍ଦିନୀ	-12284
▁ପ୍ରକାଶନୀ	-12285
▁ପ୍ରାଚୀରର	-12286
ନିର୍ବାଚନରେ	-12287
▁ଦଣ୍ଡାୟମାନ	-12288
▁ବିପର୍ଯ୍ୟୟ	-12289
▁ଭଗ୍ନାବଶେଷ	-12290
▁ଲେଖାଇଥିଲେ	-12291
▁ସଦସ୍ୟମାନେ	-12292
▁ସେଣ୍ଟ୍ରାଲ	-12293
▁ଲକ୍ଷ୍ମୀଙ୍କ	-12294
▁ସୃଷ୍ଟିକାରୀ	-12295
▁ୟୁନିଭରସିଟି	-12296
▁ପ୍ରୋଗ୍ରାମିଂ	-12297
▁ଶ୍ରୀମନ୍ଦିରକୁ	-12298
▁ଇଲେକ୍ଟ୍ରୋଲାଇଟ	-12299
▁ପ୍ରତିଦ୍ୱନ୍ଦ୍ୱ	-12300
19	-12301
CC	-12302
ho	-12303
ନୂ	-12304
reg	-12305
ଗରି	-12306
ତନା	-12307
ପୁଲ	-12308
ମୂଖ	-12309
ଯାକ	-12310
ସନର	-12311
ସ୍ଫ	-12312
ହଂସ	-12313
ହାଟ	-12314
ାଲ୍	-12315
ିଶି	-12316
ୋବା	-12317
ୟନର	-12318
▁ଢି	-12319
stit	-12320
ଆଇଡି	-12321
କଳାର	-12322
ମାରି	-12323
ମେର୍	-12324
ଯାପନ	-12325
ର୍କର	-12326
ହଜାର	-12327
ୋଟ୍ର	-12328
▁Soc	-12329
▁କଅଣ	-12330
▁ଛାଡ	-12331
▁ନିଏ	-12332
▁ପଠନ	-12333
▁ପନି	-12334
▁ସିଏ	-12335
▁ହାମ	-12336
ବିଦ୍ୟ	-12337
ୋଧ୍ୟା	-12338
▁2001	-12339
▁ଆଦାୟ	-12340
▁ଆସ୍ତ	-12341
▁କନ୍ଦ	-12342
▁କେଜି	-12343
▁ଗୁଣବ	-12344
▁ଘରେଇ	-12345
▁ଚଢ଼ି	-12346
▁ନାମ୍	-12347
▁ପଲ୍ଲ	-12348
▁ପୀଠର	-12349
▁ବଜାଇ	-12350
▁ଭୟରେ	-12351
▁ମଠରେ	-12352
▁ମନ୍ଥ	-12353
▁ଶାଶୁ	-12354
▁ସଂଶ୍	-12355
▁ହୃଦର	-12356
▁୨୭ଟି	-12357
ତାଙ୍କୁ	-12358
▁ଇନ୍ଦୁ	-12359
▁କରିନେ	-12360
▁କହିଲା	-12361
▁କାନ୍ଦ	-12362
▁କୋଙ୍କ	-12363
▁ଗୀତଟି	-12364
▁ତୁମକୁ	-12365
▁ଦରବାର	-12366
▁ନିର୍ଭ	-12367
▁ନିହାର	-12368
▁ପଞ୍ଚୁ	-12369
▁ପାଳିଆ	-12370
▁ପୋଷ୍ୟ	-12371
▁ପ୍ୟାନ	-12372
▁ବିକ୍ର	-12373
▁ମରାଠା	-12374
▁ମୁକୁଟ	-12375
▁ରହମାନ	-12376
▁ସମରେଶ	-12377
▁ସାରଦା	-12378
ଦ୍ୱୀପରେ	-12379
ବାସୀଙ୍କ	-12380
ର୍ମାଙ୍କ	-12381
▁ଅଂକୋର୍	-12382
▁ଉଚ୍ଚରେ	-12383
▁କେମିତି	-12384
▁ଛାତିରେ	-12385
▁ଦିଆଯାଉ	-12386
▁ପ୍ରେମୀ	-12387
▁ଫିଙ୍ଗି	-12388
▁ବୋହିବା	-12389
▁ବ୍ରିଗେ	-12390
▁ମାଇକେଲ	-12391
▁ମୁଖ୍ୟତ	-12392
▁ରାକ୍ଷୀ	-12393
▁ସୁଗ୍ରୀ	-12394
▁ସେବାୟତ	-12395
▁୧୯୮୫ରେ	-12396
▁ଆଇନଜୀବୀ	-12397
▁ଖେଳନ୍ତି	-12398
▁ନ୍ୟାୟିକ	-12399
▁ଭଞ୍ଜଦେଓ	-12400
▁ମଣ୍ଡଳରେ	-12401
▁ହରିୟାଣା	-12402
▁ଅଧ୍ୟାୟରେ	-12403
▁ଜ୍ଞାନପୀଠ	-12404
▁ତ୍ରିପୁରା	-12405
▁ପ୍ରଣାଳୀର	-12406
▁ପ୍ରାକ୍ତନ	-12407
▁ବସନ୍ତରାଜ	-12408
▁ମଙ୍ଗଳବାର	-12409
▁ମହିଷାସୁର	-12410
▁ରହିଆସିଛି	-12411
▁ଶିକ୍ଷକତା	-12412
▁ସଂସ୍ଥାରେ	-12413
▁ସେବେଠାରୁ	-12414
▁ସ୍କ୍ରିନି	-12415
▁ସ୍କ୍ଲେରୋ	-12416
▁ହେବାପାଇଁ	-12417
▁ଦେବତାଙ୍କୁ	-12418
▁ନେଇଥାନ୍ତି	-12419
▁ସମ୍ପର୍କକୁ	-12420
▁ଦୀପ୍ତିରେଖା	-12421
▁ଲେଫ୍ଟନାଣ୍ଟ	-12422
▁ବ୍ରହ୍ମପୁତ୍ର	-12423
▁ରବୀନ୍ଦ୍ରନାଥ	-12424
▁ଅଲିମ୍ପିକ୍ସରେ	-12425
▁ଭୁବନେଶ୍ୱରସ୍ଥିତ	-12426
AR	-12427
St	-12428
ମସ	-12429
arb	-12430
ert	-12431
man	-12432
କୋଣ	-12433
ଗରୀ	-12434
ଛୋଟ	-12435
ପଟା	-12436
ହାତ	-12437
ାପର	-12438
ୋଧକ	-12439
ଅଭିନ	-12440
କାଳର	-12441
ଖାରୁ	-12442
ଟିକା	-12443
ଡ୍ରା	-12444
ରିକ୍	-12445
▁ଛତା	-12446
▁ନୀର	-12447
▁ପଚା	-12448
▁ବତୀ	-12449
▁ମେଳ	-12450
▁ରନ୍	-12451
▁ରେଲ	-12452
ative	-12453
ology	-12454
press	-12455
usion	-12456
କାପ୍ତ	-12457
ଡିଙ୍ଗ	-12458
ତୃତୀୟ	-12459
ଯୁଗରେ	-12460
ସ୍ଟେର	-12461
▁ଏଏଫ୍	-12462
▁କୋଲା	-12463
▁ଖାତା	-12464
▁ଗୋଟା	-12465
▁ଚିପି	-12466
▁ଟାଉନ	-12467
▁ଟାର୍	-12468
▁ଟିକସ	-12469
▁ଡାକୁ	-12470
▁ନଗରୀ	-12471
▁ପାରଦ	-12472
▁ପିଟି	-12473
▁ଫ୍ଲେ	-12474
▁ବଢ଼ା	-12475
▁ବୁଦା	-12476
▁ଭଗବତ	-12477
▁ଭାଗର	-12478
▁ମୁଦି	-12479
▁ଲ୍ୟା	-12480
▁ସିଲି	-12481
▁ସୁଦୃ	-12482
United	-12483
ପ୍ରତିକ	-12484
ାନାହିଁ	-12485
ିନୀଙ୍କ	-12486
▁ଆବଦ୍ଧ	-12487
▁ଡିଏନଏ	-12488
▁ତୁଷାର	-12489
▁ଥକାପଣ	-12490
▁ପ୍ଲାଟ	-12491
▁ଫେସବୁ	-12492
▁ବସିବା	-12493
▁ବୁଝାଇ	-12494
▁ମାଙ୍ଗ	-12495
▁ରଣଜିତ	-12496
▁ରହିବେ	-12497
▁ସାମନା	-12498
▁ୟୁନିଟ	-12499
inflamm	-12500
▁ଅଦୃଶ୍ୟ	-12501
▁କୃଷ୍ଣା	-12502
▁ଜୁନିଅର	-12503
▁ଡେଙ୍ଗୁ	-12504
▁ପିନ୍ଧା	-12505
▁ପ୍ରଣୀତ	-12506
▁ବୁଝିବା	-12507
▁ଭାଇଙ୍କ	-12508
▁ମନେହୁଏ	-12509
▁ସନ୍ଦୀପ	-12510
▁୧୯୬୨ରେ	-12511
▁ଅଧିକାରର	-12512
▁ଅଧିବେଶନ	-12513
▁କଟକଠାରେ	-12514
▁କର୍ବେଟ୍	-12515
▁ଥିଏଟରରେ	-12516
▁ପ୍ରାଦେଶ	-12517
▁ଷ୍ଟୁଡିଓ	-12518
▁ସୁଧାଂଶୁ	-12519
▁ସେମିଫାଇ	-12520
▁ହୁମାୟୁନ	-12521
▁କଥାବସ୍ତୁ	-12522
▁କ୍ରୀଡ଼ାବ	-12523
▁ଜଣାଇଥିଲେ	-12524
▁ଜିତିଥିବା	-12525
▁ତ୍ରୟୋଦଶୀ	-12526
▁ପ୍ରତିବାଦ	-12527
▁ମରଣୋତ୍ତର	-12528
▁ସଦସ୍ୟଙ୍କ	-12529
▁ସର୍ଦ୍ଦାର	-12530
▁କୃଷ୍ଣଙ୍କୁ	-12531
▁ସିଦ୍ଧାର୍ଥ	-12532
▁କରିଦେଇଥିଲା	-12533
▁ଥାଇଲ୍ୟାଣ୍ଡ	-12534
▁ଭିତ୍ତିଭୂମି	-12535
▁ଅଟୋଇମ୍ମ୍ୟୁନ	-12536
▁ଜାତୀୟତାବାଦୀ	-12537
▁ସଂଗ୍ରହାଳୟରେ	-12538
▁ପ୍ରତିଯୋଗିତାର	-12539
▁ସ୍ୱେଚ୍ଛାସେବୀ	-12540
ew	-12541
ଶବ	-12542
ery	-12543
କୋର	-12544
ଞ୍ଝ	-12545
ନେଲ	-12546
େତକ	-12547
▁II	-12548
reat	-12549
ଟାରୀ	-12550
ଯାତି	-12551
ଲୀଧର	-12552
୧୯୮୪	-12553
▁ଏଆଇ	-12554
▁ଗଦା	-12555
▁ଚୋର	-12556
▁ଡ଼ି	-12557
▁ଧବଳ	-12558
▁ନବୀ	-12559
▁ଲିନ	-12560
▁ଲେପ	-12561
aging	-12562
align	-12563
କରଙ୍କ	-12564
ବାଣୀର	-12565
ବିକାଶ	-12566
ବୃତ୍ତ	-12567
ର୍ମାଟ	-12568
ଳାଙ୍କ	-12569
ସିପରେ	-12570
ସେମିଆ	-12571
ୀଙ୍କୁ	-12572
▁ଅପ୍ର	-12573
▁କ୍ଷ୍	-12574
▁ଗୃହର	-12575
▁ଚରିତ	-12576
▁ଟୁକୁ	-12577
▁ଡଙ୍ଗ	-12578
▁ଥିରୁ	-12579
▁ନିପୁ	-12580
▁ନେଲା	-12581
▁ବୁଝା	-12582
▁ମାଇଁ	-12583
▁ମାମା	-12584
▁ମିଆଁ	-12585
▁ସ୍ପା	-12586
ସିନ୍ଧୁ	-12587
▁କଲମ୍ବ	-12588
▁କାଠରେ	-12589
▁ଗଡଜାତ	-12590
▁ଦଙ୍ଗା	-12591
▁ନିଆରା	-12592
▁ପହଁରା	-12593
▁ବ୍ଲକ୍	-12594
▁ମତବାଦ	-12595
▁ଶୋଇବା	-12596
▁ସାମ୍ୟ	-12597
▁ସୋରିଆ	-12598
▁ଆଗ୍ରହୀ	-12599
▁ଆଶୁତୋଷ	-12600
▁କୁନ୍ତୀ	-12601
▁କୁଳପତି	-12602
▁ଘଟଣାକୁ	-12603
▁ପୁନରାବ	-12604
▁ପ୍ରେମର	-12605
▁ବିକୃତି	-12606
▁ଭିକ୍ଟୋ	-12607
▁ମର୍ତ୍ତ	-12608
▁୧୯୮୯ରେ	-12609
▁୨୦୨୨ରେ	-12610
▁ଉପଲବ୍ଧି	-12611
▁କରୋନାରୀ	-12612
▁କୁମ୍ଭାର	-12613
▁ଗର୍ଭାଶୟ	-12614
▁ଜୀବାଶ୍ମ	-12615
▁ତ୍ରୟୋଦଶ	-12616
▁ମିନିଟରେ	-12617
▁ରାଇମୋହନ	-12618
▁ସପ୍ତାହର	-12619
▁ସର୍ବତ୍ର	-12620
▁ସିଂହଦେଓ	-12621
▁ହୃଦ୍ଗତି	-12622
▁ଉତ୍ତେଜିତ	-12623
▁କରିଥିବାର	-12624
▁କାରାଦଣ୍ଡ	-12625
▁କାହାଣୀରେ	-12626
▁କେତେକଙ୍କ	-12627
▁କ୍ରୀଷ୍ଣା	-12628
▁ଜଳବିଦ୍ୟୁ	-12629
▁ଦେଖାଯିବା	-12630
▁ପ୍ରଯୋଜିତ	-12631
▁ମାଲିକାନା	-12632
▁ରୂପାନ୍ତର	-12633
▁ଶରଣାର୍ଥୀ	-12634
▁ସଙ୍କୁଚିତ	-12635
▁ସୀମାରେଖା	-12636
▁କରାଯାଇଅଛି	-12637
▁କୁହାଯାଉଛି	-12638
▁ଗୋବର୍ଦ୍ଧନ	-12639
▁ଜର୍ମାନୀରେ	-12640
▁ତୁଳନାତ୍ମକ	-12641
▁ଦିବ୍ୟସିଂହ	-12642
▁ଦେବତାମାନେ	-12643
▁ପରମ୍ପରାକୁ	-12644
▁ପୋଟାସିୟମ୍	-12645
▁ପ୍ରାଦେଶିକ	-12646
▁ପ୍ରାଧିକରଣ	-12647
ternational	-12648
▁ସର୍ବପୁରାତନ	-12649
▁କର୍ମଚାରୀଙ୍କ	-12650
▁କୁହାଯାଉଥିବା	-12651
▁ଲକ୍ଷଣଗୁଡ଼ିକ	-12652
▁ଅଷ୍ଟ୍ରେଲିଆରେ	-12653
▁ମହାପ୍ରଭୁଙ୍କର	-12654
▁ହିନ୍ଦୁମାନଙ୍କର	-12655
"(	-12656
ke	-12657
ନବ	-12658
cho	-12659
ild	-12660
omy	-12661
phy	-12662
use	-12663
ଗୁଳ	-12664
ତୀର	-12665
ଲେକ	-12666
ସମ୍	-12667
ାଜୀ	-12668
ିବୁ	-12669
ୋକୋ	-12670
୍ଵର	-12671
୪୦୦	-12672
▁ଅୟ	-12673
▁ଓଭ	-12674
▁ଘୃ	-12675
▁ନକ	-12676
cell	-12677
ysis	-12678
କାରା	-12679
ଡ୍ୟୁ	-12680
ବୁଲ୍	-12681
ର୍ଟ୍	-12682
ର୍ଣ୍	-12683
ର୍ସ୍	-12684
ଷ୍ଟେ	-12685
ସିପି	-12686
ୁରିଆ	-12687
▁ଅତୁ	-12688
▁କିଆ	-12689
▁କୁଇ	-12690
▁ଥିବ	-12691
▁ପାହ	-12692
▁ବଉଳ	-12693
▁ବିଭ	-12694
▁ସମତ	-12695
ଏଠାରେ	-12696
ଞ୍ଚଳର	-12697
ଲେଖରେ	-12698
ଲୋହିତ	-12699
▁King	-12700
▁ଅସୀତ	-12701
▁ଆଲ୍ଲ	-12702
▁କୋରୋ	-12703
▁କ୍ଷଣ	-12704
▁ଖୋଦନ	-12705
▁ଚଷମା	-12706
▁ଦିଅଁ	-12707
▁ଧରଣୀ	-12708
▁ନିବି	-12709
▁ନିଳୟ	-12710
▁ମାନର	-12711
▁ସ୍ମି	-12712
▁୧୯୦୬	-12713
ଲାବେଳେ	-12714
ଷ୍ଟାରେ	-12715
▁ଉର୍ବର	-12716
▁କପଡ଼ା	-12717
▁କାଢ଼ି	-12718
▁ଚିନ୍ମ	-12719
▁ଦାସିଆ	-12720
▁ନାବିକ	-12721
▁ପନ୍ଥା	-12722
▁ଫୋଟକା	-12723
▁ବିଜୟା	-12724
▁ବେକରେ	-12725
▁ମୁହାଁ	-12726
▁ମେଟାବ	-12727
▁ଯିବାର	-12728
▁ସିଭିଲ	-12729
ଜିଲାଣ୍ଡ	-12730
▁ଅଜନ୍ତା	-12731
▁ଅଟ୍ଟାଳ	-12732
▁ଅଧିକୃତ	-12733
▁ଅନ୍ତତଃ	-12734
▁ଅର୍ଗାନ	-12735
▁ଦେବାରେ	-12736
▁ବାତ୍ୟା	-12737
▁ବିଶାରଦ	-12738
▁ଯେତିକି	-12739
▁ଯୋଜନାର	-12740
▁ଲିପ୍ସା	-12741
▁ଶିବାଜୀ	-12742
▁ସଫ୍ଟୱେ	-12743
▁ସବୁଦିନ	-12744
▁୧୯୬୦ରେ	-12745
▁୧୯୭୬ରେ	-12746
otherapy	-12747
ମୂର୍ତ୍ତୀ	-12748
▁ଅଂଶୀଦାର	-12749
▁ଅପ୍ରେଲ୍	-12750
▁ଉତ୍କଳୀୟ	-12751
▁ଦେଉଥିବା	-12752
▁ପରିଶ୍ରମ	-12753
▁ବିମାନରେ	-12754
▁ଯନ୍ତ୍ରୀ	-12755
▁ରଖିଥିବା	-12756
▁ରଖିଥିଲା	-12757
▁ରଖିବାରେ	-12758
ଫ୍ଲୁଏଞ୍ଜା	-12759
▁ଦିଆଯାଉଛି	-12760
▁ଦେବାଦେବୀ	-12761
▁ଧୁମ୍ରପାନ	-12762
▁ନିରପେକ୍ଷ	-12763
▁ବହିଷ୍କାର	-12764
▁ବାୟୁସେନା	-12765
▁ବ୍ୟାଟେରୀ	-12766
▁ରିଉମାଟଏଡ	-12767
▁ସାର୍ବଭୌମ	-12768
▁ୟୁନେସ୍କୋ	-12769
▁ଏଇତିହାସିକ	-12770
▁କ୍ଷେତ୍ରକୁ	-12771
▁ପାରାସେଟାମ	-12772
▁ମୁହୂର୍ତ୍ତ	-12773
▁କମ୍ପ୍ଲେକ୍ସ	-12774
▁ସର୍ବପ୍ରଥମେ	-12775
▁ଠାକୁରାଣୀଙ୍କ	-12776
▁ଦିଆଯାଏନାହିଁ	-12777
▁ପାକିସ୍ତାନକୁ	-12778
▁ସାହାଯ୍ୟକାରୀ	-12779
▁ଶ୍ରୀଗୁଣ୍ଡିଚା	-12780
▁ଶିରାଭ୍ୟନ୍ତରରେ	-12781
ଏପ	-12782
ଖୋ	-12783
ଷୁ	-12784
ସବ	-12785
min	-12786
pen	-12787
pir	-12788
ଂଗୋ	-12789
ଅସ୍	-12790
ଚାଷ	-12791
ନ୍ଯ	-12792
ମୋହ	-12793
ଶୂର	-12794
ଶ୍ଵ	-12795
ସାଲ	-12796
ୟୁର	-12797
▁Ac	-12798
▁mm	-12799
▁୯୯	-12800
ଆରଆଇ	-12801
ଭିସି	-12802
ମ୍ଭା	-12803
ାର୍ଟ	-12804
ୟମରେ	-12805
୧୯୭୮	-12806
▁ଆତ୍	-12807
▁ଗୋକ	-12808
▁ଜେଟ	-12809
▁ପଲଉ	-12810
▁ଶୁନ	-12811
ଙ୍ଗିର	-12812
ଚନାରେ	-12813
ଚାରିକ	-12814
ନାଗମନ	-12815
ନ୍ଦୁର	-12816
ପ୍ଟିକ	-12817
ଲିଜ୍ମ	-12818
ଲେସନ୍	-12819
ଶିଷ୍ଠ	-12820
▁ଅନତି	-12821
▁ଅସୀମ	-12822
▁ଆଟ୍ର	-12823
▁କୁଚି	-12824
▁ଚନ୍ଦ	-12825
▁ଜଣକର	-12826
▁ଜିଲା	-12827
▁ଜ୍ୟା	-12828
▁ଠାରେ	-12829
▁ତିଳକ	-12830
▁ଫାଲ୍	-12831
▁ବୁଢ଼	-12832
▁ମୃଦୁ	-12833
▁ସ୍ନି	-12834
ଗୁଡ଼ିଏ	-12835
ତ୍ୟକ୍ତ	-12836
ମିଡ଼ିଆ	-12837
ଯିବାରୁ	-12838
ସାଇକୋଟ	-12839
ୁରୀଙ୍କ	-12840
▁କଶ୍ୟପ	-12841
▁କ୍ଷେତ	-12842
▁ଖପୁରୀ	-12843
▁ଗଦାଧର	-12844
▁ଗୀତିକ	-12845
▁ଚିକ୍କ	-12846
▁ଜିଲ୍ଲ	-12847
▁ତିକ୍ତ	-12848
▁ନାକରୁ	-12849
▁ପତ୍ରର	-12850
▁ପର୍ବର	-12851
▁ପାଇବେ	-12852
▁ମୁଖରେ	-12853
▁ରଣପୁର	-12854
▁ରନ୍ଥା	-12855
▁ଶ୍ରୀମ	-12856
▁ସେପରି	-12857
▁ଅଧିକରୁ	-12858
▁ଗଭୀରତା	-12859
▁ନୌସେନା	-12860
▁ପାର୍ସୀ	-12861
▁ପ୍ରମୂଖ	-12862
▁ପ୍ରିମି	-12863
▁ଫେଷ୍ଟି	-12864
▁ବାହୁଡା	-12865
▁ବିଲିରୁ	-12866
▁ରହିବାର	-12867
▁ରାଶିରେ	-12868
▁ଶୁଣାଣି	-12869
▁ସନ୍ଦେଶ	-12870
▁ସମର୍ଥକ	-12871
▁ସମ୍ଭୋଗ	-12872
▁ସହକାରେ	-12873
▁ହେକ୍ଟର	-12874
▁୧୯୮୧ରେ	-12875
▁ଅବହେଳିତ	-12876
▁ଅଯୋଧ୍ୟା	-12877
▁ଉପଲକ୍ଷେ	-12878
▁ଘନଶ୍ୟାମ	-12879
▁ଚର୍ଚ୍ଚା	-12880
▁ଟ୍ରେନିଂ	-12881
▁ଦିଲ୍ଲୀପ	-12882
▁ନିର୍ଜଳନ	-12883
▁ପୁଷ୍ଟିକ	-12884
▁ପ୍ରୋସ୍ଟ	-12885
▁ଫୁଲିଯାଏ	-12886
▁ବଡ଼ଜେନା	-12887
▁ବାହାଦୂର	-12888
▁ଭରଦ୍ୱାଜ	-12889
▁ସ୍ୱପ୍ନା	-12890
ପାକିସ୍ତାନ	-12891
▁ଆସିଛନ୍ତି	-12892
▁ଓଡ଼ିଶାରୁ	-12893
▁କରାଯିବାର	-12894
▁ଗୀର୍ଜାଘର	-12895
▁ଗୋଦାବରୀଶ	-12896
▁ଦର୍ଶକଙ୍କ	-12897
▁ପଡ଼ିଥିବା	-12898
▁ପିନ୍ଧିବା	-12899
▁ମନ୍ଦିରରୁ	-12900
▁ଅଶ୍ରୁମୋଚନ	-12901
▁ଏଥିମଧ୍ୟରୁ	-12902
▁ଚ୍ୟାଲେଞ୍ଜ	-12903
▁ପ୍ରତିଷେଧକ	-12904
▁ବଜ୍ରକାପ୍ତ	-12905
▁ବିଶାଖାପାଟ	-12906
▁ମଧ୍ୟଯୁଗୀୟ	-12907
▁ଯାଇଥାନ୍ତି	-12908
▁ସଂକ୍ରମଣରେ	-12909
▁infections	-12910
▁କବିସୂର୍ଯ୍ୟ	-12911
▁ପର୍ବତମାଳାର	-12912
▁ଅସମ୍ପୂର୍ଣ୍ଣ	-12913
▁କରିଯାଇଛନ୍ତି	-12914
▁ବାଧାପ୍ରାପ୍ତ	-12915
▁ବ୍ୟକ୍ତିମାନେ	-12916
▁ସାଧାରଣତନ୍ତ୍ର	-12917
▁ଯୁକ୍ତରାଷ୍ଟ୍ରର	-12918
)"	-12919
12	-12920
30	-12921
her	-12922
rit	-12923
ଭୀତ	-12924
ମରା	-12925
ଶୀର	-12926
ାବହ	-12927
ିକର	-12928
▁ଥେ	-12929
▁ନନ	-12930
▁ବଉ	-12931
atic	-12932
ines	-12933
ଏସନ୍	-12934
କାରକ	-12935
ଟିସ୍	-12936
ବଜାର	-12937
ଭଉଣୀ	-12938
ସ୍ଟର	-12939
▁ଏତଦ	-12940
▁ଖଟା	-12941
▁ଗଢି	-12942
▁ଗୁଡ	-12943
▁ମିସ	-12944
▁ଶେର	-12945
ଏହାକୁ	-12946
ବାହାର	-12947
ମୂଲ୍ୟ	-12948
ଲୋଚନା	-12949
ହାଯାଏ	-12950
▁2014	-12951
▁ଇନ୍ସ	-12952
▁ଐଶ୍ୱ	-12953
▁କଲଚର	-12954
▁ଚିକି	-12955
▁ନିତି	-12956
▁ବାଦ୍	-12957
▁ବିଷମ	-12958
▁ବୀରେ	-12959
▁ଲଙ୍କ	-12960
▁ଲାଳନ	-12961
▁ସମୀର	-12962
▁ହାତର	-12963
▁୧୫ଟି	-12964
କ୍ରମରେ	-12965
ପତ୍ରରେ	-12966
ପାରିବା	-12967
ଫ୍ରାରେ	-12968
ସଭାପତି	-12969
ହିନ୍ଦୁ	-12970
୍ୟାନ୍ସ	-12971
▁ଅନିତା	-12972
▁ଆଲ୍ଲା	-12973
▁ଖଣ୍ଡା	-12974
▁ଖୋଦେଇ	-12975
▁ଘଟିଛି	-12976
▁ଚମ୍ପା	-12977
▁ଡାଇରେ	-12978
▁ପଞ୍ଚସ	-12979
▁ପରିମଳ	-12980
▁ପଲ୍ଲୀ	-12981
▁ପାଉଛି	-12982
▁ପୁଞ୍ଜ	-12983
▁ଫେବ୍ର	-12984
▁ଫ୍ଲାଇ	-12985
▁ବାଡ଼ି	-12986
▁ଭୁଟାନ	-12987
▁ମୁହାଣ	-12988
▁ରେକର୍	-12989
▁ଶିଙ୍ଗ	-12990
▁ହିପୋକ	-12991
▁ହ୍ୱାଟ	-12992
କ୍ଟେରିଆ	-12993
▁ଅଭିଲେଖ	-12994
▁ଉତ୍ସବର	-12995
▁ଗ୍ୟାସ୍	-12996
▁ଘଟଣାରେ	-12997
▁ନାଗପୁର	-12998
▁ନିନ୍ଦା	-12999
▁ପିଲାବେ	-13000
▁ବଡ଼ଦିନ	-13001
▁୧୯୬୯ରେ	-13002
▁୧୯୭୧ରେ	-13003
ପାରିଥିଲେ	-13004
▁ଅରଣ୍ୟରେ	-13005
▁ଇଉରୋପୀୟ	-13006
▁ଉଠିଥିଲା	-13007
▁ଉତ୍ତରାଧ	-13008
▁ଉତ୍ତେଜକ	-13009
▁ଗମନାଗମନ	-13010
▁ଜର୍ମାନ୍	-13011
▁ଦେବଦାସୀ	-13012
▁ଧାର୍ଯ୍ୟ	-13013
▁ବିଶେଷତା	-13014
▁ଭାଷାକୋଷ	-13015
▁ମିଗ୍ରାର	-13016
▁ଅଧିକାରକୁ	-13017
▁ଆଣ୍ଡାମାନ	-13018
▁ଆନୁମାନିକ	-13019
▁କିବୋର୍ଡ଼	-13020
▁ଗଭର୍ଣ୍ଣର	-13021
▁ପଦାର୍ଥକୁ	-13022
▁ପ୍ରୋଟିନ୍	-13023
▁ମହାକର୍ଷଣ	-13024
▁ମେକ୍ସିକୋ	-13025
▁ସପ୍ତାହରୁ	-13026
▁ଚାନ୍ଦବାଲି	-13027
▁ଠାକୁରମାନେ	-13028
▁ଶିବରାତ୍ରି	-13029
▁ସଂକୀର୍ଣ୍ଣ	-13030
▁ସନ୍ନ୍ୟାସୀ	-13031
▁ବ୍ୟବସ୍ଥାକୁ	-13032
▁ମହାରାଜାଙ୍କ	-13033
▁ମାର୍ଗଦର୍ଶନ	-13034
▁ଆଣ୍ଟିସାଇକୋଟ	-13035
▁ଉତ୍ତରପ୍ରଦେଶ	-13036
▁ପୁନରାବୃତ୍ତି	-13037
▁ସ୍ୱତନ୍ତ୍ରତା	-13038
▁ଇନଷ୍ଟିଚ୍ୟୁଟ୍	-13039
Ar	-13040
ଆମ	-13041
ଧୀ	-13042
ପଲ	-13043
dro	-13044
ton	-13045
ଗଣୀ	-13046
ବିଲ	-13047
ାରୋ	-13048
େଟା	-13049
୍ନା	-13050
୫ରୁ	-13051
▁22	-13052
▁He	-13053
▁ab	-13054
▁fe	-13055
▁ପଶ	-13056
▁ମଣ	-13057
luid	-13058
roid	-13059
trol	-13060
କ୍ଲା	-13061
ଙ୍ଗୋ	-13062
ଜିକ୍	-13063
ନିଧି	-13064
ନିୟମ	-13065
ନ୍ଦମ	-13066
ପାଳନ	-13067
ପୁଟି	-13068
ମନୀୟ	-13069
ଲ୍ସ୍	-13070
ସେନ୍	-13071
୧୯୭୯	-13072
▁190	-13073
▁per	-13074
▁କୂଅ	-13075
▁ଗୋର	-13076
▁ଚଉଦ	-13077
▁ଟର୍	-13078
▁ତାନ	-13079
▁ପୋଟ	-13080
▁ଫିର	-13081
▁ଫିଲ	-13082
▁ଯାକ	-13083
▁ରେଡ	-13084
▁ହଜି	-13085
▁ହମ୍	-13086
▁ୱାଲ	-13087
ଗଡ଼ରେ	-13088
ଦ୍ଦମା	-13089
ନ୍ସରେ	-13090
ଭ୍ରମଣ	-13091
ରୁଦ୍ର	-13092
ସିଆଲ୍	-13093
▁2016	-13094
▁ଅସଫଳ	-13095
▁ଏକତା	-13096
▁କ୍ଷୀ	-13097
▁ଜଳୀୟ	-13098
▁ଜିମ୍	-13099
▁ବସତି	-13100
▁ମନେକ	-13101
▁ରିସୋ	-13102
▁ଶିଖା	-13103
▁ସଦ୍ୟ	-13104
▁ସଲିଲ	-13105
▁ସହିଦ	-13106
▁ସାହସ	-13107
▁ସ୍କଟ	-13108
▁୧୧ଟି	-13109
▁୧୮୫୭	-13110
inches	-13111
ଜାତିକୁ	-13112
ସ୍ତ୍ରୀ	-13113
▁ଇଣ୍ଟେ	-13114
▁ଉତ୍ପୀ	-13115
▁ଏସିଡ୍	-13116
▁ଟର୍ମି	-13117
▁ତେଲରେ	-13118
▁ଭଞ୍ଜନ	-13119
▁ଭାଏଲର	-13120
▁ଭାଗରୁ	-13121
▁ଭୟଭୀତ	-13122
▁ଲାଇଫ୍	-13123
▁ଶାସନା	-13124
▁ସମ୍ବର	-13125
▁ହାର୍ଟ	-13126
ବନେଶ୍ୱର	-13127
ବିଶେଷରେ	-13128
ୀର୍ତ୍ତନ	-13129
▁ଅଧିବାସ	-13130
▁କମାଣ୍ଡ	-13131
▁ଗୃହିଣୀ	-13132
▁ଜ୍ୱାଳା	-13133
▁ଟାଇମ୍ସ	-13134
▁ଡିମେନ୍	-13135
▁ପାଣିକୁ	-13136
▁ପ୍ରୟାଗ	-13137
▁ଲଣ୍ଡନର	-13138
▁ଲେମ୍ବୁ	-13139
▁ସିଂହଳୀ	-13140
▁ସ୍କୁଲର	-13141
▁ସ୍କୁଲ୍	-13142
▁ସ୍ମାରକ	-13143
▁ହୋଇଯାଇ	-13144
▁୧୯୬୧ରେ	-13145
▁ଆଣ୍ଟିହି	-13146
▁ବିଶୁଦ୍ଧ	-13147
▁ବୋଲାଯାଏ	-13148
▁ମରୁଭୂମି	-13149
▁ସନ୍ତୁଳନ	-13150
▁ସମ୍ମିଳନ	-13151
▁ଆଚ୍ଛାଦିତ	-13152
▁ଖ୍ରୀଷ୍ଟି	-13153
▁ଗଣମାଧ୍ୟମ	-13154
▁ବିଦ୍ରୋହର	-13155
▁ମିଳିମିଳା	-13156
▁ଯନ୍ତ୍ରରେ	-13157
▁ରାମାୟଣରେ	-13158
▁ଶୁଣିବାକୁ	-13159
▁inhibitor	-13160
▁ଅଲିମ୍ପିକ୍	-13161
▁ଖାଇଥାନ୍ତି	-13162
▁ପୃଥ୍ୱୀରାଜ	-13163
▁ବିଲିରୁବିନ	-13164
▁ମାତ୍ରାଧିକ	-13165
▁ସଂକ୍ରାନ୍ତ	-13166
▁ଚନ୍ଦ୍ରଭାଗା	-13167
▁ଦର୍ଶାଇଥିଲେ	-13168
▁ପୂର୍ବପୁରୁଷ	-13169
▁ପ୍ରସ୍ତାବକୁ	-13170
▁ଭବାନୀପାଟଣା	-13171
▁ଯନ୍ତ୍ରପାତି	-13172
▁ଅଧିଷ୍ଠାତ୍ରୀ	-13173
▁ଅବସରପ୍ରାପ୍ତ	-13174
▁କୁରୁକ୍ଷେତ୍ର	-13175
▁ପାଠ୍ୟକ୍ରମରେ	-13176
▁ପ୍ରକ୍ରିୟାକୁ	-13177
▁ସଚ୍ଚିଦାନନ୍ଦ	-13178
▁ହୋଇପାରିଥିଲା	-13179
▁ଆନ୍ଧ୍ରପ୍ରଦେଶ	-13180
▁ଫିଲ୍ମଫେୟାରରେ	-13181
▁ସ୍ଟ୍ରେପ୍ଟୋକୋକ	-13182
AM	-13183
ଖତ	-13184
ଯୌ	-13185
att	-13186
ugh	-13187
ଚର୍	-13188
ବତ୍	-13189
ବରା	-13190
ୀକୁ	-13191
େନା	-13192
▁ଆତ	-13193
▁ଚଇ	-13194
▁ଜଟ	-13195
▁ତବ	-13196
▁ଦଉ	-13197
▁ଶୂ	-13198
able	-13199
athy	-13200
form	-13201
ital	-13202
oint	-13203
ymph	-13204
ଏଲଭି	-13205
କାହା	-13206
ଡିଅମ	-13207
ଣ୍ଡବ	-13208
ନାରୀ	-13209
ବ୍ରୁ	-13210
ଭାନ୍	-13211
ମାଂସ	-13212
ସିଆଇ	-13213
ସ୍ୱା	-13214
ହାର୍	-13215
ାନାର	-13216
ୋଲ୍ଟ	-13217
▁(19	-13218
▁100	-13219
▁ଇଟା	-13220
▁ଜୀଉ	-13221
▁ତିଆ	-13222
▁ପୌର	-13223
▁ମରହ	-13224
▁ସିଜ	-13225
କିଙ୍ଗ	-13226
ଣ୍ଟାଲ	-13227
ଦ୍ୟୋଗ	-13228
ପରିବା	-13229
ମାନ୍ୟ	-13230
ଲାଇନ୍	-13231
ସାୟିକ	-13232
▁ଆଜିର	-13233
▁ଆରାମ	-13234
▁କଞ୍ଜ	-13235
▁ଗୁଜୁ	-13236
▁ଧୂଆଁ	-13237
▁ନିରବ	-13238
▁ପଳାଇ	-13239
▁ବାନୁ	-13240
▁ବାସନ	-13241
▁ବେଢ଼	-13242
▁ମୀନା	-13243
▁ମେଥି	-13244
▁ସୁଆର	-13245
▁ହଟାଇ	-13246
▁୩୦୦୦	-13247
ଖଣ୍ଡରେ	-13248
ନାତ୍ମକ	-13249
ଷ୍ଟେସନ	-13250
▁ଆହ୍ଲା	-13251
▁ଏପିଲେ	-13252
▁କୁଟୀର	-13253
▁ଛିଡ଼ା	-13254
▁ଦୁଷ୍ଟ	-13255
▁ଦୂରକୁ	-13256
▁ଦ୍ୱୈତ	-13257
▁ନନ୍ଦନ	-13258
▁ନଳିନୀ	-13259
▁ନାରୀର	-13260
▁ପରିବେ	-13261
▁ଯଯାତି	-13262
▁ରୋହିତ	-13263
▁ଲଳିତା	-13264
▁ସହମତି	-13265
▁ସାମ୍ନ	-13266
▁ସ୍ୱାତ	-13267
କ୍ଷେପରେ	-13268
ବାଣିଜ୍ୟ	-13269
▁ଅନ୍ୟାୟ	-13270
▁ଗିରିପଥ	-13271
▁ଧୂମପାନ	-13272
▁ପିଏଚଡି	-13273
▁ବାହାରୁ	-13274
▁ଭେଣ୍ଟି	-13275
▁ମୂର୍ତି	-13276
▁ମ୍ୟାନେ	-13277
▁ଯଥାର୍ଥ	-13278
▁ସନ୍ନିକ	-13279
▁ସାର୍ଥକ	-13280
▁ହ୍ରଦରେ	-13281
▁କଟିଥିଲା	-13282
▁କବିତାରେ	-13283
▁ନିର୍ଯାତ	-13284
▁ବିଯୁକ୍ତ	-13285
▁ମର୍ଯ୍ୟା	-13286
▁ମାର୍ଗରେ	-13287
▁ଷ୍ଟ୍ରୋକ	-13288
▁ଗାଇଛନ୍ତି	-13289
▁ଚତୁର୍ଭୁଜ	-13290
▁ପଢ଼ିବାକୁ	-13291
▁ବାହାରିଲେ	-13292
▁ବିଳମ୍ବିତ	-13293
▁ମାଛରଙ୍କା	-13294
▁ଯାହାଫଳରେ	-13295
▁ଲେଖିଥିବା	-13296
▁ଷ୍ଟେସନରେ	-13297
▁ସୂର୍ଯ୍ୟର	-13298
▁ଚନ୍ଦ୍ରଯାନ	-13299
▁ନିଧାର୍ଯ୍ୟ	-13300
▁ପରିପ୍ରକାଶ	-13301
▁ପାଇଥାନ୍ତି	-13302
▁ପ୍ରୋଜେକ୍ଟ	-13303
▁ଶ୍ରଦ୍ଧାଳୁ	-13304
▁ଶ୍ରୀନିବାସ	-13305
▁ହନୁମାନଙ୍କ	-13306
▁ଅଧିକାରୀଙ୍କ	-13307
▁ଚିକିତ୍ସାଳୟ	-13308
▁ପହଞ୍ଚିଥିଲା	-13309
▁ବାହାରୁଥିବା	-13310
▁ସତ୍ୟନାରାୟଣ	-13311
▁ସ୍ୱାସ୍ଥ୍ୟର	-13312
▁ହିନ୍ଦୁମାନେ	-13313
▁ପୁରୁଷମାନଙ୍କ	-13314
▁ଭୁବନେଶ୍ୱରରୁ	-13315
▁ଏକାଡେମୀଦ୍ୱାରା	-13316
▁କର୍ଟିକୋସ୍ଟିରଏଡ	-13317
eh	-13318
ଚୈ	-13319
NHS	-13320
arr	-13321
ean	-13322
str	-13323
tiv	-13324
ଏଡସ	-13325
ଗର୍	-13326
ଜମି	-13327
ଟାମ	-13328
ତରା	-13329
ଧରା	-13330
ଲିୟ	-13331
ଲ୍ଭ	-13332
ଳୟା	-13333
ଶାହ	-13334
ସଂଘ	-13335
ୁଲୁ	-13336
ୋଧୀ	-13337
ୋଶୀ	-13338
ୋସୋ	-13339
▁25	-13340
▁fr	-13341
▁on	-13342
▁ଦଧ	-13343
bone	-13344
entr	-13345
ison	-13346
loss	-13347
trav	-13348
ଇଣ୍ଡ	-13349
ଉଚ୍ଚ	-13350
ନଥାଏ	-13351
ପୁର୍	-13352
ରେଖା	-13353
ସିଲ୍	-13354
ାଗଲେ	-13355
୧୯୭୦	-13356
୨୦୧୯	-13357
ୱାନୀ	-13358
▁ଅଡି	-13359
▁କନ୍	-13360
▁ଚେନ	-13361
▁ଜିଆ	-13362
▁ଟିଏ	-13363
▁ଡେକ	-13364
▁ନର୍	-13365
▁ପଛେ	-13366
▁ପରର	-13367
▁ଫୌଜ	-13368
▁ଭଗତ	-13369
▁ରଣା	-13370
▁ରିଓ	-13371
ature	-13372
ଗାଡ଼ି	-13373
ଗ୍ରିକ	-13374
ଟଙ୍କା	-13375
ଡାଏଜେ	-13376
ବିହୀନ	-13377
ସୋମାଲ	-13378
୍ୟୁନୋ	-13379
▁ଅବୟବ	-13380
▁ଆମିଷ	-13381
▁କଞ୍ଚ	-13382
▁ଚାରୁ	-13383
▁ଜୁନା	-13384
▁ଡ୍ରଗ	-13385
▁ନର୍ମ	-13386
▁ପକେଇ	-13387
▁ପଦ୍ୟ	-13388
▁ବଣିକ	-13389
▁ମେରେ	-13390
▁ରୋକି	-13391
▁ରୋହି	-13392
▁ଲର୍ଡ	-13393
▁ସାଜସ	-13394
▁୧୯୦୧	-13395
▁୧୯୦୮	-13396
କାରିତା	-13397
କ୍ଷୀରେ	-13398
ମିଗ୍ରା	-13399
ମେଣ୍ଟ୍	-13400
ସ୍ୟାରେ	-13401
▁ଅଜିଜ୍	-13402
▁ଆଙ୍କି	-13403
▁ଇନ୍ଧନ	-13404
▁କବାଡି	-13405
▁କିଡନୀ	-13406
▁ଖୁଣ୍ଟ	-13407
▁ଗ୍ଲାଇ	-13408
▁ଚାରିଆ	-13409
▁ଚୌହାନ	-13410
▁ଜୟନ୍ତ	-13411
▁ଦେଶାଇ	-13412
▁ନିବାସ	-13413
▁ପଦ୍ମା	-13414
▁ପନ୍ତି	-13415
▁ପ୍ରାଧ	-13416
▁ଫାଷ୍ଟ	-13417
▁ଫୋର୍ସ	-13418
▁ବାହାନ	-13419
▁ମାଡ଼ି	-13420
▁ମୂଳରେ	-13421
▁ଶମ୍ଭୁ	-13422
▁ଶିଶିର	-13423
▁ହାଉସ୍	-13424
କ୍ଷୁଦ୍ର	-13425
ାଗ୍ରସ୍ତ	-13426
▁ଗର୍ଭରେ	-13427
▁ଟାଇମସ୍	-13428
▁ନବବର୍ଷ	-13429
▁ନୋବେଲ୍	-13430
▁ବଙ୍ଗୀୟ	-13431
▁ମୁଣ୍ଡର	-13432
▁ରଖନ୍ତୁ	-13433
▁ଲାଞ୍ଜର	-13434
▁ଶନିବାର	-13435
▁ସପ୍ତଦଶ	-13436
▁ସାଗରରେ	-13437
▁ସାମ୍ନା	-13438
▁ସ୍କ୍ରି	-13439
▁ସ୍ତୁତି	-13440
କଥାଚିତ୍ର	-13441
▁ଅବଶେଷରେ	-13442
▁ଏହାଙ୍କର	-13443
▁କାକଟପୁର	-13444
▁ଗଣେଶଙ୍କ	-13445
▁ଚିନ୍ତାର	-13446
▁ଜଳେଶ୍ୱର	-13447
▁ଟ୍ରଫିରେ	-13448
▁ପୁର୍ବରୁ	-13449
▁ମୁଖ୍ଯତଃ	-13450
▁ମୂଲ୍ୟରେ	-13451
▁ମ୍ୟୁଚୁଆ	-13452
▁ଯୌନାଙ୍ଗ	-13453
▁ଲ୍ୟାଣ୍ଡ	-13454
▁ହୃଦ୍ରୋଗ	-13455
▁କୁମାରଙ୍କ	-13456
▁କେଦାରନାଥ	-13457
▁ଡାଏବେଟିସ	-13458
▁ଦୁଷ୍ମନ୍ତ	-13459
▁ପଡ଼ିଥିଲେ	-13460
▁ପଦାର୍ଥରେ	-13461
▁ଫ୍ରାନ୍ସର	-13462
▁ସିଂହଙ୍କୁ	-13463
▁ହାଇକୋର୍ଟ	-13464
▁ଇନ୍ଦ୍ରଙ୍କ	-13465
▁ଜିତେନ୍ଦ୍ର	-13466
▁ପ୍ରତିଯୋଗୀ	-13467
▁ପ୍ରାମାଣିକ	-13468
▁ବ୍ୟବଧାନରେ	-13469
▁ବ୍ୟାପିଥାଏ	-13470
▁ଭିକ୍ଟୋରିଆ	-13471
▁ସରକାରଙ୍କର	-13472
▁ଚାମ୍ପିୟନ୍ସ	-13473
▁ଦୁର୍ଘଟଣାରେ	-13474
▁ପ୍ରାଙ୍ଗଣରେ	-13475
▁ମୂର୍ତ୍ତିରେ	-13476
▁ତାଲିକାଭୁକ୍ତ	-13477
▁ଶ୍ରୀଲଙ୍କାରେ	-13478
▁ସମୀକ୍ଷକମାନେ	-13479
▁ସମ୍ବର୍ଦ୍ଧନା	-13480
▁ସେହିଦିନଠାରୁ	-13481
▁ଦମ୍ପତ୍ତିଙ୍କର	-13482
▁ବଂଶାନୁକ୍ରମିକ	-13483
BC	-13484
RI	-13485
sm	-13486
iod	-13487
ire	-13488
ran	-13489
ubl	-13490
ଧୂପ	-13491
ନିବ	-13492
ରିଚ	-13493
ିତୀ	-13494
▁ଉଡ	-13495
▁ଏର	-13496
ased	-13497
କ୍ମି	-13498
ଗ୍ନି	-13499
ଜିମା	-13500
ଡ଼କୁ	-13501
ଣ୍ଡନ	-13502
ପାଖର	-13503
ବାଲା	-13504
ମଗ୍ନ	-13505
ଲେସ୍	-13506
ାନାଥ	-13507
ୋଟିନ	-13508
▁ଆଇଓ	-13509
▁ଝିଲ	-13510
▁ଟାଣ	-13511
▁ଡିଫ	-13512
▁ତିର	-13513
▁ଭଲଭ	-13514
▁ମିଛ	-13515
▁ମିର	-13516
▁ଯାଗ	-13517
▁ରତି	-13518
▁ସେଠ	-13519
▁ସ୍ଲ	-13520
▁ହୀର	-13521
▁ୱାଟ	-13522
ଖାସ୍ତ	-13523
ଞ୍ଜଳୀ	-13524
ାବିକା	-13525
ୋତ୍ସବ	-13526
▁ଅଟକି	-13527
▁ଅଲ୍ଟ	-13528
▁ଆଥଲେ	-13529
▁ଇଉରୋ	-13530
▁ଘନତା	-13531
▁ଚୋପା	-13532
▁ଛଅଟି	-13533
▁ଟେକନ	-13534
▁ଧୂଳି	-13535
▁ଫାଶୀ	-13536
▁ବାରୁ	-13537
▁ବାଳୀ	-13538
▁ହରିଆ	-13539
କିମ୍ବା	-13540
ମୁଦ୍ରା	-13541
▁block	-13542
▁ଆର୍କି	-13543
▁ଆର୍ମି	-13544
▁କନିକା	-13545
▁କମ୍ରେ	-13546
▁ପକ୍ଷର	-13547
▁ପାଇଲଟ	-13548
▁ବକ୍ତା	-13549
▁ବିଲୁଆ	-13550
▁ଯାଯାବ	-13551
▁ଶିବିର	-13552
antibio	-13553
unction	-13554
ନିର୍ମିତ	-13555
▁muscle	-13556
▁recept	-13557
▁ଅନ୍ୟଥା	-13558
▁ଆଣ୍ଟିକ	-13559
▁ପାରାଲି	-13560
▁ପ୍ରଣାମ	-13561
▁ପ୍ରେସ୍	-13562
▁ବଳିଦାନ	-13563
▁ଶିକ୍ଷୟ	-13564
▁ଶୁକ୍ରା	-13565
▁ସ୍ତରକୁ	-13566
▁୧୯୪୭ରେ	-13567
▁୧୯୭୪ରେ	-13568
ପ୍ରସିଦ୍ଧ	-13569
ାର୍ଜୀଙ୍କ	-13570
▁ଅଧକପାଳି	-13571
▁ଅଭିନୟକୁ	-13572
▁ଗୋମୁହାଁ	-13573
▁ଘଣ୍ଟାରୁ	-13574
▁ଡ୍ୟାନ୍ସ	-13575
▁ତୃଣଭୂମି	-13576
▁ଦ୍ୱାରରେ	-13577
▁ପ୍ରଶାସକ	-13578
▁ମହାଦେଶର	-13579
▁ଯାହାଙ୍କ	-13580
▁ସୃଷ୍ଟିର	-13581
▁ସ୍ନାତ୍ତ	-13582
▁ସ୍ୱାର୍ଥ	-13583
ପର୍ଯ୍ୟନ୍ତ	-13584
▁ଅସ୍ପୃଶ୍ୟ	-13585
▁ଗୁଣବତ୍ତା	-13586
▁ଜେଜେବାପା	-13587
▁ନିର୍ଯ୍ୟା	-13588
▁ପ୍ରଦୂଷିତ	-13589
▁ପ୍ରାବନ୍ଧ	-13590
▁ବର୍ଷସାରା	-13591
▁ମାଟ୍ରିକ୍	-13592
▁ରାଶିଚକ୍ର	-13593
▁ଶୀତକାଳୀନ	-13594
▁ସଙ୍ଗୀତକୁ	-13595
▁ଆକାଶବାଣୀର	-13596
▁କେନ୍ଦ୍ରରୁ	-13597
▁ପତ୍ତନଠାରୁ	-13598
▁ମତାନୁସାରେ	-13599
▁ଦୁର୍ଗାଙ୍କର	-13600
▁ଦୁର୍ଗାପୂଜା	-13601
▁ମଣ୍ଡେଲାଙ୍କ	-13602
▁ଇଣ୍ଡୋନେସିଆର	-13603
▁ଠାକୁରମାନଙ୍କ	-13604
▁ସେଣ୍ଟିମିଟର୍	-13605
▁କାର୍ଯ୍ୟାନୁଷ୍ଠାନ	-13606
cl	-13607
କଣ	-13608
ଲଭ	-13609
ୋସ	-13610
eng	-13611
କର୍	-13612
ଲଘୁ	-13613
ଲିଭ	-13614
ଳାଷ	-13615
ସିତ	-13616
ୁନୁ	-13617
ୋଧା	-13618
ୋହି	-13619
▁:-	-13620
▁Am	-13621
▁[[	-13622
▁ଉଲ	-13623
▁ଓପ	-13624
ator	-13625
rain	-13626
urin	-13627
ଏକ୍ସ	-13628
କାକୁ	-13629
ଗୋଚର	-13630
ତିଥି	-13631
ଥାଇଲ	-13632
ବର୍ମ	-13633
ଭୁଜା	-13634
ହାରୁ	-13635
ିଶିଆ	-13636
େକସନ	-13637
େଷ୍ଟ	-13638
୍ଲାଦ	-13639
▁ଆଧି	-13640
▁ଖଲି	-13641
▁ଚୋଳ	-13642
▁ଛତୁ	-13643
▁ଡକା	-13644
▁ଢୋଲ	-13645
▁ଦାହ	-13646
▁ବଳଦ	-13647
▁ହୁଇ	-13648
▁୮୦୦	-13649
plant	-13650
ଋତୁରେ	-13651
ଣ୍ଡିସ	-13652
ଭବନରେ	-13653
ଭାରତର	-13654
ାର୍ଡ୍	-13655
▁ଆଚାର	-13656
▁କାଜଲ	-13657
▁କିଟ୍	-13658
▁କୋମା	-13659
▁ଗାଜା	-13660
▁ଚିତି	-13661
▁ତଦାର	-13662
▁ତର୍କ	-13663
▁ଥର୍ମ	-13664
▁ପେରୁ	-13665
▁ପୋଲୋ	-13666
▁ଭାଉଜ	-13667
▁ମହୋଦ	-13668
▁ମୂର୍	-13669
▁ଲିଖନ	-13670
▁ସହ୍ୟ	-13671
▁ୟୁରେ	-13672
▁୧୫ରୁ	-13673
▁୧୯୦୭	-13674
▁୧୯୦୯	-13675
izures	-13676
ଆମେରିକ	-13677
ଷ୍ଟିକ୍	-13678
ସ୍ତରରେ	-13679
▁ଆୟୋଜକ	-13680
▁କଉଡ଼ି	-13681
▁ଗ୍ରୀନ	-13682
▁ପାଇଁଁ	-13683
▁ପାଖରୁ	-13684
▁ପ୍ରବୀ	-13685
▁ମନସ୍ତ	-13686
▁ମନୋରମ	-13687
▁ମୁଲ୍ୟ	-13688
▁ରକ୍ତର	-13689
▁ରକ୍ଷକ	-13690
▁ରାବଣର	-13691
▁Indian	-13692
▁ଗ୍ରାମ୍	-13693
▁ଚିଙ୍ଗୁ	-13694
▁ଜ୍ଞାନୀ	-13695
▁ଡମ୍ବରୁ	-13696
▁ଡେପୁଟି	-13697
▁ପରୋକ୍ଷ	-13698
▁ବେଞ୍ଜୋ	-13699
▁ଯୁବରାଜ	-13700
▁ସଞ୍ଚାର	-13701
▁ସର୍ଭିସ	-13702
▁ସିନିୟର	-13703
▁୧୯୬୭ରେ	-13704
▁୧୯୮୩ରେ	-13705
ପଶ୍ଚିମରେ	-13706
▁ଅଜନ୍ତାର	-13707
▁ଉଇଣ୍ଡୋଜ	-13708
▁କୁନ୍ତଳା	-13709
▁କୋକିଶିଆ	-13710
▁ଗ୍ଲୁକୋଜ	-13711
▁ଚତୁର୍ଥୀ	-13712
▁ଛାଡ଼ିବା	-13713
▁ଜୀବାଣୁର	-13714
▁ପରିପ୍ରେ	-13715
▁ପର୍ବାଣି	-13716
▁ପହଞ୍ଚାଇ	-13717
▁ବାଲ୍ମିକ	-13718
▁ବିଜୟିନୀ	-13719
▁ବିପ୍ଳବୀ	-13720
▁ବ୍ୟାଟିଂ	-13721
▁ମାର୍କେଟ	-13722
▁ଶାଙ୍କୁଚ	-13723
▁ସମୁଦ୍ରର	-13724
▁ସାଙ୍ଗକୁ	-13725
▁ଆକ୍ରମଣରେ	-13726
▁ଉପତ୍ୟକାର	-13727
▁କ୍ଷମତାକୁ	-13728
▁ଗର୍ଭାଧାନ	-13729
▁ଚାମୁଣ୍ଡା	-13730
▁ନିଶ୍ଚେତକ	-13731
▁ପ୍ରଶଂସିତ	-13732
▁ବ୍ୟାନରରେ	-13733
▁ସଂସ୍କାରକ	-13734
▁ସାମର୍ଥ୍ୟ	-13735
▁ସ୍ୱାମୀଜୀ	-13736
▁ଔଷଧଦ୍ୱାରା	-13737
▁କରିପାରିଲେ	-13738
▁ଡିମେନ୍ସିଆ	-13739
▁ପୂର୍ବାହ୍ନ	-13740
▁ପ୍ଲାଟଫର୍ମ	-13741
▁ବଡ଼ସିଂହାର	-13742
▁ରାଜତନ୍ତ୍ର	-13743
▁ସାହିତ୍ୟକୁ	-13744
▁ସିଂହାସନରେ	-13745
▁ପାରଦର୍ଶିତା	-13746
▁ଜଗନ୍ନାଥଙ୍କର	-13747
▁ନିର୍ଦ୍ଦେଶରେ	-13748
▁ଉତ୍ତରପ୍ରଦେଶର	-13749
▁ଜୀବାଣୁଦ୍ୱାରା	-13750
▁ପାର୍ଶ୍ୱବର୍ତ୍ତୀ	-13751
PA	-13752
▁x	-13753
acc	-13754
ଗୀଜ	-13755
ଚିଲ	-13756
ଟିତ	-13757
ଦାଯ	-13758
ନକୁ	-13759
ବାଗ	-13760
ମେଥ	-13761
ଳ୍କ	-13762
ସୋପ	-13763
ାସୁ	-13764
ୋହୀ	-13765
୍ୟୋ	-13766
▁ପ୍	-13767
over	-13768
କିଲୋ	-13769
ଗ୍ଧା	-13770
ଟାରୁ	-13771
ଦିରେ	-13772
ମୋନ୍	-13773
ରିଟି	-13774
ଷ୍ଠି	-13775
ସତ୍ୟ	-13776
ାମ୍ର	-13777
ାହାଜ	-13778
୧୯୭୫	-13779
▁res	-13780
▁ଆତି	-13781
▁କଜଳ	-13782
▁କଫି	-13783
▁ଚ୍ଚ	-13784
▁ଜାଇ	-13785
▁ଡକୁ	-13786
▁ଦୟା	-13787
▁ବୋଟ	-13788
▁ବୋତ	-13789
▁ରିଅ	-13790
▁ରୁପ	-13791
▁୧୧୦	-13792
▁୧୯ଶ	-13793
କ୍ଟର୍	-13794
ବିତ୍ତ	-13795
ଭକ୍ତି	-13796
ଭଙ୍ଗୀ	-13797
ସର୍ଜନ	-13798
▁ଉପଦେ	-13799
▁ଏକାଧ	-13800
▁କଥାର	-13801
▁କାଲେ	-13802
▁କୋଲୋ	-13803
▁ଖୋଳା	-13804
▁ଖୋଳି	-13805
▁ଛେଳି	-13806
▁ଡାଉନ	-13807
▁ତାଳେ	-13808
▁ଧରାପ	-13809
▁ପଚାଶ	-13810
▁ପାଦୁ	-13811
▁ପାପି	-13812
▁ବଂଶଜ	-13813
▁ବନାମ	-13814
▁ବାକ୍	-13815
▁ବୁଲୁ	-13816
▁ବେରି	-13817
▁ବୋମା	-13818
▁ମାଳୟ	-13819
▁୨୫ଟି	-13820
▁୫୦ଟି	-13821
କରନ୍ତି	-13822
କିନ୍ତୁ	-13823
ଖଣ୍ଡିତ	-13824
ଥାନ୍ତା	-13825
ଦଣ୍ଡରେ	-13826
ବୃଦ୍ଧି	-13827
ାତ୍କାର	-13828
ାରୀଙ୍କ	-13829
▁ଅଧକ୍ଷ	-13830
▁କଥାକୁ	-13831
▁କନ୍ନଡ	-13832
▁କୈଣସି	-13833
▁କୋଳରେ	-13834
▁ଗଠନରେ	-13835
▁ଗାଧୋଇ	-13836
▁ଚଉଷଠି	-13837
▁ଟାଇପ୍	-13838
▁ଢାଞ୍ଚ	-13839
▁ନଦୀକୁ	-13840
▁ନମିତା	-13841
▁ବଣ୍ଡା	-13842
▁ବୀମାନ	-13843
▁ରଣବୀର	-13844
▁ସମବାୟ	-13845
▁ସାଉଦି	-13846
▁ସାଙ୍କ	-13847
▁ସ୍କେଲ	-13848
ଦେବଙ୍କୁ	-13849
ନିଶ୍ଚିତ	-13850
ପ୍ରସାରଣ	-13851
▁ଆୟୋଡିନ	-13852
▁ଉଚ୍ଚତର	-13853
▁ଉପାଦେୟ	-13854
▁କ୍ଷତିକ	-13855
▁ଗୋପନୀୟ	-13856
▁ଚାରିଥର	-13857
▁ଟେଲିଭି	-13858
▁ପରିପୂର	-13859
▁ପାଇବାର	-13860
▁ରାଓଙ୍କ	-13861
▁ସଦସ୍ୟା	-13862
▁ସ୍ୱିଜର	-13863
▁ହୋଇଥିବ	-13864
▁ୟୁରୋପର	-13865
▁ଗୁରୁଙ୍କ	-13866
▁ଚାଲୁକ୍ୟ	-13867
▁ପିତାମାତ	-13868
▁ପ୍ରାଚ୍ୟ	-13869
▁ବାର୍ତ୍ତ	-13870
▁ବାହୁଡ଼ା	-13871
▁ବିରଞ୍ଚି	-13872
▁ଭକ୍ତଙ୍କ	-13873
▁ମହାନନ୍ଦ	-13874
▁ସରୋଜିନୀ	-13875
▁ସହକର୍ମୀ	-13876
▁ସ୍ମରଣୀୟ	-13877
▁ହାଇଡ୍ରୋ	-13878
ଯାଉଥିବାରୁ	-13879
▁କରାଇଥିଲା	-13880
▁ପତ୍ରପତ୍ର	-13881
▁ପାଞ୍ଚୋଟି	-13882
▁ବୀରକିଶୋର	-13883
▁ବୈଦ୍ୟନାଥ	-13884
▁ଭୂତପୂର୍ବ	-13885
▁ସାମ୍ନାରେ	-13886
▁ଅଣୁବୀକ୍ଷଣ	-13887
▁ଅଭୟାରଣ୍ୟର	-13888
▁କରିଦିଆଗଲା	-13889
▁ନେହେରୁଙ୍କ	-13890
▁ଫେବ୍ରୁଆରୀ	-13891
▁ମିଳିନାହିଁ	-13892
▁ରୋଗଦ୍ୱାରା	-13893
▁ସମ୍ମିଳନୀର	-13894
▁ସାନ୍ଦ୍ରତା	-13895
▁ଚୁକ୍ତିନାମା	-13896
▁ଶୋଭାଯାତ୍ରା	-13897
▁ପ୍ରଚ୍ଛଦପଟ୍ଟ	-13898
▁ପ୍ରତିଦ୍ୱନ୍ଦ	-13899
▁ଯେଉଁମାନଙ୍କର	-13900
▁ସାକ୍ଷୀଗୋପାଳ	-13901
▁ପ୍ରେକ୍ଷାଳୟରେ	-13902
▁ମହାପ୍ରଭୁଙ୍କୁ	-13903
▁ସୁପ୍ରିମକୋର୍ଟ	-13904
▁କମ୍ପାନୀଦ୍ୱାରା	-13905
▁ନିର୍ଦ୍ଦେଶାବଳୀ	-13906
IM	-13907
hi	-13908
|)	-13909
ଆପ	-13910
ଉଇ	-13911
ଢୀ	-13912
ଦୈ	-13913
ୱର	-13914
ene	-13915
eta	-13916
ond	-13917
rim	-13918
til	-13919
ଡର୍	-13920
ଣୁଆ	-13921
ବାଟ	-13922
ଭିତ	-13923
ମେଲ	-13924
ସିଡ	-13925
ହିଦ	-13926
▁ଢେ	-13927
ious	-13928
irus	-13929
olic	-13930
ଉଁରୀ	-13931
କକ୍ଷ	-13932
ଙ୍ଖା	-13933
ଚଳରେ	-13934
ଚାର୍	-13935
ପଞ୍ଜ	-13936
ସିଜି	-13937
ାଦାର	-13938
ିତ୍ୟ	-13939
ୋଟିକ	-13940
ୱାନା	-13941
▁mar	-13942
▁ଅଠର	-13943
▁କୋଡ	-13944
▁ଛଣା	-13945
▁ଢାଲ	-13946
▁ପଢି	-13947
▁ବୃକ	-13948
▁ବେଳ	-13949
▁ସରା	-13950
▁ହମି	-13951
▁ହାଜ	-13952
▁୬ରୁ	-13953
ivers	-13954
କୁନ୍ଦ	-13955
ଦର୍ଶକ	-13956
ନଙ୍କୁ	-13957
ଭାରତୀ	-13958
ଭ୍ରଂଶ	-13959
ଲାଣ୍ଟ	-13960
ୋଜେନ୍	-13961
▁ଆସିବ	-13962
▁ଆୟକର	-13963
▁କରୁଣ	-13964
▁କୁମୁ	-13965
▁କୋଶଳ	-13966
▁ଖଟୁଆ	-13967
▁ଖିଲା	-13968
▁ଗୌଡ଼	-13969
▁ଗ୍ରୋ	-13970
▁ଜବ୍ସ	-13971
▁ଝିଅର	-13972
▁ନାଜ୍	-13973
▁ନିୟୁ	-13974
▁ପଟରୁ	-13975
▁ପଡିବ	-13976
▁ମଲିକ	-13977
▁ମୋନା	-13978
▁ରାଗି	-13979
▁ରେଟି	-13980
▁ରୋଡ଼	-13981
▁ସୁଫି	-13982
ାମୁଣ୍ଡ	-13983
ିକାଙ୍କ	-13984
▁ଅନ୍ତେ	-13985
▁ଅବନତି	-13986
▁ଆର୍ଜେ	-13987
▁ଇଟାଲୀ	-13988
▁ଇଶ୍ୱର	-13989
▁କୁସୁମ	-13990
▁ଗୁଡିଏ	-13991
▁ଚର୍ମର	-13992
▁ଜୟରାମ	-13993
▁ଟିକିଏ	-13994
▁ଡେମୋକ	-13995
▁ଦେହକୁ	-13996
▁ପାୱାର	-13997
▁ପ୍ଲାଜ	-13998
▁ବନାରସ	-13999
▁ବସ୍ତି	-14000
▁ଭୂଗୋଳ	-14001
▁ଭୂୟାଁ	-14002
▁ମୁଦିର	-14003
▁ରୋମିଓ	-14004
▁ଶସ୍ତା	-14005
▁ଶାଖାର	-14006
▁ଷ୍ଟଡି	-14007
depress	-14008
ବାର୍ଷିକ	-14009
ଲାଣ୍ଡରେ	-14010
▁breath	-14011
▁ଅଞ୍ଜନା	-14012
▁ଉଚ୍ଛେଦ	-14013
▁ଥକ୍କାଣ	-14014
▁ଦ୍ୱନ୍ଦ	-14015
▁ପ୍ରଥାର	-14016
▁ବେଙ୍ଗଲ	-14017
▁ଯଦୁମଣି	-14018
▁ଯାଯାବର	-14019
▁ରେଡ୍ଡୀ	-14020
▁ଶରୀରରୁ	-14021
▁ଶୁକ୍ଳା	-14022
▁ସାତୋଟି	-14023
▁ସ୍ୱରରେ	-14024
▁ଆଖପାଖରେ	-14025
▁କରିଦେଲା	-14026
▁କରୋନାରୁ	-14027
▁ଛୋଟବେଳୁ	-14028
▁ଜେଡବ୍ଲୁ	-14029
▁ତାରିଖରୁ	-14030
▁ଦର୍ଶନରେ	-14031
▁ଦୁଇଗୋଟି	-14032
▁ନାସ୍ତିକ	-14033
▁ପ୍ରମିଳା	-14034
▁ପ୍ରୋଷ୍ଟ	-14035
▁ବର୍ଣ୍ଣର	-14036
▁ବିବାହକୁ	-14037
▁ବୁଦ୍ଧିମ	-14038
▁ମାନନ୍ତି	-14039
▁ରତ୍ନସିଂ	-14040
▁ରାମଙ୍କୁ	-14041
▁ହୋଇନଥାଏ	-14042
▁ଅଂଶବିଶେଷ	-14043
▁ଉପସ୍ଥାପକ	-14044
▁କଣ୍ଟ୍ରୋଲ	-14045
▁କାର୍ଡ଼ିଓ	-14046
▁କ୍ଷ୍ମେର୍	-14047
▁ଜ୍ଞାନକୋଷ	-14048
▁ନିୟମାବଳୀ	-14049
▁ଫ୍ୟାକ୍ଟର	-14050
▁ବିଦ୍ରୋହୀ	-14051
▁ମହାସ୍ନାନ	-14052
▁ରୁକ୍ମିଣୀ	-14053
▁ଶୁକ୍ରବାର	-14054
▁ଶୁଭାରମ୍ଭ	-14055
▁ସ୍ୱପ୍ନରେ	-14056
ରାଷ୍ଟ୍ରପତି	-14057
▁କର୍ପୋରେସନ	-14058
▁ଦୂରଦର୍ଶନର	-14059
▁ଦେଖାଯାଉଛି	-14060
▁ନକ୍ଷତ୍ରରେ	-14061
▁ବାଣିଜ୍ୟରେ	-14062
▁ମହାସାଗରରେ	-14063
▁ଉଇକିମିଡ଼ିଆ	-14064
▁ଗୀତଗୋବିନ୍ଦ	-14065
▁ମାର୍କଣ୍ଡେୟ	-14066
▁ରୂପାନ୍ତରିତ	-14067
▁ଉତ୍ତରାଖଣ୍ଡର	-14068
▁ଉତ୍ସର୍ଗୀକୃତ	-14069
▁ଗର୍ଭାବସ୍ଥାର	-14070
▁ଦୃଷ୍ଟିଶକ୍ତି	-14071
▁ହୋଇସାରିଥିଲା	-14072
▁ଉପକୂଳବର୍ତ୍ତୀ	-14073
▁ବ୍ରାହ୍ମଣମାନେ	-14074
▁ପରିପ୍ରେକ୍ଷୀରେ	-14075
')	-14076
CA	-14077
ଆଳ	-14078
କତ	-14079
iop	-14080
rem	-14081
ଫାର	-14082
ଭବନ	-14083
ମୁଆ	-14084
ସଂଗ	-14085
ସରୁ	-14086
ାଗ୍	-14087
▁ପୈ	-14088
▁ଶକ	-14089
ents	-14090
କାରଣ	-14091
ଗର୍ଭ	-14092
ଣ୍ଠନ	-14093
ନାମା	-14094
ମୁନି	-14095
ର୍ଟି	-14096
ାଦନା	-14097
ିଶ୍ର	-14098
୍ରାଣ	-14099
ୟନରେ	-14100
▁ଅଶୁ	-14101
▁ଆବୁ	-14102
▁ଗାଲ	-14103
▁ଟୁଇ	-14104
▁ଡିକ	-14105
▁ଥ୍ର	-14106
▁ଦୂତ	-14107
▁ଧୂଳ	-14108
▁ଫଳକ	-14109
▁ବୟଃ	-14110
▁ଭରଣ	-14111
▁ଶ୍ୟ	-14112
▁ସଭି	-14113
▁ହସି	-14114
▁୧୬୦	-14115
immun	-14116
ନିୟୁତ	-14117
ମଙ୍ଗଳ	-14118
ରିଙ୍ଗ	-14119
ାବତାର	-14120
▁ଅପ୍ଟ	-14121
▁ଆକ୍ର	-14122
▁କାଜୁ	-14123
▁କାମଳ	-14124
▁କୁଆଁ	-14125
▁ଗଛରୁ	-14126
▁ଙ୍କର	-14127
▁ଜାମୁ	-14128
▁ତୁଳା	-14129
▁ଧନିଆ	-14130
▁ଧୋନି	-14131
▁ନାଚି	-14132
▁ପିଢ଼	-14133
▁ବ୍ଯବ	-14134
▁ମାରୁ	-14135
▁ମାଳା	-14136
▁ଯୌବନ	-14137
▁ଲିଟର	-14138
▁ଶହୀଦ	-14139
▁ସ୍ରୋ	-14140
▁୧୮୯୩	-14141
▁୧୯୦୪	-14142
▁୨୪ଟି	-14143
▁୫୦୦୦	-14144
ମିକାରେ	-14145
ଷ୍ଟାଇନ	-14146
ସ୍ତାନର	-14147
ାମିତ୍ର	-14148
▁ଅପେରା	-14149
▁କଖାରୁ	-14150
▁ଗମ୍ବୁ	-14151
▁ଗ୍ରହର	-14152
▁ଘଣ୍ଟି	-14153
▁ଜନ୍ମର	-14154
▁ଟେମ୍ପ	-14155
▁ତଥ୍ୟର	-14156
▁ପୋଡ଼ା	-14157
▁ବଦଳେଇ	-14158
▁ବିଚ୍ଛ	-14159
▁ଲୁପ୍ତ	-14160
▁ସର୍ଭି	-14161
ଉପନ୍ୟାସ	-14162
ଙ୍କଠାରେ	-14163
ଡମିଣ୍ଟନ	-14164
ସୁନ୍ଦରୀ	-14165
▁ଅଭିନେତ	-14166
▁ଅସ୍ଥିମ	-14167
▁ଆତ୍ମସମ	-14168
▁ଉସ୍ତାଦ	-14169
▁କୁଣ୍ଡଳ	-14170
▁କୋଡ଼ିଏ	-14171
▁କ୍ରେଡି	-14172
▁ଖାଁଙ୍କ	-14173
▁ଚକ୍ରରେ	-14174
▁ଢାଞ୍ଚା	-14175
▁ଧର୍ମାନ	-14176
▁ନିଆଯାଇ	-14177
▁ପବ୍ଲିଶ	-14178
▁ପରମବୀର	-14179
▁ମଣ୍ଡଳର	-14180
▁ରିଜର୍ଭ	-14181
▁ଶ୍ରୀଧର	-14182
▁ଶ୍ରୀବଳ	-14183
▁ସାରଙ୍ଗ	-14184
▁୧୯୬୬ରେ	-14185
▁୧୯୭୨ରେ	-14186
▁୧୯୭୫ରେ	-14187
▁୨୦୦୦ରେ	-14188
କାରୀଙ୍କୁ	-14189
ଳଚ୍ଚିତ୍ର	-14190
▁Kingdom	-14191
▁ଆୟୁର୍ବେ	-14192
▁କ୍ରନିକ୍	-14193
▁ଦଇତାପତି	-14194
▁ପଚାରିଲେ	-14195
▁ପ୍ରତିଟି	-14196
▁ବଢ଼ିଥାଏ	-14197
▁ବାଜିରାଓ	-14198
▁ବାସନ୍ତୀ	-14199
▁ମଳଦ୍ୱାର	-14200
▁ରାସ୍ତାର	-14201
▁ଶୀର୍ଷରେ	-14202
▁ଶ୍ରୀନଗର	-14203
▁ସମାପ୍ତି	-14204
▁ସମୃଦ୍ଧି	-14205
▁ସ୍ଥଳଭାଗ	-14206
▁ହ୍ୱାଟ୍ସ	-14207
▁କେମ୍ବ୍ରି	-14208
▁ଦୁରବର୍ତୀ	-14209
▁ଦ୍ରାବିଡ଼	-14210
▁ପାଦଦେଶରେ	-14211
▁ପାର୍ବତ୍ୟ	-14212
▁ବାସଭବନରେ	-14213
▁ବ୍ୟବହାରର	-14214
▁ମାତୃଭାଷା	-14215
▁ମାନ୍ଦ୍ରା	-14216
▁ମିଳୁଥିଲା	-14217
▁ମିଶ୍ରଣକୁ	-14218
▁ରତ୍ନଗିରି	-14219
▁ରାଷ୍ଟ୍ରର	-14220
▁ସମ୍ବୋଧିତ	-14221
▁ସମ୍ମିଶ୍ର	-14222
▁ସେହିଠାରେ	-14223
▁ସ୍ୱର୍ଗୀୟ	-14224
▁ୟୁନିଭରସି	-14225
ବର୍ତ୍ତମାନର	-14226
▁କାରାଗାରରେ	-14227
▁ପରିତ୍ୟକ୍ତ	-14228
▁ପରିସ୍ରାରେ	-14229
▁ପ୍ରତିଜ୍ଞା	-14230
▁ମାଟିପାତ୍ର	-14231
▁ସୁନିଶ୍ଚିତ	-14232
▁କାରଣଗୁଡ଼ିକ	-14233
▁ତାମିଲନାଡ଼ୁ	-14234
▁ମହାକାଶଚାରୀ	-14235
▁ଶିଶୁମାନଙ୍କ	-14236
▁ଆଇନ୍ଷ୍ଟାଇନ୍	-14237
▁କୁହାଯାଇପାରେ	-14238
▁ଦୀର୍ଘସ୍ଥାୟୀ	-14239
▁ନିର୍ବିଶେଷରେ	-14240
▁ପ୍ରସ୍ତୁତିରେ	-14241
▁ଯୁବାବସ୍ଥାରେ	-14242
ାମାନଙ୍କଦ୍ୱାରା	-14243
ER	-14244
ix	-14245
ଢେ	-14246
let	-14247
ଗାମ	-14248
ଟାର	-14249
ଡାଲ	-14250
ଦୁଇ	-14251
ନିୟ	-14252
ଲୋପ	-14253
ାନସ	-14254
▁(2	-14255
▁0.	-14256
▁is	-14257
▁ଆଘ	-14258
alth	-14259
hite	-14260
phal	-14261
କ୍ରୀ	-14262
ଦାରୁ	-14263
ମଙ୍କ	-14264
ଶବ୍ଦ	-14265
ସିନୀ	-14266
ିକୃତ	-14267
▁ଆଗୋ	-14268
▁ଆବା	-14269
▁ଇଛା	-14270
▁ଉଠା	-14271
▁ଓରି	-14272
▁ଡୋକ	-14273
▁ମଟର	-14274
▁ଲୁଗ	-14275
▁ଶୂଳ	-14276
କଳାରେ	-14277
କ୍ଷିକ	-14278
ଙ୍ଗିକ	-14279
ଟେନସନ	-14280
ତ୍ୟାର	-14281
ଫେକ୍ଟ	-14282
ବର୍ଗର	-14283
ବ୍ୟାସ	-14284
ଲ୍ଲୀର	-14285
ୋଜିକା	-14286
ୋଲାଇଟ	-14287
ୋଲିକ୍	-14288
ୋସିସ୍	-14289
▁2015	-14290
▁ଆଲାମ	-14291
▁ଗୋରା	-14292
▁ଚଟାଣ	-14293
▁ଚିରି	-14294
▁ଡିଫି	-14295
▁ତାଲି	-14296
▁ତୋରଣ	-14297
▁ତ୍ରୈ	-14298
▁ଦୁଆର	-14299
▁ପାଖୁ	-14300
▁ବଢ଼େ	-14301
▁ବାଦୁ	-14302
▁ମର୍ମ	-14303
▁ମାଇଟ	-14304
▁ମାଜି	-14305
▁ମାଡ଼	-14306
▁ମେଡ଼	-14307
▁ରବିନ	-14308
▁ହେମା	-14309
▁୧୮୯୯	-14310
କାରିଣୀ	-14311
ପାରିଛି	-14312
ପ୍ରଧାନ	-14313
ବାନନ୍ଦ	-14314
ମ୍ବିନୀ	-14315
ସନ୍ତାନ	-14316
ାଇଜେସନ	-14317
▁ଉପାଧୀ	-14318
▁କଟକଣା	-14319
▁କଳାକୁ	-14320
▁କାନରେ	-14321
▁କାର୍ଲ	-14322
▁କାଷ୍ଠ	-14323
▁କୋକେନ	-14324
▁କ୍ଲାସ	-14325
▁ଜାମ୍ବ	-14326
▁ଜୋର୍ଡ	-14327
▁ଝିଅକୁ	-14328
▁ଡିସ୍କ	-14329
▁ଦେହରୁ	-14330
▁ପକ୍ଷେ	-14331
▁ପାଣିର	-14332
▁ବେଷ୍ଟ	-14333
▁ରେଞ୍ଜ	-14334
▁ହରିଜନ	-14335
ପ୍ଲାସିଆ	-14336
▁ଅଗ୍ରସର	-14337
▁ଇଟାଲୀୟ	-14338
▁ଇଣ୍ଡିଜ	-14339
▁କାନ୍ଥର	-14340
▁କେଉଁଠି	-14341
▁କୋର୍ଷର	-14342
▁ଗ୍ରାହକ	-14343
▁ଚାରିଜଣ	-14344
▁ଦର୍ଶାଏ	-14345
▁ନବୀକରଣ	-14346
▁ନିର୍ମା	-14347
▁ପଞ୍ଚଦଶ	-14348
▁ପଡ଼ୋଶୀ	-14349
▁ପ୍ରେମା	-14350
▁ଭିକ୍ଷା	-14351
▁ମିର୍ଜା	-14352
▁ରହିଯାଏ	-14353
▁ଶିଖରରେ	-14354
▁ସମଷ୍ଟି	-14355
▁ସାବଧାନ	-14356
▁ହୋଇରହି	-14357
▁ୟୁନିଟ୍	-14358
▁ଅବଲୋହିତ	-14359
▁ଋତୁବନ୍ଦ	-14360
▁କହୁଥିବା	-14361
▁ଘଟିଥିବା	-14362
▁ଚାମ୍ପିଅ	-14363
▁ଚାହିଁଲେ	-14364
▁ତନ୍ଦ୍ରା	-14365
▁ତିଆରିରେ	-14366
▁ନିଦ୍ରାହ	-14367
▁ନୁହନ୍ତି	-14368
▁ପରଶୁରାମ	-14369
▁ପରିପୂରକ	-14370
▁ଭଞ୍ଜନଗର	-14371
▁ମାଧ୍ୟାକ	-14372
▁ରମାଦେବୀ	-14373
▁ଶୈଳବାଳା	-14374
▁ଅଭିଯୋଗରେ	-14375
▁ଆଲଗୋରିଦମ	-14376
▁କେନ୍ଦ୍ରୀ	-14377
▁ଖେଳୁଥିଲେ	-14378
▁ଦ୍ରାଘିମା	-14379
▁ନାରୀମାନେ	-14380
▁ରହୁଛନ୍ତି	-14381
ଥାଇରଏଡିଜ୍ମ	-14382
▁reactions	-14383
▁କ୍ୱାଣ୍ଟମ୍	-14384
▁ଜ୍ୟାମିତିକ	-14385
▁ନିଷ୍କାସିତ	-14386
▁ନ୍ୟାୟାଧୀଶ	-14387
▁ପ୍ରଭୁଙ୍କୁ	-14388
▁ପ୍ଲାଟେଲେଟ	-14389
▁ବଳଭଦ୍ରଙ୍କ	-14390
▁ମର୍ଯ୍ୟାଦା	-14391
▁ଲାଇବ୍ରେରୀ	-14392
▁ସମସ୍ତଙ୍କର	-14393
▁ଚାମ୍ପିୟନଶି	-14394
▁ବୟଃପ୍ରାପ୍ତ	-14395
▁ଅନ୍ୟମାନଙ୍କୁ	-14396
▁ଇଂରେଜମାନଙ୍କ	-14397
▁ପ୍ରତାପରୁଦ୍ର	-14398
▁ଗ୍ରୀଷ୍ମକାଳୀନ	-14399
▁ପରିବର୍ତ୍ତନଶୀଳ	-14400
%,	-14401
ii	-14402
ଆସ	-14403
ଲଡ	-14404
ake	-14405
ani	-14406
hel	-14407
ner	-14408
uro	-14409
ଝିଅ	-14410
ନାଶ	-14411
ଫେର	-14412
ସୀୟ	-14413
ସେଦ	-14414
ାନକ	-14415
▁ph	-14416
▁ହଟ	-14417
▁୯୮	-14418
ଉପରେ	-14419
କ୍କୁ	-14420
ଗାଓଁ	-14421
ଜାବେ	-14422
ଜ୍ଜନ	-14423
ଣିରେ	-14424
ତ୍ତୋ	-14425
ଦ୍ରୁ	-14426
ବଡ଼ୀ	-14427
ଳନୀୟ	-14428
ଶାରେ	-14429
ଷ୍ଟୋ	-14430
ସଫ୍ଟ	-14431
ସାଇଡ	-14432
ିଙ୍ଗ	-14433
େଟିକ	-14434
୧୯୬୨	-14435
▁ଅଟା	-14436
▁କୁହ	-14437
▁ଗୁଗ	-14438
▁ଟଣା	-14439
▁ଦ୍ବ	-14440
▁ଧମକ	-14441
▁ଫିଟ	-14442
▁ବଚନ	-14443
▁ବଣଭ	-14444
▁ବେନ	-14445
▁ମଦର	-14446
▁ସେଓ	-14447
▁ହିଲ	-14448
ଣ୍ଡିର	-14449
ତାଣୁର	-14450
ଥ୍ରୋମ	-14451
ଭିଯୋଗ	-14452
ଶିଂଘା	-14453
▁ଅର୍କ	-14454
▁ଆଦିକ	-14455
▁ଉଦାସ	-14456
▁କେଲି	-14457
▁ଖୋଜା	-14458
▁ଗନ୍ତ	-14459
▁ଛେରା	-14460
▁ପାଲ୍	-14461
▁ଫକିର	-14462
▁ବହିଃ	-14463
▁ବାନ୍	-14464
▁ମେନନ	-14465
▁ଲ୍ୟୁ	-14466
▁ସଉରା	-14467
▁ସଚିନ	-14468
▁ସୌରଭ	-14469
▁ସ୍କୋ	-14470
▁ହର୍ଷ	-14471
▁ହାଇଦ	-14472
▁୧୮୯୦	-14473
breast	-14474
ଆଧୁନିକ	-14475
ବିକ୍ରମ	-14476
ମିତିକି	-14477
ରଙ୍ଗଜେ	-14478
ସ୍ଥଳରେ	-14479
ୋଗ୍ରାଫ	-14480
▁ଅଭିନବ	-14481
▁ଆସନରେ	-14482
▁ଏମ୍ବୋ	-14483
▁କୈଳାଶ	-14484
▁କୋରିଓ	-14485
▁ଗୀତକୁ	-14486
▁ଛଞ୍ଚା	-14487
▁ଜଗତକୁ	-14488
▁ଡକ୍ୟୁ	-14489
▁ତଦାରଖ	-14490
▁ଭାସ୍କ	-14491
▁ଭୟାବହ	-14492
▁ରାକେଶ	-14493
▁ରୋମୀୟ	-14494
▁ଶୀକାର	-14495
▁ସାର୍କ	-14496
▁ସାହିବ	-14497
ization	-14498
▁ଅଧୀନକୁ	-14499
▁ଅବଶୋଷଣ	-14500
▁ଅଭିଭାବ	-14501
▁ଆଣ୍ଡିଜ	-14502
▁ଆଲୋକିତ	-14503
▁ଉତ୍ଥାନ	-14504
▁ଉପକଣ୍ଠ	-14505
▁ତତ୍ପରେ	-14506
▁ପାଚେରୀ	-14507
▁ପ୍ରପାତ	-14508
▁ପ୍ରବାଦ	-14509
▁ପ୍ରବୀଣ	-14510
▁ବିଭୂଷଣ	-14511
▁ମାହାରୀ	-14512
▁ମେଣ୍ଢା	-14513
▁ରାୟଗଡା	-14514
▁ସୁନନ୍ଦ	-14515
▁imaging	-14516
▁ଅମ୍ରିତା	-14517
▁ଆସୁଥିଲା	-14518
▁କହିବାକୁ	-14519
▁କାନ୍ଧରେ	-14520
▁ତତକାଳୀନ	-14521
▁ତାଲିକାର	-14522
▁ନୂଆପଡ଼ା	-14523
▁ପଞ୍ଜିକା	-14524
▁ପଦ୍ମପୁର	-14525
▁ପ୍ରିନ୍ସ	-14526
▁ବସ୍ତୁକୁ	-14527
▁ମଧ୍ୟଭାଗ	-14528
▁ମାହିଷ୍ମ	-14529
▁ଯନ୍ତ୍ରର	-14530
▁ଲେଖକଙ୍କ	-14531
▁ଶୃଙ୍ଗାର	-14532
▁ଷ୍ଟାଣ୍ଡ	-14533
▁ସଦାନନ୍ଦ	-14534
▁ସ୍ୱଦେଶୀ	-14535
▁ଆସ୍ପିରିନ	-14536
▁ଆହ୍ଲାବାଦ	-14537
▁କାଶ୍ମୀରର	-14538
▁ଦୁର୍ନୀତି	-14539
▁ପୃଷ୍ଠାରେ	-14540
▁ହୋଇନଥିଲେ	-14541
▁ଚନ୍ଦ୍ରିକା	-14542
▁ପୃଷ୍ଠପୋଷକ	-14543
▁ପ୍ରଣାଳୀକୁ	-14544
▁ଅତ୍ୟାଧୁନିକ	-14545
▁କାରଣମାନଙ୍କ	-14546
▁ବିଶ୍ୱବ୍ୟାପୀ	-14547
▁ମାଙ୍କଡ଼ମାନେ	-14548
▁ମାଧ୍ୟାକର୍ଷଣ	-14549
▁ଲେଖାଯାଇଥିଲା	-14550
▁ଉଚ୍ଚବିଦ୍ୟାଳୟ	-14551
60	-14552
SS	-14553
Th	-14554
eb	-14555
ଚୂ	-14556
psy	-14557
tim	-14558
ଏଡ଼	-14559
କୁଆ	-14560
ତୁକ	-14561
ଥାଉ	-14562
ବିଏ	-14563
ମେଧ	-14564
ୱାଟ	-14565
▁23	-14566
▁Th	-14567
ଡିନ୍	-14568
ନଳୀର	-14569
ନାଶକ	-14570
ପଡ଼ି	-14571
ବାଲ୍	-14572
ବୁଲା	-14573
ଭଙ୍ଗ	-14574
ମାଲା	-14575
ଶୟରେ	-14576
ୃହୀତ	-14577
ୟନଗର	-14578
୧୯୭୬	-14579
▁Col	-14580
▁ଆଇସ	-14581
▁ଆକା	-14582
▁ଉଇଥ	-14583
▁କନା	-14584
▁ଚେକ	-14585
▁ଧୃତ	-14586
▁ଭୋର	-14587
▁ମଇଁ	-14588
▁ରଜି	-14589
▁ସତେ	-14590
▁ସେଟ	-14591
▁୧୨୫	-14592
ition	-14593
ଗୋଟିଏ	-14594
ଠାକୁର	-14595
ଡ଼ାରୁ	-14596
ଣ୍ଡସ୍	-14597
ପୁରରୁ	-14598
ମାସିକ	-14599
ଯେପରି	-14600
ସମୟରେ	-14601
ସ୍କୋପ	-14602
ାର୍ଥି	-14603
ାଳୁରୁ	-14604
ୀବନ୍ଧ	-14605
▁ଆରତୀ	-14606
▁ଗାଥା	-14607
▁ଘାଟି	-14608
▁ଜାତକ	-14609
▁ଦାୟର	-14610
▁ନାଶକ	-14611
▁ନୌକା	-14612
▁ପାଇବ	-14613
▁ପ୍ଲୁ	-14614
▁ବିଦୁ	-14615
▁ବେକର	-14616
▁ସୁଶୀ	-14617
▁ହେନେ	-14618
ଏସଏଲଭି	-14619
କ୍ଟେରି	-14620
ପ୍ରେମୀ	-14621
ମିତ୍ରା	-14622
▁ଘର୍ଷଣ	-14623
▁ଟେନିସ	-14624
▁ଦୁବାଇ	-14625
▁ପହୁଡ଼	-14626
▁ପିଢ଼ି	-14627
▁ବର୍ଜନ	-14628
▁ବଲିଉଡ	-14629
▁ବିଷୟର	-14630
▁ମାନବା	-14631
▁ମୁଗ୍ଧ	-14632
▁ହସ୍ତି	-14633
▁ହାର୍ଡ	-14634
stitute	-14635
ନଥିବାରୁ	-14636
ବ୍ୟାପ୍ତ	-14637
ର୍ଦ୍ଧ୍ୱ	-14638
▁ଇଜିପ୍ଟ	-14639
▁କମିକ୍ସ	-14640
▁କାଟିବା	-14641
▁କାବେରୀ	-14642
▁ଗର୍ତ୍ତ	-14643
▁ଗୋଲାପୀ	-14644
▁ଚଳାଇବା	-14645
▁ଚେହେରା	-14646
▁ଜନ୍ମରେ	-14647
▁ଜେଜେମା	-14648
▁ଥାନ୍ତି	-14649
▁ନିଆଗଲା	-14650
▁ପଠାଇଲେ	-14651
▁ପରମହଂସ	-14652
▁ବୈଠକରେ	-14653
▁ଭିକାରୀ	-14654
▁ମହାଦେଶ	-14655
▁ରଖାଯାଇ	-14656
▁ସାଥୀରେ	-14657
▁ହେଉଥାଏ	-14658
▁୨୦୨୩ରେ	-14659
କାରୀମାନେ	-14660
ଲ୍ୟାଙ୍କନ	-14661
▁ଅତୁଳନୀୟ	-14662
▁ଅର୍ପିତା	-14663
▁ଆଞ୍ଜିଓଇ	-14664
▁ଇଣ୍ଟ୍ରା	-14665
▁ଉତ୍ତରକୁ	-14666
▁ଏହାଠାରୁ	-14667
▁କାନାଡ଼ା	-14668
▁କାରାବରଣ	-14669
▁କ୍ରିଷ୍ଣ	-14670
▁ଗ୍ରନ୍ଥା	-14671
▁ଚୂର୍ଣ୍ଣ	-14672
▁ଜନତାଙ୍କ	-14673
▁ତ୍ରିଶୂଳ	-14674
▁ପଡ଼ିଆରେ	-14675
▁ପ୍ରତ୍ୟୁ	-14676
▁ପ୍ରଭାବର	-14677
▁ବକ୍ତବ୍ୟ	-14678
▁ବିଚାରକୁ	-14679
▁ସଂଶୋଧିତ	-14680
▁ସୀତାରାମ	-14681
▁ହୋଇପାରୁ	-14682
▁ଅଧିକନ୍ତୁ	-14683
▁ଅବିବାହିତ	-14684
▁ଆମନ୍ତ୍ରଣ	-14685
▁ଗଜପତିଙ୍କ	-14686
▁ଚାଟାର୍ଜୀ	-14687
▁ତେନ୍ତୁଳି	-14688
▁ଥାଇଲାଣ୍ଡ	-14689
▁ପଦ୍ମାବତୀ	-14690
▁ପରସ୍ପରକୁ	-14691
▁ପ୍ରକାରରେ	-14692
▁ପ୍ରହ୍ଲାଦ	-14693
▁ବାସସ୍ଥାନ	-14694
▁ବାସ୍ତବିକ	-14695
▁ମୋନୋକ୍ଲୋ	-14696
▁ଯାହାଙ୍କର	-14697
▁ସାହସିକତା	-14698
▁କ୍ଷତିକାରକ	-14699
▁କ୍ୟାବିନେଟ	-14700
▁ପିତୃପୁରୁଷ	-14701
▁ପ୍ରାନ୍ତରେ	-14702
▁ବିସ୍ତାରିତ	-14703
▁ମଧ୍ୟବିତ୍ତ	-14704
▁ସର୍ବପ୍ରଥମ	-14705
▁ଆତ୍ମସମର୍ପଣ	-14706
▁ଜନ୍ମାଷ୍ଟମୀ	-14707
▁ଫାଉଣ୍ଡେସନ୍	-14708
▁ବିଷ୍ଣୁଙ୍କୁ	-14709
▁ସିଦ୍ଧେଶ୍ୱର	-14710
▁ହାଇସ୍କୁଲରେ	-14711
▁ଚ୍ଚଳଚ୍ଚିତ୍ର	-14712
▁ରୋଗାକ୍ରାନ୍ତ	-14713
▁ଆନାଫାଇଲାକ୍ସିସ	-14714
1)	-14715
DA	-14716
ta	-14717
ୋଁ	-14718
%),	-14719
cer	-14720
cor	-14721
ema	-14722
ork	-14723
rad	-14724
ଗାଲ	-14725
ଜିର	-14726
ଡସ୍	-14727
ଧନୁ	-14728
ବେତ	-14729
ରନ୍	-14730
ିରୀ	-14731
▁ଘେ	-14732
▁ଜଲ	-14733
▁ରୂ	-14734
▁ଲହ	-14735
▁ୟୋ	-14736
tiss	-14737
ulin	-14738
କୋଟା	-14739
ଚିନି	-14740
ତନ୍ତ	-14741
ଦେଖା	-14742
ପୂରଣ	-14743
ପ୍ରୀ	-14744
ପ୍ଲି	-14745
ଫେନ୍	-14746
ବାହା	-14747
ମୋଚୀ	-14748
ମ୍ସ୍	-14749
ଯଜ୍ଞ	-14750
ଯାଳୟ	-14751
ରାୟଣ	-14752
ିନିଆ	-14753
ୋଚିତ	-14754
୍ରିନ	-14755
▁Dis	-14756
▁lev	-14757
▁ଅଚଳ	-14758
▁କାୟ	-14759
▁ଜଗା	-14760
▁ଟାଉ	-14761
▁ଡେଲ	-14762
▁ପଣସ	-14763
▁ବୁଦ	-14764
▁ମିତ	-14765
▁ରିଫ	-14766
▁ଶୁକ	-14767
▁ହେନ	-14768
▁୪ରୁ	-14769
World	-14770
heart	-14771
iting	-14772
ution	-14773
ଡୋସିସ	-14774
ଦୀପ୍ତ	-14775
ନାଇକେ	-14776
ବୁଦ୍ଧ	-14777
ଲାନ୍ସ	-14778
ସାର୍ଟ	-14779
ହ୍ନରେ	-14780
▁2013	-14781
▁neal	-14782
▁ଅକ୍କ	-14783
▁ଅଳକା	-14784
▁କବୀର	-14785
▁କୁଟୁ	-14786
▁କ୍ରୁ	-14787
▁ଗୋବର	-14788
▁ଟକ୍ସ	-14789
▁ଡିକେ	-14790
▁ପାଦର	-14791
▁ବରାଳ	-14792
▁ବଶତଃ	-14793
▁ବେଲୁ	-14794
▁ଭୀଷଣ	-14795
▁ମିତା	-14796
▁ମୁଭି	-14797
▁ରଣପା	-14798
▁ଲାଘବ	-14799
▁ଶଯ୍ୟ	-14800
▁ଷ୍ଟକ	-14801
bacter	-14802
ପମେଣ୍ଟ	-14803
ପୁସ୍ତକ	-14804
ର୍ତ୍ତୀ	-14805
ସନ୍ତିଆ	-14806
▁ଆରବୀୟ	-14807
▁ଏତିକି	-14808
▁ଏସୋଫେ	-14809
▁କୁଳରେ	-14810
▁କ୍ଷୀଣ	-14811
▁ଦୁହିଁ	-14812
▁ଦେଉଳର	-14813
▁ନନ୍ଦୀ	-14814
▁ପୀଡ଼ା	-14815
▁ଫିଜିଓ	-14816
▁ବହିରେ	-14817
▁ବିପ୍ଲ	-14818
▁ମନୋହର	-14819
▁ମାଉସୀ	-14820
▁ଯୋଦ୍ଧ	-14821
▁ରତ୍ନା	-14822
▁ସର୍କି	-14823
▁ସିଝାଇ	-14824
dominal	-14825
ସଂସ୍କାର	-14826
ୋଲୋଜିରେ	-14827
▁ଅଲୌକିକ	-14828
▁କାନାଡା	-14829
▁କାରଣକୁ	-14830
▁କୋଣାର୍	-14831
▁କ୍ୟୁଟି	-14832
▁ଛାତ୍ରା	-14833
▁ଦୌଡ଼ରେ	-14834
▁ପ୍ରବାସ	-14835
▁ବାମ୍ଫୀ	-14836
▁ମହାକାଳ	-14837
▁ରାଜ୍ୟସ	-14838
▁ରୋମାନ୍	-14839
▁ଲଗାଇବା	-14840
▁ଲଗାଇଲେ	-14841
▁ଶତାଧିକ	-14842
▁ସୁରକ୍ଷ	-14843
▁ସୋଡିୟମ	-14844
▁ସ୍ୱରୁପ	-14845
▁ହେଉଅଛି	-14846
▁୧୯୫୭ରେ	-14847
▁୧୯୭୦ରେ	-14848
କ୍ରିୟାରେ	-14849
ନିରପେକ୍ଷ	-14850
ସ୍ଥିତିକୁ	-14851
▁ଅପଭ୍ରଂଶ	-14852
▁ଅରୁଣାଚଳ	-14853
▁ଏଞ୍ଜାଇମ	-14854
▁କରାନ୍ତି	-14855
▁କରୁଣାକର	-14856
▁କହିଥିଲା	-14857
▁କ୍ରିପ୍ଟ	-14858
▁କ୍ରୋଧିତ	-14859
▁କ୍ୟାପଟେ	-14860
▁ଗନ୍ଧର୍ବ	-14861
▁ଚର୍ମରୋଗ	-14862
▁ନୃତ୍ୟକୁ	-14863
▁ପ୍ରତିହତ	-14864
▁ଭିନ୍ନତା	-14865
▁ରଖୁଥିଲେ	-14866
▁ଲିମିଟେଡ	-14867
▁ହିମାଂଶୁ	-14868
▁ହୃଦ୍ରୋଧ	-14869
ର୍ଦ୍ଦିଷ୍ଟ	-14870
▁ଅଭିଜ୍ଞତା	-14871
▁ଅର୍ଚ୍ଚନା	-14872
▁କୀର୍ତ୍ତନ	-14873
▁ଜାଣିଥିଲେ	-14874
▁ପରିବାରରୁ	-14875
▁ପୁଷ୍ଟିକର	-14876
▁ବଙ୍ଗଳାରେ	-14877
▁ରକ୍ଷଣଶୀଳ	-14878
▁ସଂସ୍ଥାପକ	-14879
▁ସେହିବର୍ଷ	-14880
▁ସ୍ନିଗ୍ଧା	-14881
▁ହେଉଥିବାର	-14882
▁ଖ୍ରୀଷ୍ଟୀୟ	-14883
▁ଚିନ୍ତାଧାର	-14884
▁ଜିଲ୍ଲାପାଳ	-14885
▁ଦେବେନ୍ଦ୍ର	-14886
▁ନାରାୟଣଙ୍କ	-14887
▁ବାହାରିଥାଏ	-14888
▁ବ୍ୟାଙ୍କରେ	-14889
▁ମସିହାଠାରୁ	-14890
▁ମହାବିଦ୍ୟା	-14891
▁ମୃତ୍ୟୁପରେ	-14892
▁ରାଜପରିବାର	-14893
▁ସଂଖ୍ୟାଲଘୁ	-14894
▁ଅନୁପସ୍ଥିତି	-14895
▁ଉତ୍ତରାଖଣ୍ଡ	-14896
▁ଏକ୍ସପ୍ରେସ୍	-14897
▁କରିଦିଅନ୍ତି	-14898
▁ଘୂର୍ଣ୍ଣିବା	-14899
▁ଚାନ୍ଦ୍ରମାନ	-14900
▁ପର୍ଣ୍ଣମୋଚୀ	-14901
▁ସମ୍ଭ୍ରାନ୍ତ	-14902
▁ଚିତ୍ରଶିଳ୍ପୀ	-14903
▁ନିଦ୍ରାହୀନତା	-14904
▁ଶ୍ରୀକ୍ଷେତ୍ରରେ	-14905
)(	-14906
.2	-14907
18	-14908
PD	-14909
we	-14910
ଇଂ	-14911
ଗହ	-14912
ମଲ	-14913
ସଦ	-14914
୍୍	-14915
eas	-14916
ics	-14917
ock	-14918
ush	-14919
ଆରା	-14920
ଗାଈ	-14921
ଡ଼ନ	-14922
ଢେଇ	-14923
ମୋର	-14924
ଷାଣ	-14925
ହେର	-14926
େଲର	-14927
ୋଲ୍	-14928
୍ଜା	-14929
୩୦୦	-14930
▁Ex	-14931
▁ଅଁ	-14932
▁ଇବ	-14933
▁ଇହ	-14934
▁ଓଟ	-14935
leep	-14936
osph	-14937
ଞ୍ଝା	-14938
ଡୋଶୀ	-14939
ଣାଟକ	-14940
ଣିମା	-14941
ପାଳକ	-14942
ମାରୁ	-14943
ଯୁଗର	-14944
ଲୋରି	-14945
ସୂଚକ	-14946
ସ୍ଟା	-14947
େନିଆ	-14948
ୋନେଟ	-14949
୧୯୬୮	-14950
▁Res	-14951
▁par	-14952
▁କମୁ	-14953
▁କାଇ	-14954
▁କାହ	-14955
▁ଗହମ	-14956
▁ଚଳି	-14957
▁ଦୋହ	-14958
▁ବୟନ	-14959
▁ମାଡ	-14960
▁ଲିସ	-14961
▁ଶିଳ	-14962
▁୭୦୦	-14963
iency	-14964
ronic	-14965
ଜୁମାବ	-14966
ଧର୍ମୀ	-14967
ବୃକ୍ଷ	-14968
ମାସରେ	-14969
ଲେଣ୍ଟ	-14970
ଷିକେଶ	-14971
ସିଫିକ	-14972
ାଙ୍କି	-14973
ୋନିକ୍	-14974
ୋପାଥି	-14975
▁ଆଲୁଅ	-14976
▁ଇଜାନ	-14977
▁କହ୍ନ	-14978
▁କୁଛ୍	-14979
▁କୋଚି	-14980
▁କ୍ଲେ	-14981
▁ଚେତନ	-14982
▁ଜୀବର	-14983
▁ତାଲା	-14984
▁ଦେଖୁ	-14985
▁ନଡିଆ	-14986
▁ପଥରର	-14987
▁ପାଉଁ	-14988
▁ପୋକେ	-14989
▁ବାହକ	-14990
▁ଭିଡ଼	-14991
▁ମିଶର	-14992
▁ମେଟା	-14993
▁ମୋଡ଼	-14994
▁ମୋନୋ	-14995
▁ରଦ୍ଦ	-14996
▁ଲାବଣ	-14997
▁ଶିରି	-14998
acture	-14999
tissue	-15000
ଦୁର୍ଗା	-15001
ନାଟ୍ୟମ	-15002
ନ୍ଦ୍ରୀ	-15003
ପ୍ରଦାନ	-15004
ିଶିଷ୍ଟ	-15005
▁Award	-15006
▁ଅବମାନ	-15007
▁ଆଗ୍ରା	-15008
▁ଆଣ୍ଡି	-15009
▁ଏସିଆନ	-15010
▁କାଠମା	-15011
▁ଜିଲାର	-15012
▁ଟେକ୍ସ	-15013
▁ଦିନିଆ	-15014
▁ପ୍ରଯୁ	-15015
▁ପ୍ରାକ	-15016
▁ପ୍ରାତ	-15017
▁ବଢ଼େଇ	-15018
▁ବାଲିଆ	-15019
▁ବିଦିତ	-15020
▁ମାଳତୀ	-15021
▁ମୋହିତ	-15022
▁ରଥଙ୍କ	-15023
▁ରାତିର	-15024
▁ରେଷ୍ଟ	-15025
▁ଲୁଚାଇ	-15026
▁ସରୋବର	-15027
▁ସ୍ତୁପ	-15028
▁୧୦୦ଟି	-15029
▁ଅପରାଧର	-15030
▁ଉପସାଗର	-15031
▁କଲମ୍ବୋ	-15032
▁କାଗଜରେ	-15033
▁ଗୌରହରି	-15034
▁ଚିକ୍କଣ	-15035
▁ଡ୍ରାମା	-15036
▁ଢୁମ୍ପା	-15037
▁ଦୁଃଖରେ	-15038
▁ଦେବରାଜ	-15039
▁ନୀତିରେ	-15040
▁ନେଇଥାଏ	-15041
▁ପକାଇବା	-15042
▁ପିତ୍ତଳ	-15043
▁ବଶିଷ୍ଠ	-15044
▁ବାଣ୍ଟି	-15045
▁ବାନ୍ଧବ	-15046
▁ମାଙ୍କୁ	-15047
▁ରାଇଫଲ୍	-15048
▁ରାତ୍ରୀ	-15049
▁ଶାସନରେ	-15050
▁୧୯୭୭ରେ	-15051
▁ଅତିବଡ଼ୀ	-15052
▁ଇଉରୋପରେ	-15053
▁ଉତ୍କର୍ଷ	-15054
▁କରିଦେବା	-15055
▁ପରିବ୍ରା	-15056
▁ବିହାରରେ	-15057
▁ଭାଗିରଥୀ	-15058
▁ମର୍ଦ୍ଦଳ	-15059
▁ମହାନଦୀର	-15060
▁ମିଆଁମାର	-15061
▁ଶୋଇବାରେ	-15062
▁ସଂଗୃହୀତ	-15063
▁ସମୀକ୍ଷକ	-15064
▁ସୋପାନରେ	-15065
▁ହେଲାପରେ	-15066
ବୈଜ୍ଞାନିକ	-15067
▁ଅଟୋସୋମାଲ	-15068
▁ଅନ୍ତରଙ୍ଗ	-15069
▁ଆକ୍ରମଣରୁ	-15070
▁ଉପଦେଷ୍ଟା	-15071
▁ଗବେଷଣାରୁ	-15072
▁ଗୃହଯୁଦ୍ଧ	-15073
▁ଗୋଷ୍ଠୀରେ	-15074
▁ଜାଣିପାରି	-15075
▁ଜିଲ୍ଲାକୁ	-15076
▁ତିନିଗୋଟି	-15077
▁ଦେଉଛନ୍ତି	-15078
▁ଦେବୀଦତ୍ତ	-15079
▁ଦ୍ୱିତୀୟା	-15080
▁ପଦ୍ମଭୂଷଣ	-15081
▁ପାରୁଥିଲେ	-15082
▁ମଡେଲିଂରେ	-15083
▁ମିଲିଟାରୀ	-15084
▁ରିପବ୍ଲିକ	-15085
▁ସହରାଞ୍ଚଳ	-15086
▁ସୂତ୍ରପାତ	-15087
▁ଅନ୍ତନଳୀରେ	-15088
▁ଆପ୍ଲିକେସନ	-15089
▁ଏପିଲେପ୍ସି	-15090
▁କାରଖାନାରେ	-15091
▁ଜଣାପଡ଼ିଛି	-15092
▁ଦୃଷ୍ଟାନ୍ତ	-15093
▁ନକାରାତ୍ମକ	-15094
▁ପକ୍ଷୀମାନେ	-15095
▁ପୂର୍ଣ୍ଣମୀ	-15096
▁ପେନିସିଲିନ	-15097
▁ଅନିଚ୍ଛାକୃତ	-15098
▁ଉପସ୍ଥିତିରେ	-15099
▁କପିଳେନ୍ଦ୍ର	-15100
▁ଦିଲ୍ଲୀଠାରେ	-15101
▁ପ୍ରଶ୍ୱାସରେ	-15102
▁ସନ୍ତସନ୍ତିଆ	-15103
▁ସ୍ୱାଧୀନତାର	-15104
▁ଆମ୍ବେଦକରଙ୍କ	-15105
▁ବେଞ୍ଜୋଡାଏଜେ	-15106
▁ମନ୍ତ୍ରଣାଳୟର	-15107
▁ହେମୋଗ୍ଲୋବିନ	-15108
▁ହୋଇପାରିଥିଲେ	-15109
CN	-15110
ଅଧ	-15111
ଶୋ	-15112
emb	-15113
ury	-15114
ଉଟ୍	-15115
ଏବେ	-15116
କ୍ଳ	-15117
ଟୁଇ	-15118
ଡେଲ	-15119
ନାଟ	-15120
ନିଡ	-15121
ପୁନ	-15122
ମନୀ	-15123
ଯଦି	-15124
ସମୟ	-15125
ିଶ୍	-15126
େଶା	-15127
ୋଗା	-15128
ୋଜା	-15129
ୋହଳ	-15130
▁ଠୁ	-15131
▁ୟଶ	-15132
କୋଳି	-15133
ଜାନର	-15134
ଞ୍ଜୋ	-15135
ଟ୍ଟି	-15136
ତିକା	-15137
ଥାଂଶ	-15138
ନ୍ନତ	-15139
ଫ୍ରି	-15140
ଭାନୁ	-15141
ମାରା	-15142
ର୍ଷକ	-15143
ସିଆନ	-15144
ାଇଡର	-15145
▁Med	-15146
▁ଅକା	-15147
▁ଏଡା	-15148
▁ଏମି	-15149
▁ଗଣନ	-15150
▁ଗାୟ	-15151
▁ଚଢ଼	-15152
▁ଜନଶ	-15153
▁ପାୟ	-15154
▁ବିଟ	-15155
▁ବିହ	-15156
▁ବେଢ	-15157
▁ଯିବ	-15158
▁ରେନ	-15159
▁ଶିଆ	-15160
▁ଶ୍ମ	-15161
▁ସୟଦ	-15162
▁ହଜମ	-15163
▁୧୭ଶ	-15164
odium	-15165
କୂଳରେ	-15166
ନ୍ତୋଷ	-15167
ପତଙ୍ଗ	-15168
ବଂଶୀୟ	-15169
ବିଚାର	-15170
ୋଗ୍ଲି	-15171
ୟାଙ୍କ	-15172
ୱେଲ୍ଥ	-15173
▁coun	-15174
▁ଆରବୀ	-15175
▁ଇଙ୍ଗ	-15176
▁ଗିଳି	-15177
▁ଚିଠା	-15178
▁ଜଙ୍ଘ	-15179
▁ତୋଳା	-15180
▁ବାଟେ	-15181
▁ମନ୍ମ	-15182
▁ମିକୋ	-15183
▁ରକେଟ	-15184
▁ରସକୁ	-15185
▁ଲଢେଇ	-15186
▁ଲୋଚନ	-15187
▁୧୮୮୦	-15188
ଣ୍ଡିରେ	-15189
ନ୍ଧ୍ୟା	-15190
ବର୍ଷରେ	-15191
ବିହାରୀ	-15192
ବୋର୍ଡ଼	-15193
ସ୍ପରିକ	-15194
ସ୍ୱିନୀ	-15195
ିକ୍ଷେପ	-15196
୍ୟୁଲାର	-15197
▁ଅଗସ୍ତ	-15198
▁ଅଙ୍କୁ	-15199
▁ଅଧାରୁ	-15200
▁ଏଣ୍ଟର	-15201
▁ଖାଇବର	-15202
▁ଜାମିନ	-15203
▁ଟାଇଟଲ	-15204
▁ନାଇଡୁ	-15205
▁ନିପୁଣ	-15206
▁ପଡୋଶୀ	-15207
▁ପରିଧି	-15208
▁ବାଦାମ	-15209
▁ବାଷ୍ପ	-15210
▁ବିତ୍ତ	-15211
▁ବିପିନ	-15212
▁ବିସ୍ମ	-15213
▁ବିୟୋଗ	-15214
▁ମନ୍ଥନ	-15215
▁ରେବତୀ	-15216
▁ଲିପ୍ତ	-15217
▁ଲେଖାର	-15218
▁ସାରଣୀ	-15219
▁ସୁବିଧ	-15220
▁ସ୍କାର	-15221
▁ହେମ୍ବ	-15222
generic	-15223
ବ୍ୟୁଲିନ	-15224
ସାଇକ୍ଲୋ	-15225
▁ଅମ୍ଳାନ	-15226
▁ଆସାମରେ	-15227
▁ଇସ୍ଲାମ	-15228
▁ଏବେକାର	-15229
▁କ୍ରମାନ	-15230
▁ଚିତ୍ରର	-15231
▁ଚିନ୍ମୟ	-15232
▁ଦୁର୍ଲଭ	-15233
▁ଧର୍ମକୁ	-15234
▁ନର୍ମଦା	-15235
▁ନାବାଳକ	-15236
▁ପହଞ୍ଚେ	-15237
▁ପିପିଲି	-15238
▁ପିଭିସି	-15239
▁ବାଲୁକା	-15240
▁ମ୍ୟୁନି	-15241
▁ରୋହିଣୀ	-15242
▁ଲାର୍ଭା	-15243
▁କାଉନସିଲ	-15244
▁ଚାର୍ଲ୍ସ	-15245
▁ନଦୀବନ୍ଧ	-15246
▁ନନ୍ଦଙ୍କ	-15247
▁ଫୁଲବାଣୀ	-15248
▁ବିସର୍ଜନ	-15249
▁ମଣ୍ଡଳୀର	-15250
▁ମାଳଭୂମି	-15251
▁ଲର୍ଣ୍ଣି	-15252
▁ଲୀଳାବତୀ	-15253
▁ଶ୍ରୀନଅର	-15254
▁ଷ୍ଟାଡ଼ି	-15255
▁ସାମନାରେ	-15256
▁ସ୍ପୋର୍ଟ	-15257
▁ହସ୍ତିନା	-15258
▁ଅଭ୍ୟନ୍ତର	-15259
▁ଅସ୍ତିତ୍ୱ	-15260
▁କରାଇବାରେ	-15261
▁ଖେଳିବାକୁ	-15262
▁ଗୁଜରାଟରେ	-15263
▁ଛତିଶଗଡ଼ର	-15264
▁ନନ୍ଦିଘୋଷ	-15265
▁ପଞ୍ଚାୟତର	-15266
▁ପରିବେଷିତ	-15267
▁ପୁରୀଠାରେ	-15268
▁ପୂର୍ବଦିନ	-15269
▁ପ୍ରଡକ୍ସନ	-15270
▁ବଲାଙ୍ଗିର	-15271
▁ମାର୍ଗଶିର	-15272
▁ମିଶ୍ରଣରେ	-15273
▁ଶ୍ୱେତସାର	-15274
▁ସୁସ୍ମିତା	-15275
▁ହେବାଯାଏଁ	-15276
▁ଉପମହାଦେଶର	-15277
▁ପ୍ରଗତିଶୀଳ	-15278
▁ବିଦ୍ୟାପତି	-15279
▁ବିପଦମୁକ୍ତ	-15280
▁ବ୍ରିଟେନରେ	-15281
▁ଭାଙ୍ଗିଯାଏ	-15282
▁ସମ୍ପତ୍ତିର	-15283
▁ସର୍ବବୃହତ୍	-15284
▁ସ୍ଥାପତ୍ୟର	-15285
▁ଆକାଶବାଣୀରେ	-15286
▁ଆଞ୍ଜିଓଇଡିମା	-15287
▁କୁହାଯାଇଥିଲା	-15288
▁ପାରାସେଟାମୋଲ	-15289
▁ବିଜୟଲକ୍ଷ୍ମୀ	-15290
▁ବିଶ୍ୱାମିତ୍ର	-15291
▁ମୋନୋକ୍ଲୋନାଲ	-15292
▁ସୂର୍ଯ୍ୟାସ୍ତ	-15293
▁କର୍ମଚାରୀଙ୍କୁ	-15294
▁ପ୍ରକ୍ରିୟାକରଣ	-15295
▁ଲୋକଙ୍କଦ୍ୱାରା	-15296
▁ସରକାରଙ୍କଠାରୁ	-15297
▁ସାକ୍ଷାତକାରରେ	-15298
▁ହିନ୍ଦୁସ୍ତାନୀ	-15299
80	-15300
RA	-15301
ST	-15302
Sp	-15303
ଅା	-15304
ଆନ	-15305
ରକ	-15306
ଷକ	-15307
ାଣ	-15308
orn	-15309
tra	-15310
କୌଶ	-15311
ଣାଳ	-15312
ପଲି	-15313
ଫଏଡ	-15314
ମର୍	-15315
ମିଂ	-15316
ରାସ	-15317
ସସ୍	-15318
ହତି	-15319
ାଗର	-15320
ାଦର	-15321
ୁଆଲ	-15322
ୂରୀ	-15323
୪ଟି	-15324
▁21	-15325
▁Sh	-15326
▁ସପ	-15327
▁୯୪	-15328
▁୯୬	-15329
ange	-15330
ଅକ୍ସ	-15331
ଇଥାନ	-15332
ଏଲରେ	-15333
ତାରା	-15334
ନିସ୍	-15335
ପିଡି	-15336
ଫ୍ଲୋ	-15337
ଯାନୀ	-15338
ରିୟା	-15339
ଲିନା	-15340
ସ୍ପେ	-15341
ିଆଣୀ	-15342
ୁରରେ	-15343
ୃହିତ	-15344
୍ରେୟ	-15345
୧୯୭୨	-15346
▁str	-15347
▁ଗୌଣ	-15348
▁ଚିନ	-15349
▁ଡାନ	-15350
▁ତାତ	-15351
▁ତିଳ	-15352
▁ଦାବ	-15353
▁ପରବ	-15354
▁ଫଳର	-15355
▁ବାଈ	-15356
▁ବାଛ	-15357
▁ମିଉ	-15358
▁ଲଢି	-15359
▁ଲେନ	-15360
▁ସଂଖ	-15361
▁୧୪୦	-15362
▁୩୫୦	-15363
elect	-15364
ଖଣ୍ଡଳ	-15365
ଗୁଡ଼ି	-15366
ତ୍ୱରେ	-15367
ପୋଖରୀ	-15368
ପ୍ରବଣ	-15369
ଭାଶିଷ	-15370
ହାରୁଖ	-15371
ହୋଇଛି	-15372
▁fail	-15373
▁ଆବେଗ	-15374
▁ଗଧିଆ	-15375
▁ଚଉରା	-15376
▁ଚାଇନ	-15377
▁ଟଙ୍କ	-15378
▁ଟିକି	-15379
▁ଡେଭଲ	-15380
▁ଦଳଗତ	-15381
▁ପିଲ୍	-15382
▁ବଦ୍ଧ	-15383
▁ବ୍ଯା	-15384
▁ଭାଇର	-15385
▁ଭୁଲ୍	-15386
▁ମାଗୁ	-15387
▁ଯୋନି	-15388
▁ରିଲେ	-15389
▁ସରଳା	-15390
▁ସୁପ୍	-15391
ବର୍ଷରୁ	-15392
▁ଆଡେନୋ	-15393
▁ଉଦ୍ଭବ	-15394
▁କଟକରୁ	-15395
▁ଗତିପଥ	-15396
▁ଚମଡ଼ା	-15397
▁ଟ୍ରାକ	-15398
▁ତଣ୍ଟି	-15399
▁ତାମସା	-15400
▁ଦିଗରୁ	-15401
▁ଦୁରରେ	-15402
▁ଦୈତ୍ୟ	-15403
▁ଦ୍ରୋଣ	-15404
▁ଧର୍ଷଣ	-15405
▁ନିମ୍ବ	-15406
▁ବାକ୍ୟ	-15407
▁ବାରାଣ	-15408
▁ବାୱେଲ	-15409
▁ବିକୃତ	-15410
▁ବ୍ୟୋମ	-15411
▁ଭଗିନୀ	-15412
▁ଭାର୍ଗ	-15413
▁ମନ୍ଥର	-15414
▁ଲୋକକୁ	-15415
ବାବାଙ୍କ	-15416
ମେନ୍ଦ୍ର	-15417
ସ୍ଟାମିନ	-15418
▁ଅଞ୍ଜଳି	-15419
▁ଅଭିମାନ	-15420
▁ଆବିର୍ଭ	-15421
▁କମିଯାଇ	-15422
▁କର୍ପୁର	-15423
▁କେରଳରେ	-15424
▁ଚିତ୍ରା	-15425
▁ଜୀବନରୁ	-15426
▁ତମନ୍ନା	-15427
▁ଧନଞ୍ଜୟ	-15428
▁ନାଜ୍କା	-15429
▁ପୁରାଣର	-15430
▁ବଂଶୀଧର	-15431
▁ବ୍ଲକ୍ଚ	-15432
▁ଭୋଗରାଇ	-15433
▁ଭ୍ରାତା	-15434
▁ମ୍ୟୁଜି	-15435
▁ଷ୍ଟ୍ରେ	-15436
▁ସ୍ନେହା	-15437
▁ହ୍ରଦଟି	-15438
▁୧୯୩୬ରେ	-15439
▁୧୯୫୫ରେ	-15440
ାଗୁଡ଼ିକୁ	-15441
▁failure	-15442
▁ଅକ୍କିନେ	-15443
▁ଅନ୍ୱେଷଣ	-15444
▁ଅଭିଯାନର	-15445
▁ଆକବରଙ୍କ	-15446
▁ଆଧିପତ୍ୟ	-15447
▁କାରାଗାର	-15448
▁କାଳିଦାସ	-15449
▁କିବୋର୍ଡ	-15450
▁କେଶହାନୀ	-15451
▁ଦୀକ୍ଷିତ	-15452
▁ନାୟକଙ୍କ	-15453
▁ପଡୁଥିବା	-15454
▁ପରିବେଶର	-15455
▁ପର୍ବତାର	-15456
▁ପାରଙ୍ଗମ	-15457
▁ପ୍ରଶସ୍ତ	-15458
▁ଫାଇନାଲ୍	-15459
▁ବନ୍ଧ୍ୟା	-15460
▁ବାତାବରଣ	-15461
▁ବାରବାଟି	-15462
▁ଲେଖନ୍ତି	-15463
▁ସମ୍ମାନର	-15464
▁ସାଇକ୍ଲୋ	-15465
▁ସିରିଜରେ	-15466
▁ସ୍ୱାକ୍ଷ	-15467
▁ଉପମହାଦେଶ	-15468
▁ଉପାଖ୍ୟାନ	-15469
▁କକ୍ଷପଥରେ	-15470
▁ଗବେଷକଙ୍କ	-15471
▁ଚେନ୍ନାଇର	-15472
▁ଜଣାଯାଇଛି	-15473
▁ଜଳବାୟୁରେ	-15474
▁ନକ୍ଷତ୍ରର	-15475
▁ପ୍ରମାତ୍ର	-15476
▁ପ୍ରାଧ୍ୟା	-15477
▁ବେଦବ୍ୟାସ	-15478
▁ଭିଟାମିନ୍	-15479
▁ଭୁମିକାରେ	-15480
▁ମଲ୍ଟିପ୍ଲ	-15481
▁ମେମୋରିଆଲ	-15482
▁ରମାକାନ୍ତ	-15483
▁ଲାଇସେନ୍ସ	-15484
▁ସଂଗ୍ରାମର	-15485
▁ସମ୍ପ୍ରତି	-15486
▁ସାଜସଜ୍ଜା	-15487
▁ଅସୁରକ୍ଷିତ	-15488
▁ଚୌଧୁରୀଙ୍କ	-15489
▁ଜିତିଛନ୍ତି	-15490
▁ନୌବାଣିଜ୍ୟ	-15491
▁ବାଲେଶ୍ୱରର	-15492
▁ମନ୍ତ୍ରାଳୟ	-15493
▁ରକ୍ତହୀନତା	-15494
▁ଶୈଳେନ୍ଦ୍ର	-15495
▁ହେଇଥିବାରୁ	-15496
▁ହୋଇପାରିଲା	-15497
▁ଚେୟାରମ୍ୟାନ	-15498
▁ପରସ୍ପରଠାରୁ	-15499
▁ପ୍ରାବନ୍ଧିକ	-15500
▁ବନ୍ଦରନାଇକେ	-15501
▁ବେଙ୍ଗାଳୁରୁ	-15502
▁ମାନବାଧିକାର	-15503
[...]
